{
  "vocab": {
    "I": 0,
    "n": 1,
    "d": 2,
    "i": 3,
    "a": 4,
    ",": 5,
    "Ġ": 6,
    "o": 7,
    "f": 8,
    "c": 9,
    "l": 10,
    "y": 11,
    "t": 12,
    "h": 13,
    "e": 14,
    "R": 15,
    "p": 16,
    "u": 17,
    "b": 18,
    "s": 19,
    "r": 20,
    "S": 21,
    "A": 22,
    ".": 23,
    "v": 24,
    "-": 25,
    "g": 26,
    "m": 27,
    "w": 28,
    "1": 29,
    "9": 30,
    "4": 31,
    "7": 32,
    "'": 33,
    "B": 34,
    "O": 35,
    "P": 36,
    "k": 37,
    ";": 38,
    "C": 39,
    "N": 40,
    "M": 41,
    "L": 42,
    "T": 43,
    "5": 44,
    "0": 45,
    "V": 46,
    "E": 47,
    "2": 48,
    "H": 49,
    "x": 50,
    "D": 51,
    "J": 52,
    "G": 53,
    "Z": 54,
    "j": 55,
    "8": 56,
    "3": 57,
    "6": 58,
    "U": 59,
    "$": 60,
    "%": 61,
    "q": 62,
    "K": 63,
    "Ċ": 64,
    "=": 65,
    "\"": 66,
    "F": 67,
    ":": 68,
    "(": 69,
    "á": 70,
    "¼": 71,
    "¸": 72,
    "Î": 73,
    "½": 74,
    "´": 75,
    "¯": 76,
    "±": 77,
    ")": 78,
    "Ï": 79,
    "Į": 80,
    "Ĥ": 81,
    "Ä": 82,
    "ģ": 83,
    "[": 84,
    "Ë": 85,
    "Ī": 86,
    "Ê": 87,
    "Ĳ": 88,
    "É": 89,
    "¾": 90,
    "Ļ": 91,
    "]": 92,
    "¦": 93,
    "ª": 94,
    "Ĭ": 95,
    "Y": 96,
    "z": 97,
    "â": 98,
    "Ģ": 99,
    "ĵ": 100,
    "Ķ": 101,
    "¹": 102,
    "£": 103,
    "Ń": 104,
    "«": 105,
    "ĩ": 106,
    "W": 107,
    "Â": 108,
    "°": 109,
    "²": 110,
    "Ã": 111,
    "¡": 112,
    "¢": 113,
    "Å": 114,
    "ļ": 115,
    "ĸ": 116,
    "ħ": 117,
    "à": 118,
    "¤": 119,
    "Ĩ": 120,
    "§": 121,
    "¿": 122,
    "ķ": 123,
    "¨": 124,
    "®": 125,
    "Ĺ": 126,
    "ľ": 127,
    "¥": 128,
    "į": 129,
    "¬": 130,
    "ĳ": 131,
    "·": 132,
    "ı": 133,
    "¶": 134,
    "ī": 135,
    "µ": 136,
    "ĭ": 137,
    "ĥ": 138,
    "Ł": 139,
    "ĺ": 140,
    "|": 141,
    "+": 142,
    "ŀ": 143,
    "Ľ": 144,
    "ł": 145,
    "©": 146,
    "Ŀ": 147,
    "/": 148,
    "Ĵ": 149,
    "İ": 150,
    "³": 151,
    "&": 152,
    "^": 153,
    "à®": 154,
    "à¯": 155,
    "à°": 156,
    "à¤": 157,
    "à¯į": 158,
    "Ġà®": 159,
    "à¯įà®": 160,
    "à¯ģ": 161,
    "à¥": 162,
    "Ġà¤": 163,
    "à±": 164,
    "à®¿": 165,
    "à®¿à®": 166,
    "à¯ģà®": 167,
    "Ġà°": 168,
    "à®¾": 169,
    "à®¾à®": 170,
    "à®¤": 171,
    "à¤¾": 172,
    "à±į": 173,
    "à°¾": 174,
    "à¯Ī": 175,
    "à¯įà®¤": 176,
    "ķà®": 177,
    "à±įà°": 178,
    "à®°": 179,
    "à°¾à°": 180,
    "à°¿": 181,
    "à¤°": 182,
    "à¥į": 183,
    "à®¿à®¯": 184,
    "Ġà®ª": 185,
    "à®Ł": 186,
    "à±ģ": 187,
    "à¥ĩ": 188,
    "à¯Īà®": 189,
    "à¯įà®ª": 190,
    "Ġà®ĩ": 191,
    "à°Ĥ": 192,
    "®à¯į": 193,
    "à¤¾à¤": 194,
    "Ġà®®": 195,
    "à¥įà¤": 196,
    "à¯įà®ķ": 197,
    "¨à¯įà®¤": 198,
    "à¯įà®Ł": 199,
    "ķà®³": 200,
    "à®¤à¯ģ": 201,
    "à¤¿": 202,
    "à°¿à°": 203,
    "à®©": 204,
    "Ġà¤ķ": 205,
    "Ġt": 206,
    "à¤Ĥ": 207,
    "à®±": 208,
    "à®ķ": 209,
    "²à¯į": 210,
    "à¥Ģ": 211,
    "à°Ĥà°": 212,
    "an": 213,
    "ªà¯įà®ª": 214,
    "à¤¿à¤": 215,
    "he": 216,
    "à¯įà®±": 217,
    "à¯ģà®®à¯į": 218,
    "Ġà®ķ": 219,
    "Ġà®µ": 220,
    "in": 221,
    "Ġà®¤": 222,
    "Ġà®ħ": 223,
    "à®¿à®©": 224,
    "à®¾à®©": 225,
    "Ġà®ĩà®": 226,
    "à¤¤": 227,
    "à®£": 228,
    "à®®": 229,
    "à°¤": 230,
    "à¯Ĭ": 231,
    "Ġthe": 232,
    "à¯Īà®¯": 233,
    "Ġà®ļ": 234,
    "à®²": 235,
    "à®µ": 236,
    "à°¨": 237,
    "on": 238,
    "à°²": 239,
    "er": 240,
    "à¯įà®ķà®³": 241,
    "Ġà®¨": 242,
    "Ġà¤¸": 243,
    "à®¿à®²à¯į": 244,
    "à°°": 245,
    "à®¤à¯įà®¤": 246,
    "à¯Ĩ": 247,
    "à®¾à®ķ": 248,
    "à¤¨": 249,
    "à®±à¯įà®±": 250,
    "à¥ĭ": 251,
    "à®¿à®©à¯į": 252,
    "à¯ģà®ķ": 253,
    "Ġà®ī": 254,
    "re": 255,
    "à±ĩ": 256,
    "Ġà°ª": 257,
    "à±ĭ": 258,
    "à±įà°°": 259,
    "à®¿à®°": 260,
    "à¯ĩ": 261,
    "Ġà®ĩà®¨à¯įà®¤": 262,
    "Ġà¤®": 263,
    "Ġa": 264,
    "à¯ģà®¤": 265,
    "==": 266,
    "Ġo": 267,
    "à°¾à°°": 268,
    "en": 269,
    "st": 270,
    "à¤ķ": 271,
    "Ġà®Ĩ": 272,
    "Ġà¤¹": 273,
    "Ġ1": 274,
    "à¤¾à¤°": 275,
    "à®Łà¯įà®Ł": 276,
    "di": 277,
    "ĊĊ": 278,
    "al": 279,
    "à®³": 280,
    "Ġà®ĩà®¨à¯įà®¤à®¿à®¯": 281,
    "à°ķ": 282,
    "Ġà¤ª": 283,
    "ªà¯į": 284,
    "at": 285,
    "à¥įà¤°": 286,
    "à°¾à°²": 287,
    "à®Ļ": 288,
    "à¯ĭ": 289,
    "ĠI": 290,
    "Ġc": 291,
    "and": 292,
    "à±Ģ": 293,
    "ed": 294,
    "à°¦": 295,
    "à®°à¯ģà®": 296,
    "à¯įà®³": 297,
    "ĠIn": 298,
    "Ġà¤ķà¥ĩ": 299,
    "à®ªà¯įà®ª": 300,
    "à®£à¯įà®Ł": 301,
    "ar": 302,
    "à¤¸": 303,
    "it": 304,
    "Ġof": 305,
    "à¥Ī": 306,
    "à¥ģ": 307,
    "Ġw": 308,
    "Ġà°¸": 309,
    "à¥ĩà¤Ĥ": 310,
    "à®ļ": 311,
    "Ġin": 312,
    "Ġs": 313,
    "Ġà®®à®±à¯įà®±": 314,
    "Ġand": 315,
    "Ġà¤Ń": 316,
    "Ġà®®à®±à¯įà®±à¯ģà®®à¯į": 317,
    "à®¯": 318,
    "Ġà°ķ": 319,
    "à¯Ģ": 320,
    "à¯įà®ķà®": 321,
    "à®¿à®²": 322,
    "à®®à¯į": 323,
    "à¯įà®ļ": 324,
    "à¥¤": 325,
    "à®¾à®µ": 326,
    "or": 327,
    "à®¾à®Ł": 328,
    "à±ĩà°": 329,
    "Ġb": 330,
    "Ġ2": 331,
    "Ġà¤®à¥ĩà¤Ĥ": 332,
    "ion": 333,
    "ĠIndi": 334,
    "Ġp": 335,
    "à®¾à®°": 336,
    "es": 337,
    "Ġà®ķà®": 338,
    "à¤®": 339,
    "Ġf": 340,
    "Ġà°µ": 341,
    "Ġm": 342,
    "ic": 343,
    "à®¿à®ķ": 344,
    "à±įà°¯": 345,
    "à®ķà¯įà®ķ": 346,
    "Ġà¤¹à¥Ī": 347,
    "à®Ļà¯įà®ķà®³": 348,
    "à°®": 349,
    "Ġà°®": 350,
    "à¥įà¤¯": 351,
    "à®¾à®©à®¤à¯ģ": 352,
    "à®¿à®±": 353,
    "à®²à¯į": 354,
    "Ġà°Ń": 355,
    "is": 356,
    "à°µ": 357,
    "à¯Ĥ": 358,
    "à¯ģà®±": 359,
    "à¤²": 360,
    "Ġ19": 361,
    "à®°à¯į": 362,
    "ing": 363,
    "à¯ģà®ķà¯įà®ķ": 364,
    "Ġà¤ħ": 365,
    "à¤Ĥà¤": 366,
    "as": 367,
    "à°Ĥà°¦": 368,
    "à®¿à®¤": 369,
    "à¤¯": 370,
    "à¤¹": 371,
    "à¯ģà®µ": 372,
    "à±ĩà°¶": 373,
    "à¤¾à¤°à¤¤": 374,
    "00": 375,
    "à¯ģà®³": 376,
    "ent": 377,
    "à¯ģà®Ł": 378,
    "à®´": 379,
    "Ġà®Ĵ": 380,
    "Ġà¤¨": 381,
    "Ġà¤ľ": 382,
    "à°¿à°ķ": 383,
    "Ġà¤¬": 384,
    "Ġl": 385,
    "Ġà®İ": 386,
    "Ġà°°": 387,
    "à±Ĩ": 388,
    "à¤°à¥įà¤": 389,
    "à¯Īà®ķ": 390,
    "à¯ģà®ķà®³": 391,
    "om": 392,
    "Ġà¤Ńà¤¾à¤°à¤¤": 393,
    "à°¡": 394,
    "Ġà¤µ": 395,
    "ĠIndia": 396,
    "à°²à±ģ": 397,
    "Ġ(": 398,
    "à®¾à®²": 399,
    "à°¾à°°à°¤": 400,
    "Ġà°ªà±įà°°": 401,
    "Ġà®¤à¯Ĭ": 402,
    "Ġà®ªà¯Ĩ": 403,
    "à®©à¯įà®±": 404,
    "à±įà°¨": 405,
    "à¯ģà®³à¯įà®³": 406,
    "à°ª": 407,
    "à¤ª": 408,
    "ou": 409,
    "à®¨à¯įà®¤": 410,
    "Ġe": 411,
    "Ġà°ħ": 412,
    "Ġà¤¦": 413,
    "¸à±įà°": 414,
    "²à±ĭ": 415,
    "à±Ĥ": 416,
    "à¥ĭà¤Ĥ": 417,
    "à°¾à°²à±ģ": 418,
    "à¤¿à¤¯": 419,
    "à¤¿à¤ķ": 420,
    "à±Ī": 421,
    "à°Ł": 422,
    "Ġà°Ńà°¾à°°à°¤": 423,
    "à®ķà®": 424,
    "Ġà¤Ķ": 425,
    "à°¿à°¨": 426,
    "Ġà¤Ķà¤°": 427,
    "Ġà¤°": 428,
    "Ġà®ªà¯Ĭ": 429,
    "à¤¦": 430,
    "à°¯": 431,
    "Ġà®īà®³": 432,
    "à¯įà®ķà®³à¯į": 433,
    "Ġto": 434,
    "à¥Ĥ": 435,
    "Ġà®ĩà®¨à¯įà®¤à®¿à®¯à®¾à®µ": 436,
    "à¤¾à¤¨": 437,
    "Ġà®ķà¯Ĭ": 438,
    "à°¾à°¨": 439,
    "à¥įà¤¤": 440,
    "à¯ģà®¤à¯įà®¤": 441,
    "à°°à±įà°": 442,
    "à¯įà®µ": 443,
    "Ġà°¦": 444,
    "à®¾à®¤": 445,
    "à¤¶": 446,
    "âĢ": 447,
    "à¤µ": 448,
    "ĊĊĊ": 449,
    "Ġ==": 450,
    "à®©à¯į": 451,
    "à°Ĺ": 452,
    "ly": 453,
    "à®°à¯ģ": 454,
    "Ġà®īà®³à¯įà®³": 455,
    "Ġh": 456,
    "à®¿à®¤à¯įà®¤": 457,
    "à®¿à®ķà®³": 458,
    "Ġà¤ķà¥Ģ": 459,
    "à°¨à±įà°¨": 460,
    "Ġd": 461,
    "à®¾à®£": 462,
    "Ġà¤¤": 463,
    "Ġà°ī": 464,
    "Ġà¤ªà¥įà¤°": 465,
    "ĠT": 466,
    "Ġ20": 467,
    "Ġà®ªà¯ĭ": 468,
    "à¯įà®²": 469,
    "ec": 470,
    "ur": 471,
    "à®¿à®Ł": 472,
    "à®°à®ļ": 473,
    "à®¾à®Łà¯įà®Ł": 474,
    "à°Ĥà°¦à°¿": 475,
    "à®ªà¯į": 476,
    "Ġre": 477,
    "à®¿à®ªà¯įà®ª": 478,
    "à¥ģà¤": 479,
    "à¯įà®ķà®ªà¯įà®ª": 480,
    "à¯ģà®³à¯įà®³à®¤à¯ģ": 481,
    "à°¾à°¯": 482,
    "à®±à¯įà®ķ": 483,
    "à®Ļà¯įà®ķ": 484,
    "Ġà°ľ": 485,
    "à¯ģà®®": 486,
    "à®¤à¯į": 487,
    "¨à¯įà®¤à¯ģ": 488,
    "Ġà®ķà¯Ĭà®£à¯įà®Ł": 489,
    "Ġn": 490,
    "à®¿à®ķà®": 491,
    "à°Ĥà°ļ": 492,
    "Ġà®ļà®®": 493,
    "Ġg": 494,
    "à®¾à®²à¯į": 495,
    "à°¾à°¤": 496,
    "à°¦à±ĩà°¶": 497,
    "à¤¼": 498,
    "Ġà¤¸à¥ĩ": 499,
    "à®Ĩ": 500,
    "Ġà®ħà®¤": 501,
    "à®ªà¯įà®ªà®Łà¯įà®Ł": 502,
    "il": 503,
    "à¯Īà®ªà¯įà®ª": 504,
    "Ġà®Ĩà®ķ": 505,
    "à°Ĥà°Ĺ": 506,
    "Ġà°¨": 507,
    "à¤¾à¤ľ": 508,
    "th": 509,
    "ĠA": 510,
    "ĠC": 511,
    "Ġà¤ķà¤¾": 512,
    "Ġà®Ĵà®°à¯ģ": 513,
    "à±įà°µ": 514,
    "ver": 515,
    "à®ª": 516,
    "à¯Īà®ķà¯į": 517,
    "à°§": 518,
    "Ġà°ļ": 519,
    "à®¿à®°à¯ģà®": 520,
    "Ġà®ĩà®¨à¯įà®¤à®¿à®¯à®¾": 521,
    "à®¾à®ķà®": 522,
    "Ġà®ĩà®°à¯ģà®": 523,
    "Ġà®ĩà®¤à¯ģ": 524,
    "à®¿à®µ": 525,
    "à±įà°Ł": 526,
    "à°Ĥà°²à±ĭ": 527,
    "à¤¾à¤²": 528,
    "à¤Ĺ": 529,
    "à¥Ģà¤¯": 530,
    "ol": 531,
    "ul": 532,
    "à®µà¯Ī": 533,
    "à¯Īà®ķà®³": 534,
    "ri": 535,
    "à¯ĩà®°": 536,
    "Ġà¤Ĺ": 537,
    "Ġà®ªà®¿à®°": 538,
    "Ġà®Ĩà®£à¯įà®Ł": 539,
    "Ġà®ļà¯Ĩ": 540,
    "ĠB": 541,
    "ra": 542,
    "Ġà¤Ĩ": 543,
    "Ġà®¤à¯Ĭà®Ł": 544,
    "Ġà®ħà®®": 545,
    "Ġà®ķà®¾à®²": 546,
    "à¯įà®®": 547,
    "à¯ģà®ķà¯įà®ķà¯ģ": 548,
    "ĠThe": 549,
    "ation": 550,
    "Ġà¥": 551,
    "Ġà®ķà®Ł": 552,
    "Ġà°ĩ": 553,
    "à°²à±ĭ": 554,
    "Ġà¤ī": 555,
    "à®ĩ": 556,
    "Ġà®ķà¯ģà®±": 557,
    "à¥įà¤·": 558,
    "à°ķà±įà°": 559,
    "à±Ģà°¯": 560,
    "Ġà®ĩà®¤": 561,
    "Ġà®ĩà®°": 562,
    "à®¾à®±": 563,
    "à®Ĩà®®à¯į": 564,
    "am": 565,
    "ro": 566,
    "à®ªà¯įà®ªà®Ł": 567,
    "à¯įà®ķà®ªà¯įà®ªà®Łà¯įà®Ł": 568,
    "à¤§": 569,
    "Ġà¤²": 570,
    "Ġà®®à¯ģà®": 571,
    "à®¿à®ķà¯įà®ķ": 572,
    "ĠS": 573,
    "à±įà°²": 574,
    "ve": 575,
    "Ġà®¨à®Ł": 576,
    "à®¾à®³": 577,
    "Ġà®ªà®ķ": 578,
    "Ġà®µà¯ĩ": 579,
    "à°¨à±ģ": 580,
    "à°Ĥà°¡": 581,
    "Ġà¤ĩ": 582,
    "Ġà¤ªà¤°": 583,
    "Ġà®ĩà®¨à¯įà®¤à®¿à®¯à®¾à®µà®¿à®©à¯į": 584,
    "le": 585,
    "Ġà¤¶": 586,
    "à°¿à°Ĥà°ļ": 587,
    "Ġà®µà®°": 588,
    "¥à¤¾": 589,
    "ut": 590,
    "¨à¯įà®¤à®¤à¯ģ": 591,
    "à®ķà¯į": 592,
    "à±Ĭ": 593,
    "à°¸à±įà°": 594,
    "Ġ201": 595,
    "ce": 596,
    "Ġà®ħà®°à®ļ": 597,
    "Ġis": 598,
    "à°¹": 599,
    "à°¸": 600,
    "à¤¬": 601,
    "à¤¡": 602,
    "ist": 603,
    "Ġà®¨à®¿à®²": 604,
    "à®¤à¯įà®¤à®¿à®©à¯į": 605,
    "à®Ļà¯įà®ķà®³à¯į": 606,
    "à®¾à®¯": 607,
    "à®°à¯ģà®µ": 608,
    "à°ķà±ģ": 609,
    "Ġà¤ķà¥ĭ": 610,
    "ļà¯į": 611,
    "à®°à®¿à®¯": 612,
    "ĠIndian": 613,
    "Ġby": 614,
    "Ġà°Ĩ": 615,
    "Ġà°Ńà°¾à°°à°¤à°¦à±ĩà°¶": 616,
    "à°¾à°Ĥ": 617,
    "Ġà°¦à±ĩà°¶": 618,
    "à¤¿à¤¯à¤¾": 619,
    "à¯ģà®ªà¯įà®ª": 620,
    "Ġà®µà¯Ĩ": 621,
    "à¤¾à¤¤": 622,
    "à¥įà¤µ": 623,
    "Ġà¤¹à¥Īà¤Ĥ": 624,
    "à°Ń": 625,
    "Ġà°¤": 626,
    "Ġà¤ı": 627,
    "à®²à¯įà®²": 628,
    "ast": 629,
    "Ġà¤µà¤¿à¤": 630,
    "et": 631,
    "à°£": 632,
    "à±ģà°²à±ģ": 633,
    "à¯įà®©": 634,
    "à¯ģà®ªà¯į": 635,
    "à®Łà¯ģà®¤à¯įà®¤": 636,
    "im": 637,
    "Ġà®īà®²": 638,
    "Ġà®ªà¯Ĭà®°à¯ģà®": 639,
    "à¯Īà®ªà¯į": 640,
    "Ġà°°à°¾à°": 641,
    "us": 642,
    "à®Łà¯Īà®¯": 643,
    "à®¿à®±à®¤à¯ģ": 644,
    "à®¾à®ķà¯ģà®®à¯į": 645,
    "ad": 646,
    "ig": 647,
    "à¤£": 648,
    "Ġà¤¯": 649,
    "à®°à¯įà®ķà®³": 650,
    "Ġà®Ĩà®ķà®¿à®¯": 651,
    "à®±à¯įà®ª": 652,
    "Ġà®ªà®ķà¯ģà®¤": 653,
    "===": 654,
    "Ġ===": 655,
    "Ġth": 656,
    "à°¿à°¤": 657,
    "Ġà®®à¯ĩ": 658,
    "ge": 659,
    "à®ĩà®²à¯į": 660,
    "ķà¯į": 661,
    "ow": 662,
    "à¤¿à¤¤": 663,
    "Ġà¤¨à¥ĩ": 664,
    "Ġà¤ķà¤°": 665,
    "à°ļ": 666,
    "Ġà°Ĺ": 667,
    "à°¿à°Ĥà°¦à°¿": 668,
    "id": 669,
    "à¤Ń": 670,
    "à¤¾à¤®": 671,
    "à¤¤à¥įà¤°": 672,
    "à®Łà®¿": 673,
    "Ġà®īà®°à¯ģà®µ": 674,
    "Ġfor": 675,
    "à¤¾à¤¸": 676,
    "Ġà°¬": 677,
    "à®¿à®©à¯įà®±": 678,
    "Ġà®¤à¯Ĩ": 679,
    "à®®à®¾à®©à®¤à¯ģ": 680,
    "un": 681,
    "ith": 682,
    "ĠM": 683,
    "à®¤à¯įà®¤à®¿à®²à¯į": 684,
    "Ġà®ķà®²": 685,
    "ment": 686,
    "à°Ĥà°Ł": 687,
    "à±ģà°¤": 688,
    "uc": 689,
    "ir": 690,
    "à¤¿à¤¨": 691,
    "à®¾à®ķà¯įà®ķ": 692,
    "Ġà®ķà¯ĭ": 693,
    "Ġbe": 694,
    "Ġr": 695,
    "ĠP": 696,
    "Ġà®µà®Ł": 697,
    "à®¿à®©à¯įà®±à®©": 698,
    "à¯Īà®µ": 699,
    "Ġà°µà°¿à°": 700,
    "à°¾à°¯à°¿": 701,
    "à¤ľ": 702,
    "Ġà¤ļ": 703,
    "à¥ĩà¤¶": 704,
    "à±Īà°¨": 705,
    "ate": 706,
    "Ġà®ħà®¤à®¿à®ķà®": 707,
    "à¯ģà®ķà®¿à®±à®¤à¯ģ": 708,
    "Ġwith": 709,
    "Ġcon": 710,
    "Ġà®ĩà®µ": 711,
    "Ġà®®à¯ģà®¤": 712,
    "à®¾à®ļ": 713,
    "à°°à±ģ": 714,
    "à¤¾à¤¦": 715,
    "à¤¤à¤¾": 716,
    "à¤¨à¥ĩ": 717,
    "Ġà¤°à¤¾à¤ľ": 718,
    "ies": 719,
    "Ġwas": 720,
    "op": 721,
    "ter": 722,
    "à¥įà¤Ł": 723,
    "à®°à¯ģà®®": 724,
    "à¯Īà®¤à¯įà®¤": 725,
    "à®°à¯įà®ķà®³à¯į": 726,
    "Ġà®¨à®¾à®Ł": 727,
    "Ġ200": 728,
    "tion": 729,
    "res": 730,
    "à¤Ł": 731,
    "à¤ļ": 732,
    "à¤ķà¥įà¤·": 733,
    "à±Ĥà°¡": 734,
    "à°¦à±įà°": 735,
    "Ġas": 736,
    "Ġà®®à®ķ": 737,
    "Ġà®Ĳ": 738,
    "Ġà®ªà®°": 739,
    "Ġà®ªà®²": 740,
    "Ġwh": 741,
    "à®¿à®®": 742,
    "à®¿à®´": 743,
    "à¯Ģà®¤": 744,
    "à¯įà®ļà®¿à®¯": 745,
    "§à¥": 746,
    "Ġà°¸à°Ĥà°": 747,
    "à°®à±ģ": 748,
    "em": 749,
    "Ġmo": 750,
    "Ġst": 751,
    "rom": 752,
    "à¥ĥ": 753,
    "à¤¿à¤¸": 754,
    "Ġà¤¸à¤Ĥà¤": 755,
    "Ļà¯įà®ķ": 756,
    "à®³à®µ": 757,
    "à®¿à®ķà®³à¯į": 758,
    "à®®à®¾à®ķ": 759,
    "âĢĮ": 760,
    "ĠE": 761,
    "à¤¾à¤·": 762,
    "à¥įà¤¦": 763,
    "Ġà°İ": 764,
    "Ġà°¶": 765,
    "à°Ĥà°Ĺà°¾": 766,
    "Ġà®Ĭ": 767,
    "Ġà®ħà®Ł": 768,
    "à®µà¯Īà®¯": 769,
    "à®®à®¾à®©": 770,
    "à¤¡à¤¼": 771,
    "ong": 772,
    "Ġà®®à¯Ĭ": 773,
    "à¯ģà®ķà¯į": 774,
    "à¯įà®ļà®¿": 775,
    "Ġà®ķà¯Ĥ": 776,
    "à°Ĥà°¤": 777,
    "¸à±įà°¤": 778,
    "à°¨à°¿": 779,
    "ain": 780,
    "Ġà¤ĩà¤¸": 781,
    "Ġà®®à¯ģà®±": 782,
    "Ġà®ªà®¾à®°": 783,
    "à¯Īà®¤à¯į": 784,
    "ts": 785,
    "à¥¦": 786,
    "Ġà¤¸à¤®": 787,
    "à°¾à°°à±ģ": 788,
    "à°¿à°Ĺ": 789,
    "Ġà°īà°¨à±įà°¨": 790,
    "à°ķà±įà°·": 791,
    "ac": 792,
    "Ġit": 793,
    "à®¾à®¤à®¾à®°": 794,
    "à®¾à®±à¯įà®±": 795,
    "Ġà®ı": 796,
    "à®¿à®Łà¯įà®Ł": 797,
    "à®¾à®®": 798,
    "à¤¾à¤¯": 799,
    "Ġ7": 800,
    "Ġex": 801,
    "ical": 802,
    "Ġà¤Ńà¤¾à¤°à¤¤à¥Ģà¤¯": 803,
    "à®¿à®ļ": 804,
    "à®¿à®¯à®¿à®²à¯į": 805,
    "Ġ5": 806,
    "à°Ĺà°¾": 807,
    "est": 808,
    "à¯Īà®¯à®¾à®©": 809,
    "Ġà®ªà®¿à®±": 810,
    "à¯ģà®²": 811,
    "à®¿à®¯à®²à¯į": 812,
    "à®¿à®¯à®¤à¯ģ": 813,
    "à®®à¯įà®ª": 814,
    "Ġà®ķà¯ģà®Ł": 815,
    "Ġà®ļà¯Ĩà®¯": 816,
    "à¯ģà®ķà®¿à®©à¯įà®±à®©": 817,
    "à¯Īà®¯à¯ģà®®à¯į": 818,
    "à¯ģà®ķà®³à¯į": 819,
    "Ġà®ħà®²à¯įà®²": 820,
    "Ġ3": 821,
    "Ġdi": 822,
    "à¤¨à¤¾": 823,
    "à±įà°ļ": 824,
    "Ġà®īà®²à®ķ": 825,
    "à®©à¯įà®ª": 826,
    "Ġà®ªà¯Ĭà®°à¯ģà®³": 827,
    "à®±à¯įà®ķà¯ģ": 828,
    "Ġà®ħà®®à¯Īà®ªà¯įà®ª": 829,
    "à¯įà®£": 830,
    "Ġà®īà®³à¯įà®³à®¤à¯ģ": 831,
    "Ġà®ķà¯Ĭà®£à¯įà®Łà¯ģà®³à¯įà®³à®¤à¯ģ": 832,
    "Ġon": 833,
    "ang": 834,
    "à¤¥à¤¾": 835,
    "ĠD": 836,
    "her": 837,
    "Ġan": 838,
    "à¤¾à¤Ĥ": 839,
    "à®ķà¯įà®ķà®¿à®¯": 840,
    "Ġà®ªà¯Ĩà®°à¯ģà®®": 841,
    "à®¾à®£à¯įà®Ł": 842,
    "Ġfrom": 843,
    "ĠG": 844,
    "à°¬": 845,
    "à±įâĢĮ": 846,
    "à°¾à°¦": 847,
    "à°¿à°ª": 848,
    "Ġà¥§à¥": 849,
    "Ġà¤¤à¤¥à¤¾": 850,
    "ld": 851,
    "Ġor": 852,
    "Ġ4": 853,
    "à®¿à®¨à¯įà®¤": 854,
    "à®¿à®¯à®¾à®ķ": 855,
    "Ġà®İà®©à¯įà®±": 856,
    "à®¾à®°à¯į": 857,
    "à®ķà¯įà®ķà¯ģ": 858,
    "à®³à®°": 859,
    "à¯įà®¨à¯įà®¤": 860,
    "Ġà®ħà®²à¯įà®²à®¤à¯ģ": 861,
    "ial": 862,
    "Ġà¤ħà¤¨": 863,
    "Ġà¤ıà¤ķ": 864,
    "à°¾à°®": 865,
    "Ġà®ļà®®à®¯": 866,
    "à®ļà®¿à®¯": 867,
    "Ġà¤Ńà¥Ģ": 868,
    "Ġà¤¹à¥ģà¤": 869,
    "ĠH": 870,
    "Ġhas": 871,
    "ich": 872,
    "ab": 873,
    "se": 874,
    "âĢĵ": 875,
    "gh": 876,
    "um": 877,
    "Ġà®ĵ": 878,
    "Ġà®ħà®¤à®¿à®ķà®°": 879,
    "Ġà®ĩà®°à¯ģà®¨à¯įà®¤": 880,
    "Ġà®ªà¯Ĭà®°à¯ģà®³à®¾à®¤à®¾à®°": 881,
    "·à±įà°Ł": 882,
    "Ġà°¹": 883,
    "à°¦à°¿": 884,
    "ay": 885,
    "Ġà®īà®¯": 886,
    "Ġà®¨à¯Ģ": 887,
    "Ġà®ķà¯ģà®±à®¿à®ªà¯įà®ª": 888,
    "Ġà®Ĩà®£à¯įà®Łà¯ģ": 889,
    "à¯įà®¨": 890,
    "Ġ195": 891,
    "ĠN": 892,
    "Ġà¤¹à¥ĭ": 893,
    "ill": 894,
    "der": 895,
    "à¤Ĥà¤Ĺ": 896,
    "Ġà®ĩà®Ł": 897,
    "à¯ģà®¤à¯į": 898,
    "à®¿à®°à¯ģà®¨à¯įà®¤à¯ģ": 899,
    "à¯ģà®Łà®©à¯į": 900,
    "Ġà®µà®³à®°": 901,
    "à¯Īà®¯à®¿à®²à¯į": 902,
    "Ġ202": 903,
    "Ġà°ķà±Ĥà°¡": 904,
    "à°§à°¿à°ķ": 905,
    "à°¿à°¯": 906,
    "up": 907,
    "Ġar": 908,
    "à¤¾à¤µ": 909,
    "Ġwhich": 910,
    "à¯ģà®°": 911,
    "Ġà®¤à®©": 912,
    "à®¾à®ķà®ķà¯į": 913,
    "à®ķà®°": 914,
    "Ġ199": 915,
    "à°¾à°ķ": 916,
    "à±įà°¤": 917,
    "ud": 918,
    "Ġun": 919,
    "Ġà®ĩà®²": 920,
    "à®¤à¯įà®¤à¯Ī": 921,
    "à¯Īà®ļà¯į": 922,
    "Ġà®ªà¯Ĩà®°à¯ģà®®à¯įà®ª": 923,
    "Ġ\"": 924,
    "à¥įà¤¥": 925,
    "à¤¸à¥ĩ": 926,
    "ive": 927,
    "ity": 928,
    "¯à¥": 929,
    "à¤°à¥įà¤µ": 930,
    "à®¨": 931,
    "à®Ļà¯įà®ķà®³à®¿à®²à¯į": 932,
    "Ġà®µà®¨à¯įà®¤": 933,
    "à¯Īà®¯à®¾à®©à®¤à¯ģ": 934,
    "Ġà®¤à¯Ĭà®Łà®°": 935,
    "Ġà®īà®£": 936,
    "à¯Īà®ķà¯įà®ķ": 937,
    "Ġà®ĩà®¨à¯įà®¤à®¿à®¯à®¾à®µà®¿à®²à¯į": 938,
    "ub": 939,
    "à±ģà°²": 940,
    "à°¿à°²": 941,
    "Ġà°Ī": 942,
    "à°Łà±įà°Ł": 943,
    "à±ĥ": 944,
    "Ġare": 945,
    "con": 946,
    "Ġ196": 947,
    "Ġà¤¸à¤¾à¤": 948,
    "à¤°à¥įà¤®": 949,
    "Ġ6": 950,
    "Ġà®®à®¿à®ķà®": 951,
    "à®¿à®³": 952,
    "Ġà®ĩà®°à®£à¯įà®Ł": 953,
    "Ġà®ħà®£": 954,
    "à®ķà¯įà®ķà®": 955,
    "Ġà®ªà¯ĭà®¤à¯ģ": 956,
    "Ġpar": 957,
    "à¤¿à¤®": 958,
    "à¤ķà¤¾à¤°": 959,
    "à¥ĥà¤¤": 960,
    "),": 961,
    "à°ĸ": 962,
    "Ġà°ľà°¾à°¤": 963,
    "Ġà°°à°¾à°ľ": 964,
    "Ġà°ªà°°": 965,
    "Ġà°Ńà°¾à°°à°¤à±Ģà°¯": 966,
    "Ġà°Ĵ": 967,
    "ort": 968,
    "ure": 969,
    "ult": 970,
    "à¯ģà®ª": 971,
    "Ġà®ķà®Łà¯įà®Ł": 972,
    "µà¯ģà®®à¯į": 973,
    "Ġà®ķà®£": 974,
    "à¯Ģà®©": 975,
    "à®¿à®²à¯įà®²": 976,
    "à¯įà®ķà®ªà¯įà®ªà®Ł": 977,
    "Ġà®ħà®¤à®¿à®ķà®°à®¿à®¤à¯įà®¤": 978,
    "Ġà®ªà®Łà®¿": 979,
    "Ġà®®à¯ģà®©": 980,
    "Ġà®ªà®£": 981,
    "à¤¿à¤²": 982,
    "Ġà¤ľà¤¾à¤¤": 983,
    "over": 984,
    "oun": 985,
    "rit": 986,
    "ak": 987,
    "à¤·": 988,
    "à¥Į": 989,
    "à¯Īà®ķà®³à¯į": 990,
    "à®µà®±à¯įà®±": 991,
    "à®¾à®©à®µà¯Ī": 992,
    "Ġà®µà®´": 993,
    "à°ľ": 994,
    "à°¾à°°à±įà°": 995,
    "à°¤à°¿": 996,
    "à°¾à°¬": 997,
    "Ġà°°à±Ī": 998,
    "à°ļà±įà°ļ": 999,
    "Ġà°Ńà°¾à°": 1000,
    "à°¿à°ķà°¿": 1001,
    "à°¿à°¸à±įà°¤": 1002,
    "oc": 1003,
    "Ġinc": 1004,
    "à¯įà®¨à¯įà®¤à¯ģ": 1005,
    "Ġà®¨à¯Ĥ": 1006,
    "Ġà®ªà¯Ĭà®¤": 1007,
    "à®¾à®Łà¯įà®Łà¯ģ": 1008,
    "à®©à®°à¯į": 1009,
    "ere": 1010,
    "Ġits": 1011,
    "li": 1012,
    "Ġà¤µà¤°à¥įà¤": 1013,
    "Ġà¤ķà¤¿à¤¯à¤¾": 1014,
    "Ġ198": 1015,
    "000": 1016,
    "Ġà°²": 1017,
    "à°¿à°°": 1018,
    "à±įà°°à±Ģ": 1019,
    "à°ķà±įà°ķ": 1020,
    "Ġà°®à±Ĭ": 1021,
    "·à±įà°Łà±įà°°": 1022,
    "à±ģà°µ": 1023,
    "Ġcom": 1024,
    "Ġal": 1025,
    "iv": 1026,
    "ers": 1027,
    "à¤¾à¤ģ": 1028,
    "à¤¾à¤Ī": 1029,
    "à¤°à¥Ģ": 1030,
    "Ġà®ªà¯Ĩà®°à®¿à®¯": 1031,
    "à®¾à®Ļà¯įà®ķ": 1032,
    "Ġà®¤à®²": 1033,
    "Ġà®®à¯Ĥ": 1034,
    "Ġà®ªà¯Ĩà®±à¯įà®±": 1035,
    "Ġà®ķà¯ģà®Łà®¿à®¯": 1036,
    "à®®à¯įà®ªà®°à®¿à®¯": 1037,
    "du": 1038,
    "à¤¾à¤ª": 1039,
    "à¥Ģà¤¨": 1040,
    "à®ħ": 1041,
    "à®¾à®°à®£": 1042,
    "à¯Īà®¨à¯įà®¤": 1043,
    "à¯ģà®Łà¯Īà®¯": 1044,
    "Ġà®¤à¯Ĭà®ķ": 1045,
    "à®¿à®°à¯ģà®¨à¯įà®¤à®¤à¯ģ": 1046,
    "Ġà®®à¯ģà®¤à®²à¯į": 1047,
    "Ġà®ªà®¾à®°à®®à¯įà®ªà®°à®¿à®¯": 1048,
    "Ġà®ħà®±": 1049,
    "Ġà®®à¯ģà®©à¯įà®©": 1050,
    "à°³": 1051,
    "Ġà°ľà°¨": 1052,
    "à±įà°®": 1053,
    "à°¦à±įà°¦": 1054,
    "Ġà°°à°¾à°·à±įà°Łà±įà°°": 1055,
    "Ġwere": 1056,
    "end": 1057,
    "Ġv": 1058,
    "ary": 1059,
    "Ġà¤¤à¤ķ": 1060,
    "Ġ2011": 1061,
    "Ġà®µà®ķ": 1062,
    "Ġà®®à¯Ĭà®´": 1063,
    "à®¾à®®à¯į": 1064,
    "Ġà®Ĩà®ķà¯ģà®®à¯į": 1065,
    "à®£à¯įà®£": 1066,
    "Ġà®İà®©à¯įà®±à¯ģ": 1067,
    "Ġà®µà®¿à®³": 1068,
    "à®¿à®±à¯įà®ķ": 1069,
    "el": 1070,
    "ated": 1071,
    "ans": 1072,
    "ted": 1073,
    "Ġà¤§": 1074,
    "ch": 1075,
    "à°¿à°Ĥà°¦": 1076,
    "Ġà°µà±įà°¯": 1077,
    "à°¸à±įà°¥": 1078,
    "à°®à±Īà°¨": 1079,
    "à°Ĥà°¤à±įà°°": 1080,
    "Ġà°ħà°§à°¿à°ķ": 1081,
    "à±Į": 1082,
    "à±įà°ª": 1083,
    "Ġà°ªà±ĩ": 1084,
    "à¤¿à¤£": 1085,
    "à¤ķà¥ĩ": 1086,
    "ĠĠ": 1087,
    "à®¿à®¯à®¾à®©": 1088,
    "Ġà®īà®±": 1089,
    "à®¿à®±à¯ģà®µ": 1090,
    "à®¿à®ªà¯į": 1091,
    "Ġà®ªà®¾à®¤": 1092,
    "à®©à¯įà®©": 1093,
    "Ġà®ĩà®£": 1094,
    "Ġ18": 1095,
    "à¤Ī": 1096,
    "à¤¯à¤¾": 1097,
    "à¤Ĥà¤¤à¥įà¤°": 1098,
    "Ġà¤°à¤¾à¤ľà¥įà¤¯": 1099,
    "ear": 1100,
    "Ġcent": 1101,
    "os": 1102,
    "Ġde": 1103,
    "overn": 1104,
    "à®ŀ": 1105,
    "à®¿à®¯à®¾à®µ": 1106,
    "Ġà®®à®¿à®ķ": 1107,
    "Ġà®¤à¯Ĭà®´": 1108,
    "Ġà®īà®³à¯įà®³à®©": 1109,
    "Ġà®®à®ķà¯įà®ķà®³à¯į": 1110,
    "Ġà®īà®²à®ķà®¿à®©à¯į": 1111,
    "à®¿à®²à®¿à®°à¯ģà®¨à¯įà®¤à¯ģ": 1112,
    "Ġà®İà®£à¯įà®£": 1113,
    "à¯Īà®®": 1114,
    "à®ķà®³": 1115,
    "Ġà®ĩà®±": 1116,
    "Ġà®Ĩà®¯": 1117,
    "Ġà®ķà®¾à®°à®£": 1118,
    "Ġà®¨à®¿à®±à¯ģà®µ": 1119,
    "ĠW": 1120,
    "à¤¸à¥įà¤": 1121,
    "Ġà¤ľà¤¨": 1122,
    "Ġà¤¸à¤¾à¤¥": 1123,
    "à°¿à°®": 1124,
    "Ġà°®à±ģ": 1125,
    "Ġà°²à±ĭ": 1126,
    "à°¸à±įà°¤": 1127,
    "Ġà°ľà°¾à°¤à±Ģà°¯": 1128,
    "ry": 1129,
    "od": 1130,
    "arge": 1131,
    "Ġat": 1132,
    "à¯ģà®µà®¤": 1133,
    "à¯ģà®³à¯įà®³à®©": 1134,
    "Ġà®Ĩà®ķà®¿à®¯à®µà¯Ī": 1135,
    "Ġà®µà®Łà®¿à®µ": 1136,
    "à®¤à¯įà®¤à®¿à®±à¯įà®ķ": 1137,
    "à¯įà®¤à¯įà®¤": 1138,
    "à¯Ģà®´": 1139,
    "Ġà®Ĵà®©à¯įà®±": 1140,
    "à®±à¯įà®±à®¾à®£à¯įà®Ł": 1141,
    "Ġà®¨à¯Ĥà®±à¯įà®±à®¾à®£à¯įà®Ł": 1142,
    "à®ķà®®": 1143,
    "Ġà®İà®©": 1144,
    "à¤¤à¥ĩ": 1145,
    "à¥Ĥà¤ª": 1146,
    "Ġà¤īà¤¤": 1147,
    "Ġà¤¦à¥ĩà¤¶": 1148,
    "Ġà¤¸à¥įà¤¥": 1149,
    "20": 1150,
    "Ġ8": 1151,
    "orld": 1152,
    "ism": 1153,
    "ot": 1154,
    "Ġ197": 1155,
    "à¤ĸ": 1156,
    "à¥Ģà¤Ĥ": 1157,
    "Ġà¤¸à¤°": 1158,
    "à¥įà¤¤à¤°": 1159,
    "à¥ĭà¤Ĺ": 1160,
    "à¤§à¤¿à¤ķ": 1161,
    "Ġà¤¯à¤¹": 1162,
    "Ġà¥§à¥¯à¥": 1163,
    "à¤ķà¥įà¤·à¤¿à¤£": 1164,
    "Ġà°Ĵà°ķ": 1165,
    "à°¾à°Ł": 1166,
    "à°¨à±ĩ": 1167,
    "Ġà°īà°Ĥà°¦à°¿": 1168,
    "Ġà°īà°¨à±įà°¨à°¾à°¯à°¿": 1169,
    "à°¤à±įà°¤": 1170,
    "Ġà°¸à±įà°": 1171,
    "Ġà°¸à±įà°¥": 1172,
    "og": 1173,
    "ough": 1174,
    "ĠAs": 1175,
    "ous": 1176,
    "mp": 1177,
    "à®²à¯Ī": 1178,
    "Ġà®Ĩà®£à¯įà®Łà¯ģà®ķà®³": 1179,
    "Ġà®®à®¿à®ķà®ªà¯į": 1180,
    "Ġà®µà®¾à®": 1181,
    "Ġà®¤à¯ģà®±": 1182,
    "à®¿à®¤à¯įà®¤à®¾à®©": 1183,
    "Ġà®ļà®®à¯Ĥ": 1184,
    "à¯ģà®ļà¯į": 1185,
    "à®ªà¯įà®ªà®Łà¯ģà®ķà®¿à®±à®¤à¯ģ": 1186,
    "Ġà®ķà®¿à®´": 1187,
    "Ġà®ķà¯Ĥà®Łà¯įà®Ł": 1188,
    "Ġà®¨à®ķà®°": 1189,
    "à¯Īà®¯à®¿à®©à¯į": 1190,
    "Ġà®ªà®¯": 1191,
    "à¯Ĥà®°": 1192,
    "overnment": 1193,
    "Ġà¤¬à¤¨": 1194,
    "Ġà¤ħà¤ª": 1195,
    "Ġà¤°à¤¹": 1196,
    "Ġà¤ªà¥Ĥ": 1197,
    "à¥įà¤·à¥ĩ": 1198,
    "Ġà¤¥à¤¾": 1199,
    "à¤¿à¤¨à¥įà¤¦": 1200,
    "Ġà¤¸à¤°à¤ķà¤¾à¤°": 1201,
    "ag": 1202,
    "Ġch": 1203,
    "Ġsp": 1204,
    "Ġpro": 1205,
    "Ġcont": 1206,
    "Ġint": 1207,
    "fter": 1208,
    "ĠâĢĵ": 1209,
    "Ġà®¤à¯ĭ": 1210,
    "Ġà®ľ": 1211,
    "Ġà®ªà®¤": 1212,
    "Ġà®ĩà®¯": 1213,
    "Ġà®¤à¯ĩ": 1214,
    "Ġà®ªà¯ģà®¤": 1215,
    "à®¿à®ķà¯į": 1216,
    "Ġà®ļà®¿à®±": 1217,
    "Ġà®®à¯ģà®Ł": 1218,
    "Ġà®ªà¯ĩà®°": 1219,
    "Ġà®ħà®³à®µ": 1220,
    "à¯ģà®£": 1221,
    "à®¿à®¯à®¾à®©à®¤à¯ģ": 1222,
    "Ġà®ħà®µ": 1223,
    "à¥ī": 1224,
    "ĵà¤Ĥ": 1225,
    "à¥įà¤°à¥ĩ": 1226,
    "Ġà¤¬à¤¹": 1227,
    "Ġà¤ľà¤¿à¤¸": 1228,
    "Ġà¤Ńà¤¾à¤·": 1229,
    "Ġà¤Ĺà¤¯à¤¾": 1230,
    "Ġà¤¦à¤ķà¥įà¤·à¤¿à¤£": 1231,
    "Ġà¤ķà¥įà¤·à¥ĩ": 1232,
    "Ġà¤ķà¥įà¤·à¥ĩà¤¤à¥įà¤°": 1233,
    "à°ªà±ģ": 1234,
    "Ġà°ı": 1235,
    "à°¾à°¸": 1236,
    "à°¤à°°": 1237,
    "Ġà°Ńà°¾à°°à°¤à°¦à±ĩà°¶à°Ĥ": 1238,
    "Ġà°İà°¨à±įà°¨": 1239,
    "Ġà°®à°¾à°°à±įà°": 1240,
    "à°µà°¸à±įà°¥": 1241,
    "ions": 1242,
    "Ġco": 1243,
    "ĠU": 1244,
    "outh": 1245,
    "ĠHin": 1246,
    "conom": 1247,
    "âĢĶ": 1248,
    "à¥įà¤§": 1249,
    "à¤¿à¤°": 1250,
    "Ġà¤¸à¤Ĥ": 1251,
    "à¤Ĥà¤§": 1252,
    "Ġà¤¸à¤¾à¤®": 1253,
    "Ġà¤¬à¤¾à¤¦": 1254,
    "à®©à¯įà®®": 1255,
    "à¯Īà®¯à¯Ī": 1256,
    "à¯ģà®ķà¯įà®ķà®": 1257,
    "Ġà®ħà®¤à®©à¯į": 1258,
    "Ġà®ĩà®¤à®©à¯į": 1259,
    "à®¿à®ķà¯įà®ķà®ªà¯įà®ªà®Łà¯įà®Ł": 1260,
    "Ġà®ĩà®µà¯Ī": 1261,
    "Ġà®µà®³à®°à¯įà®ļ": 1262,
    "Ġà®ķà¯Ģà®´": 1263,
    "à¯ģà®´": 1264,
    "à®ªà¯įà®ªà®Łà¯įà®Łà®¤à¯ģ": 1265,
    "Ġà®īà®°à¯ģà®µà®¾à®ķ": 1266,
    "Ġà®īà®¯à®¿à®°": 1267,
    "Ġà®ªà¯Ĩà®°à¯ģà®®à¯įà®ªà®¾à®²": 1268,
    "Ġà®µà®¾à®´": 1269,
    "Ġà®°": 1270,
    "à®¾à®ª": 1271,
    "Ġà®ªà¯Ĭà®°à¯ģà®Ł": 1272,
    "Ġà®ªà®°à®µ": 1273,
    "Ġà®ķà¯ģà®±à®¿à®ªà¯įà®ªà®¿à®Ł": 1274,
    "Ġà®ªà®£à¯įà®ª": 1275,
    "our": 1276,
    "ant": 1277,
    "ass": 1278,
    "ame": 1279,
    "age": 1280,
    "ally": 1281,
    "à¤¢": 1282,
    "à¤¾à¤Ĺ": 1283,
    "à¤ķà¥įà¤¤": 1284,
    "Ġà¤µà¤¿à¤¶": 1285,
    "Ġ194": 1286,
    "ct": 1287,
    "à±ģà°ķ": 1288,
    "Ġà°ķà°²": 1289,
    "à±įà°¯à°Ĥ": 1290,
    "à°¿à°¨à±įà°¨": 1291,
    "Ġà°¸à±įà°µ": 1292,
    "Ġà°Ńà°¾à°°à°¤à°¦à±ĩà°¶à°Ĥà°²à±ĭ": 1293,
    "à°¦à±įà°§": 1294,
    "Ġà°µà°ļà±įà°ļ": 1295,
    "à°¾à°¨à°¿à°ķà°¿": 1296,
    "à°¾à°£": 1297,
    "à°¤à±ĭ": 1298,
    "Ġà°ªà°¾à°°": 1299,
    "à±Ĩà°Ĥà°¡": 1300,
    "Ġà°¹à°¿à°Ĥà°¦": 1301,
    "Ġà°®à°¾à°°à±įà°Ĺ": 1302,
    "à°¿à°µ": 1303,
    "à±įà°°à°®": 1304,
    "Ġà®®à®¾à®": 1305,
    "Ġà®ĩà®°à¯ģà®¨à¯įà®¤à®¤à¯ģ": 1306,
    "à®¿à®¤à¯į": 1307,
    "à¯įà®ªà¯įà®ª": 1308,
    "Ġà®µà¯Ĩà®³": 1309,
    "Ġà®¤à®¿à®°": 1310,
    "à®¿à®²à®¾à®©": 1311,
    "Ġà®¨à®Łà®¤à¯įà®¤": 1312,
    "Ġà®ªà¯ĩà®°à®°à®ļ": 1313,
    "à®Łà¯įà®ļ": 1314,
    "à®¾à®µà®¤à¯ģ": 1315,
    "à¯ģà®ķà¯įà®ķà®¿à®¯": 1316,
    "Ġà®¤à¯ĩà®°": 1317,
    "Ġà®ªà¯Ĭà®¤à¯ģà®µ": 1318,
    "Ġà®ħà®©": 1319,
    "¨à®¿à®²": 1320,
    "à®±à¯įà®ªà®Łà¯įà®Ł": 1321,
    "Ġà®ªà®ķà¯ģà®¤à®¿à®ķà®³": 1322,
    "av": 1323,
    "uring": 1324,
    "low": 1325,
    "Ġbec": 1326,
    "if": 1327,
    "ance": 1328,
    "Ġpart": 1329,
    "ĠR": 1330,
    "Ġ9": 1331,
    "à¤«": 1332,
    "à¤¾à¤£": 1333,
    "à¥įà¤ļ": 1334,
    "à¤Ĥà¤¦": 1335,
    "à¥ģà¤ĸ": 1336,
    "Ġà¥¨": 1337,
    "Ġà¤¸à¤¬": 1338,
    "Ġà¤¸à¤¬à¤¸à¥ĩ": 1339,
    "angu": 1340,
    "Ġinto": 1341,
    "ress": 1342,
    "Ġmar": 1343,
    "ish": 1344,
    "Ġform": 1345,
    "Ġeconom": 1346,
    "Ġà®ļà®Łà¯įà®Ł": 1347,
    "Ġà®ĩà®°à¯ģà®¨à¯įà®¤à¯ģ": 1348,
    "Ġà®ĩà®¤à®¿à®²à¯į": 1349,
    "à¯Īà®ķà¯įà®ķà®ªà¯įà®ªà®Łà¯įà®Ł": 1350,
    "Ġà®ķà¯ĭà®Łà®¿": 1351,
    "à®¤à®¾à®ķ": 1352,
    "à¯ģà®ķà¯įà®ķà¯ģà®ªà¯į": 1353,
    "à®¨à¯įà®¤à®¿à®°": 1354,
    "Ġà®ĩà®Łà¯Īà®¯": 1355,
    "à®¾à®ķà®µà¯ģà®®à¯į": 1356,
    "Ġà®®à®¾à®¨à®¿à®²": 1357,
    "Ġà®ĩà®ķà¯įà®ķ": 1358,
    "à®¾à®£à¯ģà®µ": 1359,
    "Ġà®ªà®¯à®©à¯įà®ª": 1360,
    "Ġà®¤à¯Ĭà®Łà®Ļà¯įà®ķ": 1361,
    "Ġà®ĩà®°à®¾à®£à¯ģà®µ": 1362,
    "à®¿à®°à¯ģà®¨à¯įà®¤": 1363,
    "à¯ģà®ķà®": 1364,
    "ĠF": 1365,
    "Ġà¤¥": 1366,
    "à¤ķà¤¾": 1367,
    "Ġà¤ķà¤¾à¤°": 1368,
    "à¤¾à¤ľà¥įà¤¯": 1369,
    "Ġà¤¹à¤¿à¤¨à¥įà¤¦": 1370,
    "à¤¾à¤ĵà¤Ĥ": 1371,
    "à¤¢à¤¼": 1372,
    "ore": 1373,
    "à°·": 1374,
    "à°¾à°µ": 1375,
    "à°¾à°Ĺ": 1376,
    "Ġà°ķà±ĭ": 1377,
    "à°§à±įà°¯": 1378,
    "Ġà°ļà±Ĩ": 1379,
    "Ġà°ķà±Ĥà°¡à°¾": 1380,
    "Ġà°ħà°§à°¿à°ķà°¾à°°": 1381,
    "Ġà°®à°¤": 1382,
    "à°Łà°¿": 1383,
    "à°§à°¾à°¨": 1384,
    "à°¿à°¯à°¾": 1385,
    "ern": 1386,
    "ĠCh": 1387,
    "aj": 1388,
    "ap": 1389,
    "Ġreg": 1390,
    "illion": 1391,
    "any": 1392,
    "à¥ģà¤¨": 1393,
    "à¥įà¤Łà¥įà¤°": 1394,
    "à¤¾à¤·à¥įà¤Łà¥įà¤°": 1395,
    "à®¿à®£": 1396,
    "Ġà®®à¯ģ": 1397,
    "à¯Ĩà®Ł": 1398,
    "Ġà®Ĩà®©": 1399,
    "à®¾à®ķà®ªà¯į": 1400,
    "à¯įà®¯": 1401,
    "Ġà®īà®£à®µ": 1402,
    "à®ļà¯įà®ļ": 1403,
    "à¯ģà®Łà¯įà®ª": 1404,
    "Ġà®¤à¯ģà®£": 1405,
    "Ġà®®à¯ģà®ķà¯įà®ķà®¿à®¯": 1406,
    "à¯Į": 1407,
    "à¯ģà®®à®¤": 1408,
    "Ġad": 1409,
    "Ġse": 1410,
    "Ġpl": 1411,
    "ĠJ": 1412,
    "Ġcl": 1413,
    "ates": 1414,
    "Ġle": 1415,
    "Ġrel": 1416,
    "stit": 1417,
    "Ġcentur": 1418,
    "Ġk": 1419,
    "Ġsub": 1420,
    "Ġlarge": 1421,
    "à¤ł": 1422,
    "à¤¾à¤ķ": 1423,
    "à¤¤à¤¿": 1424,
    "à¤ķà¤°": 1425,
    "à¤¿à¤ķà¤¾": 1426,
    "ire": 1427,
    "Ġà®ĩà®¨à¯įà®¤à®¿à®¯à®ªà¯į": 1428,
    "Ġà®ĵà®°à¯į": 1429,
    "Ġà®¤à¯Ĭà®´à®¿à®²à¯į": 1430,
    "Ġà®ħà®´": 1431,
    "Ġà®ªà¯ĭà®©à¯įà®±": 1432,
    "à®µà¯Ģà®©": 1433,
    "à¯įà®ķà®®à¯į": 1434,
    "à®Ļà¯įà®ķà®³à¯Ī": 1435,
    "Ġà®ªà®¿à®°à®¤": 1436,
    "à®ªà¯įà®ªà®Łà¯ģà®®à¯į": 1437,
    "Ġà®µà¯Ģà®¤": 1438,
    "à®¾à®ªà¯įà®ª": 1439,
    "à®£à¯į": 1440,
    "Ġà®ªà®¯à®©à¯įà®ªà®Łà¯ģà®¤à¯įà®¤": 1441,
    "à®°à¯ģà®®à¯į": 1442,
    "à°¾à°Ń": 1443,
    "Ġà°ªà±įà°°à°ª": 1444,
    "à°°à±įà°µ": 1445,
    "Ġà°ªà±įà°°à°¾à°Ĥ": 1446,
    "Ġà°¦à±ĩà°¶à°¾à°²": 1447,
    "à°¿à°¤à±įà°°": 1448,
    "à°¿à°²à±įà°²": 1449,
    "Ġà°°à±Īà°²à±ģ": 1450,
    "Ġà°ªà±įà°°à°ªà°Ĥà°ļ": 1451,
    "Ġà°ªà±įà°°à°¾à°Ĥà°¤": 1452,
    "à°Ĥà°¬": 1453,
    "à±ģà°¨à±įà°¨": 1454,
    "à±ģà°ķà±ģ": 1455,
    "Ġà°ªà±įà°°à°§à°¾à°¨": 1456,
    "à°¾à°ľ": 1457,
    "à°°à±į": 1458,
    "Ġà°¦à°ķà±įà°·": 1459,
    "à±Ĩà°²": 1460,
    "ces": 1461,
    "Ġy": 1462,
    "ution": 1463,
    "inist": 1464,
    "eral": 1465,
    "Ġper": 1466,
    "Ġpop": 1467,
    "me": 1468,
    "ia": 1469,
    "hi": 1470,
    "Ġà¤«": 1471,
    "à¥įà¤ª": 1472,
    "à¥įà¤²": 1473,
    "à¤¿à¤ı": 1474,
    "à¤¤à¥Ģ": 1475,
    "à¤ķà¥Ģ": 1476,
    "à¥ģà¤°": 1477,
    "à¤²à¥Ģ": 1478,
    "Ġà¤ªà¤¹": 1479,
    "Ġà¤¦à¥ĭ": 1480,
    "Ġà¤ħà¤§à¤¿à¤ķ": 1481,
    "à¤Ĥà¤Ĺà¥įà¤°à¥ĩ": 1482,
    "Ġ1950": 1483,
    "âĤ": 1484,
    "âĤ¹": 1485,
    "Ġ12": 1486,
    "ok": 1487,
    "ĠV": 1488,
    "ence": 1489,
    "ĠK": 1490,
    "Ġgovernment": 1491,
    "Ġel": 1492,
    "Ġlangu": 1493,
    "mer": 1494,
    "so": 1495,
    "à®®à¯Īà®ªà¯įà®ª": 1496,
    "Ġà®Ĩà®±à¯įà®±": 1497,
    "Ġà®ķà®°": 1498,
    "à¯ģà®ķà¯įà®ķà¯ģà®®à¯į": 1499,
    "Ġà®ªà¯Ĩà®¯": 1500,
    "Ġà®īà®Łà¯Īà®¯": 1501,
    "à¯ģà®ļ": 1502,
    "à®ķà¯ģ": 1503,
    "Ġà®®à¯ĩà®±à¯įà®ķ": 1504,
    "à¯ģà®ķà®¿à®©à¯įà®±à®©à®°à¯į": 1505,
    "Ġà®Ĩà®¤": 1506,
    "Ġà®ªà¯ģà®µ": 1507,
    "Ġà®İà®¤": 1508,
    "Ġà®İà®¤à®¿à®°": 1509,
    "Ġà®¨à®¾à®Łà¯įà®Ł": 1510,
    "Ġà®µà®Ļà¯įà®ķ": 1511,
    "Ġà®ķà®²à¯įà®µ": 1512,
    "Ġà®ķà®¿à®°": 1513,
    "Ġà®İà®©à¯įà®ª": 1514,
    "Ġà®Ĩà®ļà®¿à®¯": 1515,
    "Ġà®Ĩà®ķà®¿à®¯à®µà®±à¯įà®±": 1516,
    "à¥įà¤®": 1517,
    "à¤°à¥įà¤¥": 1518,
    "Ġà¤¶à¤¾à¤¸": 1519,
    "Ġà¤µà¤°à¥įà¤·": 1520,
    "Ġà¤§à¤°à¥įà¤®": 1521,
    "Ġ26": 1522,
    "Ġ1947": 1523,
    "à°¾à°§": 1524,
    "à°µà°¿": 1525,
    "à±įà°²à±ĭ": 1526,
    "à±įà°Łà±Ģ": 1527,
    "à°¬à°¡": 1528,
    "Ġà°°à°¾à°ľà±įà°¯": 1529,
    "Ġà°ķà±įà°°à±Ģ": 1530,
    "Ġà°ªà±ĩà°°à±ģ": 1531,
    "Ġà°µà±įà°¯à°µà°¸à±įà°¥": 1532,
    "Ġà°®à°§à±įà°¯": 1533,
    "Ġà°ªà°¾à°°à±įà°Łà±Ģ": 1534,
    "à±įà°¡": 1535,
    "à°¿à°£": 1536,
    "Ġà°ħà°¤": 1537,
    "à°¿à°²à±ĭ": 1538,
    "à°¾à°¨à±į": 1539,
    "à°¦à±ĩà°¶à°Ĥ": 1540,
    "Ġà°ªà°¾à°ķ": 1541,
    "Ġà°¦à°ķà±įà°·à°¿à°£": 1542,
    "à°¶": 1543,
    "ine": 1544,
    "qu": 1545,
    "Ġdec": 1546,
    "Ġworld": 1547,
    "Ġpri": 1548,
    "lud": 1549,
    "Ġpopul": 1550,
    "reas": 1551,
    "à¥¨": 1552,
    "à¥ª": 1553,
    "à¤°à¥ĩ": 1554,
    "à¥ģà¤¸": 1555,
    "Ġà¤°à¥Ĥà¤ª": 1556,
    "à¤¦à¥įà¤§": 1557,
    "Ġ15": 1558,
    "Ġà®Ĩà®Ł": 1559,
    "Ġà®ĩà®°à¯ģ": 1560,
    "Ġà®ķà¯Ĥà®Ł": 1561,
    "Ġà®ªà¯Ĩà®°à¯ģà®®à¯įà®ªà®¾à®²à®¾à®©": 1562,
    "Ġà®Ĩà®©à®¾à®²à¯į": 1563,
    "Ġà®µà®¿à®°": 1564,
    "Ġà®®à¯Ģ": 1565,
    "Ġà®¤à¯Ģ": 1566,
    "à¯ģà®ķà®³à¯Ī": 1567,
    "à¯ģà®ķà®³à®¿à®©à¯į": 1568,
    "Ġà®ªà®¾à®£": 1569,
    "Ġà®ªà¯ĭà®Łà¯įà®Ł": 1570,
    "à®²à®¿à®²à¯į": 1571,
    "à¯Īà®¯à®¾à®ķ": 1572,
    "à®ļà¯į": 1573,
    "Ġà®ªà®Ļà¯įà®ķ": 1574,
    "Ġà®ļà¯ĩà®°": 1575,
    "Ġà®īà®°à¯ģà®µà®¾à®ķà¯įà®ķ": 1576,
    "Ġà®ħà®Łà®¿à®ªà¯įà®ª": 1577,
    "Ġà®ķà®£à¯įà®Ł": 1578,
    "Ġà®ªà®¾à®¤à¯ģà®ķ": 1579,
    "à®ŀà¯įà®ļ": 1580,
    "Ġà®ļà¯Ĩà®¯à¯įà®¯": 1581,
    "Ġà®µà®£": 1582,
    "Ġà®ļà®¾à®°": 1583,
    "Ġà®¤à¯Ĭà®Łà®ķà¯įà®ķ": 1584,
    "Ġà®īà®±à¯įà®ª": 1585,
    "Ġà®īà®±à¯įà®ªà®¤à¯įà®¤": 1586,
    "à®ķà®ķà¯į": 1587,
    "Ġà®®à®ķà¯įà®ķà®³": 1588,
    "à®µà®¿à®¯": 1589,
    "ff": 1590,
    "Ġfir": 1591,
    "Ġfirst": 1592,
    "cc": 1593,
    "Ġag": 1594,
    "ĠInd": 1595,
    "Ġsy": 1596,
    "ave": 1597,
    "duc": 1598,
    "reat": 1599,
    "Ġgen": 1600,
    "Ġtra": 1601,
    "ther": 1602,
    "Ġcomp": 1603,
    "ĠHindu": 1604,
    "Ġyear": 1605,
    "ome": 1606,
    "ign": 1607,
    "Ġà¤ĺ": 1608,
    "à¥įà¤¨": 1609,
    "à¤¿à¤¶": 1610,
    "Ġà¤®à¤¹": 1611,
    "Ġà¤ľà¥ĭ": 1612,
    "à¤¿à¤¯à¥ĭà¤Ĥ": 1613,
    "Ġà¤¬à¤¹à¥ģ": 1614,
    "Ġà¤µà¤¿à¤¶à¥įà¤µ": 1615,
    "Ġà¤°à¤¾à¤·à¥įà¤Łà¥įà¤°": 1616,
    "Ġà®ĩà®¨à¯įà®¤à¯ģ": 1617,
    "Ġà®ķà¯Ĭà®³": 1618,
    "Ġà®ħà®¤à®¿à®ķ": 1619,
    "à®¤à¯įà®¤à¯Īà®ķà¯į": 1620,
    "Ġà®ļà¯Ĩà®²": 1621,
    "Ġà®®à¯Ĭà®¤à¯įà®¤": 1622,
    "Ġà®®à¯ģà®±à¯Ī": 1623,
    "Ġà®¤à¯Ĭà®Łà®°à¯įà®¨à¯įà®¤à¯ģ": 1624,
    "Ġà®Ĳà®ħ": 1625,
    "Ġà®ªà®¿à®±à®ķà¯ģ": 1626,
    "Ġà®¤à¯Ĩà®±à¯įà®ķ": 1627,
    "à®µà¯Īà®¯à®¾à®ķ": 1628,
    "Ġà®¨à®¿à®±à¯ģà®µà®©": 1629,
    "à®¾à®¨à¯įà®¤": 1630,
    "Ġà®ĩà®ļ": 1631,
    "Ġà®ķà®¾à®£": 1632,
    "Ġà®®à¯ģà®ķà®": 1633,
    "Ġà®Ĩà®¯à¯ģà®¤": 1634,
    "Ġà®ħà®©à¯Īà®¤à¯įà®¤": 1635,
    "Ġà®īà®Ł": 1636,
    "à°¿à°§": 1637,
    "à±įà°°à°Ĥ": 1638,
    "à±Ģà°¨": 1639,
    "Ġà°ķà±ģ": 1640,
    "Ġà°ķà°¾à°²": 1641,
    "Ġà°¸à°®": 1642,
    "Ġà°ħà°¯": 1643,
    "Ġà°Ĩà°°à±įà°": 1644,
    "à°¾à°Ĥà°Ĺ": 1645,
    "Ġà°¦à±ĩà°¶à°Ĥà°²à±ĭ": 1646,
    "Ġà°ªà±įà°°à°Ń": 1647,
    "à°°à°£": 1648,
    "à°¿à°Ĥà°ļà°¿à°Ĥà°¦à°¿": 1649,
    "à±ģà°¤à±įà°µ": 1650,
    "ķà±ĥ": 1651,
    "à°ĸà±įà°¯": 1652,
    "Ġà°ªà±įà°°à°ľ": 1653,
    "Ġà°Ńà°¾à°·": 1654,
    "Ġà°®à±Ĭà°¦": 1655,
    "à°ķà±įà°ķà±ģà°µ": 1656,
    "à°ªà±įà°ª": 1657,
    "Ġà°ĩà°¤à°°": 1658,
    "Ġà°¹à°¿à°Ĥà°¦à±Ĥ": 1659,
    "Ġà°ªà±įà°°à°Ńà±ģà°¤à±įà°µ": 1660,
    "Ġà°¶à°¾à°": 1661,
    "à°¤à±įà°µ": 1662,
    "all": 1663,
    "dition": 1664,
    "ection": 1665,
    "Ġend": 1666,
    "pp": 1667,
    "red": 1668,
    "uch": 1669,
    "dern": 1670,
    "Ġinclud": 1671,
    "ved": 1672,
    "Ġsh": 1673,
    "oth": 1674,
    "Ġexp": 1675,
    "Ġart": 1676,
    "row": 1677,
    "ian": 1678,
    "à¤¿à¤µ": 1679,
    "à¤¨à¥Ģ": 1680,
    "Ġà¤¨à¤¾à¤®": 1681,
    "Ġà¤ªà¥Ĥà¤°à¥įà¤µ": 1682,
    "ew": 1683,
    "ational": 1684,
    "Ġ10": 1685,
    "ages": 1686,
    "we": 1687,
    "Ġres": 1688,
    "igh": 1689,
    "ide": 1690,
    "Ġduring": 1691,
    "Ġbecame": 1692,
    "stitution": 1693,
    "gan": 1694,
    "ber": 1695,
    "Ġover": 1696,
    "used": 1697,
    "stem": 1698,
    "Ġsystem": 1699,
    "ect": 1700,
    "à¤ı": 1701,
    "à¤°à¤¾": 1702,
    "à¤¾à¤ļ": 1703,
    "à¥ĭà¤²": 1704,
    "Ġà¤¨à¤¿": 1705,
    "à¤§à¤¾à¤¨": 1706,
    "Ġà¤¬à¤¡à¤¼": 1707,
    "Ġà¤¹à¥ģà¤Ĩ": 1708,
    "Ġà¤¹à¥ģà¤Ī": 1709,
    "Ġà®ªà®¿à®©": 1710,
    "Ġà®®à®²": 1711,
    "Ġà®¨à®¿à®°": 1712,
    "à®ªà¯įà®ªà®Łà¯įà®Łà®©": 1713,
    "Ġà®µà¯ĩà®±": 1714,
    "Ġà®ħà®¤à®¿à®ķà®°à®¿à®¤à¯įà®¤à¯ģ": 1715,
    "à¯įà®¨à®¾à®Łà¯įà®Łà¯ģ": 1716,
    "Ġà®ķà¯Ģà®´à¯į": 1717,
    "Ġà®ĩà®Łà¯Īà®¯à®¿à®²à¯į": 1718,
    "Ġ(âĤ¹": 1719,
    "Ġà®ªà¯Ĩà®¯à®°": 1720,
    "Ġà®µà¯ĩà®±à¯ģà®ª": 1721,
    "Ġà®®à®°": 1722,
    "à®¿à®²à¯ģà®®à¯į": 1723,
    "à¯ģà®ªà¯įà®ªà®¿à®©": 1724,
    "à®¤à®¾à®ķà¯ģà®®à¯į": 1725,
    "à®ªà¯įà®ªà®Łà¯ģà®ķà®¿à®©à¯įà®±à®©": 1726,
    "à¯Īà®¯à¯ģà®Łà¯Īà®¯": 1727,
    "Ġà®µà®¿à®³à¯Īà®¯": 1728,
    "Ġà®ķà®¿à®´à®ķà¯įà®ķ": 1729,
    "Ġà®ļà®°": 1730,
    "à®Łà®¿à®¤à¯įà®¤": 1731,
    "Ġà®ªà¯ĭà®¤": 1732,
    "Ġà®¨à¯ĩà®°": 1733,
    "Ġà®ķà¯ĭà®Ł": 1734,
    "à®¾à®Łà¯įà®ļà®¿": 1735,
    "Ġà®ķà¯ģà®Łà®¿à®¯à®°à®ļ": 1736,
    "Ġà®ªà®¿à®°à®¿à®¤à¯įà®¤à®¾à®©": 1737,
    "Ġà®°à¯Ģà®¤": 1738,
    "Ġà®ĩà®ķà¯įà®ķà®¾à®²": 1739,
    "à¯Īà®ļ": 1740,
    "19": 1741,
    "Ġ17": 1742,
    "à±Ģà°¤": 1743,
    "Ġà°¯": 1744,
    "à±įà°¸": 1745,
    "à°¿à°Ł": 1746,
    "Ġà°ªà±ģ": 1747,
    "à°°à±įà°¯": 1748,
    "à°°à±įà°ª": 1749,
    "à°Ĺà±ģ": 1750,
    "à°¦à°¾à°¯": 1751,
    "Ġà°ļà±ĩà°": 1752,
    "à°Ĥà°¡à°¿": 1753,
    "à°¿à°Ĥà°ļà°¿à°¨": 1754,
    "à±Ĩà°¸": 1755,
    "Ġà°¸à°¾à°Ĥ": 1756,
    "Ġà°¦à±ĩà°¶à°Ĥ": 1757,
    "à°Ńà°¾à°°à°¤": 1758,
    "Ġà°¸à°Ń": 1759,
    "Ġà°¸à°Ĥà°¸à±įà°": 1760,
    "à°¿à°Ĺà°¾": 1761,
    "à±Ĩà°¦à±įà°¦": 1762,
    "Ġà°¸à±įà°¥à°¾à°¨": 1763,
    "à±ģà°ķà±ĭ": 1764,
    "Ġà°µà°ļà±įà°ļà°¿à°Ĥà°¦à°¿": 1765,
    "Ġà°ľà°¨à°¾à°Ń": 1766,
    "à°Ĥà°ª": 1767,
    "à°¿à°¸à±įà°": 1768,
    "Ġà°°à±Ĩà°Ĥà°¡": 1769,
    "Ġrep": 1770,
    "Ġri": 1771,
    "Ġbut": 1772,
    "Ġhad": 1773,
    "Ġbeen": 1774,
    "Ġalso": 1775,
    "Ġhave": 1776,
    "har": 1777,
    "estern": 1778,
    "ajor": 1779,
    "mpire": 1780,
    "à¤¾à¤¬": 1781,
    "à¤¾à¤ı": 1782,
    "à¥Īà¤¨": 1783,
    "à¤Ĥà¤¡": 1784,
    "Ġà¤¦à¥ĩ": 1785,
    "à¤¾à¤¨à¥ĩ": 1786,
    "à¤¸à¥įà¤¤": 1787,
    "Ġà¤¸à¥įà¤µ": 1788,
    "à¥ĭà¤¡à¤¼": 1789,
    "Ġà¤ľà¤¾à¤¤à¤¾": 1790,
    "ral": 1791,
    ").": 1792,
    "à¯įà®ķà®³à¯Ī": 1793,
    "à®Ĳ": 1794,
    "à¯Ĩà®³": 1795,
    "à®¿à®ķà¯įà®ķà®": 1796,
    "à®¿à®°à®ļ": 1797,
    "à®¾à®Łà¯ģ": 1798,
    "Ġà®Ĵà®ªà¯įà®ª": 1799,
    "Ġà®ħà®°à®ļà®¿à®¯à®²à¯į": 1800,
    "Ġà®ļà¯Ĩà®¯à®²": 1801,
    "Ġà®ķà®¾à®Ļà¯įà®ķ": 1802,
    "Ġà®ķà¯Ĭà®£à¯įà®Łà®¿à®°à¯ģà®¨à¯įà®¤à®¤à¯ģ": 1803,
    "Ġà®ķà¯ģà®´": 1804,
    "à®¾à®Ļ": 1805,
    "Ġà®®à®©": 1806,
    "Ġà®ļà¯ĭ": 1807,
    "à¯įà®ķà®°": 1808,
    "à®Ļà¯įà®ķà®³à®¿à®©à¯į": 1809,
    "Ġà®ļà®¨à¯įà®¤": 1810,
    "Ġà®īà®³à¯įà®³à®Ł": 1811,
    "à®¾à®£à¯įà®®": 1812,
    "à¯Īà®¨à¯įà®¤à®¤à¯ģ": 1813,
    "Ġà®ªà®ķà¯ģà®¤à®¿à®¯": 1814,
    "Ġà®ĩà®µà¯įà®µ": 1815,
    "Ġà®®à®¾à®±à¯įà®±": 1816,
    "Ġà®®à¯Ĥà®©à¯įà®±": 1817,
    "à®ķà®®à®¾à®ķ": 1818,
    "Ġà®¤à¯ĩà®ļà®¿à®¯": 1819,
    "Ġà®µà®Ļà¯įà®ķà®¾à®³": 1820,
    "à®ĩà®¨à¯įà®¤": 1821,
    "Ġà®ħà®Łà®¿à®ªà¯įà®ªà®Łà¯Īà®¯": 1822,
    "Ġà®ªà®¿à®°à®¿à®¤à¯įà®¤à®¾à®©à®¿à®¯": 1823,
    "Ġà®ķà®¾à®Ļà¯įà®ķà®¿à®°à®ļ": 1824,
    "Ġà®ħà®°": 1825,
    "ep": 1826,
    "à¤¾à¤¹": 1827,
    "à¤¾à¤°à¥Ģ": 1828,
    "à¤®à¥ĩà¤Ĥ": 1829,
    "à¥ģà¤²": 1830,
    "Ġà¤Ńà¥Ĥ": 1831,
    "Ġà¤®à¤¾à¤¨": 1832,
    "Ġà¤ªà¥įà¤°à¤¦": 1833,
    "Ġà¤ªà¥įà¤°à¤®": 1834,
    "à¤¾à¤²à¥Ģ": 1835,
    "Ġà¤¦à¤¿à¤¯à¤¾": 1836,
    "ķà¥ĥà¤¤": 1837,
    "Ġà¤īà¤¤à¥įà¤¤à¤°": 1838,
    "Ġà¤¶à¤¾à¤¸à¤¨": 1839,
    "à¤¸à¥įà¤ķà¥ĥà¤¤": 1840,
    "upp": 1841,
    "dh": 1842,
    "Ġme": 1843,
    "ics": 1844,
    "ric": 1845,
    "ural": 1846,
    "Ġcons": 1847,
    "Ġmore": 1848,
    "Ġrelig": 1849,
    "Ġinf": 1850,
    "ongress": 1851,
    "ĠL": 1852,
    "Ġ16": 1853,
    "ures": 1854,
    "à®¿à®¯à®¾": 1855,
    "Ġà®¤à®Ł": 1856,
    "à¯įà®ķà¯įà®ķ": 1857,
    "à¯ĩà®±à¯įà®±": 1858,
    "à¯Ģà®Łà¯įà®Ł": 1859,
    "à¯ģà®³à¯į": 1860,
    "à¯ģà®®à¯ĩ": 1861,
    "Ġà®ĩà®¨à¯įà®¤à®¿à®¯à®¤à¯į": 1862,
    "à®¾à®³à¯ģà®®": 1863,
    "Ġà®µà®°à¯Ī": 1864,
    "Ġà®īà®°à¯ģà®µà®¾à®©à®¤à¯ģ": 1865,
    "Ġà®ªà¯ģà®°": 1866,
    "Ġà®īà®³à¯įà®¨à®¾à®Łà¯įà®Łà¯ģ": 1867,
    "à®¾à®³à¯ģà®®à®©à¯įà®±": 1868,
    "Ġà®®à®¤": 1869,
    "à®¿à®¯à®²": 1870,
    "Ġà®ļà®¿à®²": 1871,
    "à®¤à¯įà®¤à®ķà¯įà®ķ": 1872,
    "Ġà®ªà®¾à®²": 1873,
    "Ġà®ķà®¾à®Łà¯įà®Ł": 1874,
    "à¯ģà®®à¯įà®ª": 1875,
    "²à®¾à®¯": 1876,
    "Ġà®µà¯Īà®¤à¯įà®¤": 1877,
    "Ġà®ªà®²à¯įà®µ": 1878,
    "à®¿à®²à¯įà®²à¯Ī": 1879,
    "Ġà®®à¯Ĭà®´à®¿à®ķà®³": 1880,
    "Ġà®ķà¯Ĥà®Łà¯įà®Łà®£": 1881,
    "Ġà®ªà®°à®µà®²": 1882,
    "Ġà®¤à¯ĩà®°à¯įà®¤": 1883,
    "Ġà®ªà®¾à®¤à¯ģà®ķà®¾à®ªà¯įà®ª": 1884,
    "Ġà®®à¯ģà®ķà®²à®¾à®¯": 1885,
    "à¯Ģà®°": 1886,
    "à¯Ĩà®°": 1887,
    "à¥«": 1888,
    "Ġà¤Ī": 1889,
    "Ġà¤¡": 1890,
    "à¤ķà¤¿": 1891,
    "Ġà¤ªà¤¾à¤°": 1892,
    "Ġà¤µà¥įà¤¯": 1893,
    "à¥įà¤¤à¤¾à¤¨": 1894,
    "à¤¾à¤²à¤¯": 1895,
    "Ġà¤īà¤ª": 1896,
    "Ġà¤īà¤¨": 1897,
    "à¤¨à¥įà¤¦": 1898,
    "à¥¦à¥¦": 1899,
    "à¤Ĥà¤¦à¥įà¤°": 1900,
    "à°¾à°ª": 1901,
    "à°¾à°¹": 1902,
    "à°¾à°ļ": 1903,
    "à°¿à°ļ": 1904,
    "à°¿à°¹": 1905,
    "à°¿à°³": 1906,
    "à°Ĥà°§": 1907,
    "à°¾à°°à°Ĥ": 1908,
    "Ġà°ķà±ĩ": 1909,
    "Ġà°°à°µ": 1910,
    "à°°à±įà°£": 1911,
    "à±ģà°Ĥà°¦à°¿": 1912,
    "à°µà°¾à°¤": 1913,
    "Ġà°¦à±įà°µ": 1914,
    "Ġà°ĩà°Ĥà°¡": 1915,
    "Ġà°ķà±Ĭ": 1916,
    "Ġà°īà°Ĥà°Ł": 1917,
    "Ġà°¤à°°à±ģ": 1918,
    "à°°à°¿à°Ĺ": 1919,
    "Ġà°ªà°Łà±įà°Ł": 1920,
    "Ġà°¨à°¿à°°": 1921,
    "à°¾à°£à°¾": 1922,
    "Ġà°®à°¾à°°à±įà°Ĺà°¾à°²à±ģ": 1923,
    "Ġà°ķà±įà°°à±Ģà°¡": 1924,
    "Ġà°ħà°¯à°¿à°¨": 1925,
    "Ġà°ķà±ĩà°Ĥà°¦": 1926,
    "Ġà°¤à°°à±ģà°µà°¾à°¤": 1927,
    "Ġà°ľà°°à°¿à°Ĺ": 1928,
    "à°¿à°¶": 1929,
    "ount": 1930,
    "CE": 1931,
    "ower": 1932,
    "ound": 1933,
    "Ġtw": 1934,
    "Ġpe": 1935,
    "Ġlat": 1936,
    "vers": 1937,
    "Ġpol": 1938,
    "Ġthat": 1939,
    "Ġmost": 1940,
    "Ġnum": 1941,
    "Ġafter": 1942,
    "ĠSouth": 1943,
    "Ġmillion": 1944,
    "Ġclass": 1945,
    "Ġcentury": 1946,
    "Ġyears": 1947,
    "Ġsuch": 1948,
    "Ġmodern": 1949,
    "ord": 1950,
    "Ġminist": 1951,
    "Ġincreas": 1952,
    "ty": 1953,
    "ens": 1954,
    "Ġ1991": 1955,
    "%,": 1956,
    "lic": 1957,
    "In": 1958,
    "à¤¥": 1959,
    "à¤ģ": 1960,
    "Ġà¤Ľ": 1961,
    "à¥įà¤°à¥Ģ": 1962,
    "à¤¤à¥įà¤¯": 1963,
    "à¤²à¥ĩ": 1964,
    "à¤°à¤¿à¤ķ": 1965,
    "Ġà¤¸à¤®à¤¯": 1966,
    "Ġà¤ħà¤¨à¥įà¤¯": 1967,
    "à¤¾à¤ªà¥įà¤¤": 1968,
    "Ġà¤°à¤¾à¤ľà¥įà¤¯à¥ĭà¤Ĥ": 1969,
    "¬à¤Ĥà¤§": 1970,
    "Ġà¤¥à¥Ģ": 1971,
    "Ġà¤²à¤¿à¤ı": 1972,
    "Ġà¤ħà¤¨à¥ģà¤¸": 1973,
    "Ġà¤ªà¥įà¤°à¤®à¥ģà¤ĸ": 1974,
    "Ġà¤ķà¥ĩà¤Ĥà¤¦à¥įà¤°": 1975,
    "200": 1976,
    "tin": 1977,
    "Ġim": 1978,
    "Ġdis": 1979,
    "Ġregion": 1980,
    "ĠO": 1981,
    "Ġhe": 1982,
    "orth": 1983,
    "imal": 1984,
    "Ġrul": 1985,
    "Ġlong": 1986,
    "mong": 1987,
    "Ġprime": 1988,
    "Ġtradition": 1989,
    "Ġboth": 1990,
    "ĠCongress": 1991,
    "Ġtwo": 1992,
    "Ġca": 1993,
    "Ġà®ªà®Ł": 1994,
    "à®µà®°": 1995,
    "à¯ĭà®°à¯į": 1996,
    "à®¾à®²à¯ģà®®à¯į": 1997,
    "à®¿à®ķà®³à¯Ī": 1998,
    "Ġà®Ī": 1999,
    "Ġà®ĩà®ªà¯įà®ª": 2000,
    "à¯ģà®ķà®³à®¿à®²à¯į": 2001,
    "à®¾à®¤à¯įà®¤": 2002,
    "à¯Īà®ķà®³à®¿à®²à¯į": 2003,
    "Ġà®ªà®¿à®°à®¿à®µ": 2004,
    "à®¾à®©à¯įà®®": 2005,
    "Ġà®µà¯ĩà®³": 2006,
    "à®°à¯įà®ķà®³à®¾à®²à¯į": 2007,
    "Ġà®ķà¯ģà®±à¯Īà®µ": 2008,
    "à®®à®¿à®´": 2009,
    "Ġà®ĩà®°à®£à¯įà®Łà¯ģ": 2010,
    "Ġà®ķà®Łà¯įà®Łà¯ģà®ªà¯įà®ª": 2011,
    "Ġà®ķà®£à®ķà¯įà®ķ": 2012,
    "Ġà®¤à®²à¯Īà®µ": 2013,
    "Ġà®ªà¯ģà®¤à®¿à®¯": 2014,
    "Ġà®µà®³à®°à¯įà®ļà¯įà®ļà®¿": 2015,
    "à®¾à®ªà¯įà®¤": 2016,
    "Ġà®ªà¯Ĭà®¤à¯ģà®µà®¾à®ķ": 2017,
    "Ġà®¨à¯ģà®Łà¯įà®ª": 2018,
    "Ġà®ªà¯Į": 2019,
    "Ġà®¨à®µà¯Ģà®©": 2020,
    "Ġà®ļà¯ĩà®°à¯įà®¨à¯įà®¤": 2021,
    "Ġà®īà®±à¯ģà®ªà¯įà®ªà®¿à®©": 2022,
    "Ġà®µà®¿à®³à¯Īà®¯à®¾à®Łà¯įà®Ł": 2023,
    "à®µà®¤à¯ģ": 2024,
    "à®£à¯įà®ķà®³": 2025,
    "à¯Īà®ķà¯įà®ķà®": 2026,
    "Ġà®ªà®¿à®°à®ª": 2027,
    "Ġà®µà¯ĩà®¤": 2028,
    "Ġà®µà®°à®²": 2029,
    "Ġà®µà¯Ĩà®±à¯įà®±": 2030,
    "Ġà®īà®³à¯įà®³à®¿à®Łà¯įà®Ł": 2031,
    "Ġà®ĩà®²à®ķà¯įà®ķà®¿à®¯": 2032,
    "Ġà®İà®£à¯įà®£à®¿à®ķà¯įà®ķ": 2033,
    "Ġà®µà®¿à®°à®¿à®µ": 2034,
    "à¯ĭà®¤à¯ģ": 2035,
    "¸à¯į": 2036,
    "Ġà®ªà¯ĩ": 2037,
    "à®¿à®ª": 2038,
    "ust": 2039,
    "dia": 2040,
    "42": 2041,
    "vel": 2042,
    "ik": 2043,
    "à¥Ń": 2044,
    "Ġà¤¬à¥Ģ": 2045,
    "Ġà¤¦à¥įà¤µ": 2046,
    "à¤Ńà¤¾à¤°à¤¤": 2047,
    "à¥ĩà¤Ł": 2048,
    "Ġà¤¸à¤Ĥà¤ĺ": 2049,
    "Ġà¤®à¤¿à¤²": 2050,
    "à¤¹à¥Ģà¤Ĥ": 2051,
    "Ġà¤¹à¤¿à¤¨à¥įà¤¦à¥Ģ": 2052,
    "Ġà¤¬à¤¢à¤¼": 2053,
    "Ġà¤ļà¥ģà¤¨": 2054,
    "à±įà°¨à°¿": 2055,
    "Ġà°Ł": 2056,
    "Ġà°ªà°¾à°²": 2057,
    "à°¦à±ģ": 2058,
    "Ġà°¸à°°": 2059,
    "à±Ĩà°²à±ģ": 2060,
    "Ġà°ªà±įà°°à°¤": 2061,
    "à°ªà±įà°°": 2062,
    "à±Ĥà°ª": 2063,
    "à°°à°¾à°²à±ģ": 2064,
    "à°Ĥà°¦à°¿à°¨": 2065,
    "à°°à±įà°¤": 2066,
    "Ġà°īà°ª": 2067,
    "Ġà°¸à°Ĥà°Ĺ": 2068,
    "Ġà°¨à±ģ": 2069,
    "à°ķà±Ģà°¯": 2070,
    "à°¾à°²à°¨à±ģ": 2071,
    "Ġà°¬à°¹": 2072,
    "Ġà°¬à±įà°°": 2073,
    "Ġà°µà°Ĥà°Ł": 2074,
    "Ġà°µà°¿à°µ": 2075,
    "Ġà°¸à°¾à°®": 2076,
    "Ġà°ĩà°¦à°¿": 2077,
    "à±Įà°ķ": 2078,
    "à°¸à±įà°¤à±ģà°¤": 2079,
    "Ġà°ħà°¨à±ĩ": 2080,
    "Ġà°İà°¨à±įà°¨à±ĭ": 2081,
    "Ġà°¸à°¾à°§": 2082,
    "Ġà°ķà°¾à°Ĥà°Ĺ": 2083,
    "Ġà°İà°ķà±įà°ķà±ģà°µ": 2084,
    "Ġà°ıà°°à±įà°ª": 2085,
    "à±įà°°à±Ĩà°¸": 2086,
    "Ġà°ªà±Ĩà°¦à±įà°¦": 2087,
    "Ġà°°à°µà°¾à°£à°¾": 2088,
    "Ġà°ķà±ĩà°Ĥà°¦à±įà°°": 2089,
    "à°¾à°¨à±įà°¨à°¿": 2090,
    "Ġà°ķà°¾à°Ĥà°Ĺà±įà°°à±Ĩà°¸": 2091,
    "ĸà±įà°¯": 2092,
    "à°¾à°²à°²à±ĭ": 2093,
    "Ġà°®à±ģà°ĸà±įà°¯": 2094,
    "à±įà°¦": 2095,
    "olog": 2096,
    "ren": 2097,
    "Ġser": 2098,
    "les": 2099,
    "ulture": 2100,
    "ĠUn": 2101,
    "Ġmajor": 2102,
    "ph": 2103,
    "urb": 2104,
    "istan": 2105,
    "Ġcast": 2106,
    "Ġunder": 2107,
    "Ġsoc": 2108,
    "ĠAsia": 2109,
    "etwe": 2110,
    "ĠBCE": 2111,
    "urban": 2112,
    "etween": 2113,
    "Ġsc": 2114,
    "ef": 2115,
    "Ġ1965": 2116,
    "à¯ĩà®±": 2117,
    "à®¾à®©à¯į": 2118,
    "à¯Ģà®Ł": 2119,
    "à®¿à®¤à¯įà®¤à®¤à¯ģ": 2120,
    "Ġà®Ł": 2121,
    "à¯įà®ªà¯į": 2122,
    "Ġà®ĩà®®": 2123,
    "Ġà®ļà®¤": 2124,
    "à®²à¯ģà®®à¯į": 2125,
    "Ġà®¨à®¾à®©": 2126,
    "à¯ģà®ķà®¿à®¯": 2127,
    "à®°à¯ĭ": 2128,
    "à®£à¯įà®Łà¯ģà®®à¯į": 2129,
    "Ġà®ķà®¾à®Ł": 2130,
    "Ġà®ķà®µ": 2131,
    "à¯ģà®ķà®³à¯ģà®®à¯į": 2132,
    "à®ķà®®à¯į": 2133,
    "Ġà®ļà®¾à®¤": 2134,
    "à®¿à®¯à®©à¯į": 2135,
    "à®¿à®¯à®ªà¯į": 2136,
    "à®¿à®¨à¯įà®¤à¯ģ": 2137,
    "Ġà®ķà¯Ĭà®£à¯įà®Łà¯ģ": 2138,
    "à®¤à¯įà®¤à®¾à®²à¯į": 2139,
    "Ġà®ķà®Łà®±": 2140,
    "à®¾à®±à¯ģ": 2141,
    "à¯ģà®ķà¯įà®ķà®ªà¯įà®ªà®Łà¯įà®Ł": 2142,
    "Ġà®µà¯Ĩà®©à¯įà®±": 2143,
    "Ġà®¤à®±à¯įà®ª": 2144,
    "à®µà¯Īà®¯à®¾à®ķà¯ģà®®à¯į": 2145,
    "Ġà®®à¯ĩà®±à¯įà®ķà¯ģ": 2146,
    "Ġà®ĩà®°à¯ģà®¨à¯įà®¤à®©": 2147,
    "Ġà®¨à¯Ģà®£à¯įà®Ł": 2148,
    "à¯Īà®ķà¯įà®ķà¯ģ": 2149,
    "Ġà®ħà®£à¯ģ": 2150,
    "à¯ģà®ķà®³à®¾à®©à®µà¯Ī": 2151,
    "Ġà®µà®´à®¿": 2152,
    "Ġà®ªà¯Ĩà®±à¯įà®±à®¤à¯ģ": 2153,
    "Ġà®ħà®±à®¿à®¯": 2154,
    "Ġà®¤à®²à¯Īà®®": 2155,
    "à®¤à¯įà®¤à®¿à®±à¯įà®ķà¯ģ": 2156,
    "Ġà®ļà®®à¯Ĥà®ķ": 2157,
    "Ġà®¤à¯ĭà®©à¯įà®±": 2158,
    "Ġà®®à¯ģà®¤à®©à¯įà®®": 2159,
    "Ġà®µà®¾à®´à¯įà®µ": 2160,
    "Ġà®ªà¯Ĭà®°à¯ģà®Łà¯įà®ķà®³à¯į": 2161,
    "Ġà®ıà®±à¯įà®ªà®Łà¯įà®Ł": 2162,
    "Ġà®¤à¯Ĭà®Łà®Ļà¯įà®ķà®¿à®¯à®¤à¯ģ": 2163,
    "Ġà®®à¯ģà®ķà¯įà®ķà®¿à®¯à®®à®¾à®©": 2164,
    "Ġà®ªà¯Ĩà®°à¯ģà®®à¯į": 2165,
    "Ġà®ķà®¿à®°à®¾à®®": 2166,
    "Ġà®ªà®ŀà¯įà®ļ": 2167,
    "Ġà®ĵà®µà®¿à®¯": 2168,
    "Ġà®ħà®©à¯Īà®¤à¯įà®¤à¯ģ": 2169,
    "Ġà®µà¯ĩà®±à¯ģà®ªà®Łà¯įà®Ł": 2170,
    "Ġà®¨à¯Ģà®Łà®¿à®¤à¯įà®¤": 2171,
    "Ġà®®à®©à®¿à®¤": 2172,
    "Ġà®īà®³à¯įà®³à®Łà®ķà¯įà®ķà®¿à®¯": 2173,
    "Ġà®¨à®¾à®Łà®¾à®³à¯ģà®®à®©à¯įà®±": 2174,
    "Ġà®ķà¯ģà®±à®¿à®ªà¯įà®ªà®¿à®Łà®¤à¯įà®¤à®ķà¯įà®ķ": 2175,
    "Ġà®ªà¯Ĩà®°à¯ģà®®à¯įà®ªà®¾à®©à¯įà®®": 2176,
    "Ġà®ªà¯Įà®¤à¯įà®¤": 2177,
    "à®¿à®²à¯įà®²à®¿à®¯à®©à¯į": 2178,
    "Ġà®ķà®Łà®±à¯įà®ķà®°": 2179,
    "Ġà®®à¯ģà®¤à®©à¯įà®®à¯Īà®¯à®¾à®©": 2180,
    "à®°à®µ": 2181,
    "à¯ģà®¤à®²à¯į": 2182,
    "30": 2183,
    "ory": 2184,
    "Ġà¤ĸ": 2185,
    "à¥ĭà¤ķ": 2186,
    "à¤¸à¥Ģ": 2187,
    "à¤®à¥įà¤": 2188,
    "Ġà¤ħà¤®": 2189,
    "Ġà¤¨à¥įà¤¯": 2190,
    "à¥Ģà¤ª": 2191,
    "à¤¿à¤¯à¥ĩ": 2192,
    "à¥Īà¤¦": 2193,
    "§à¤¾à¤¨": 2194,
    "Ġà¤¦à¤¶": 2195,
    "à¤§à¥įà¤¯": 2196,
    "Ġà¤ķà¤°à¤¨à¥ĩ": 2197,
    "Ġà¤¦à¥ĩà¤¶à¥ĭà¤Ĥ": 2198,
    "Ġà¤°à¤¹à¤¾": 2199,
    "à¤¶à¥įà¤ļ": 2200,
    "Ġà¤ªà¤¾à¤ķ": 2201,
    "à¤¿à¤¸à¥įà¤¤à¤¾à¤¨": 2202,
    "à¤¶à¥įà¤ļà¤¿à¤®": 2203,
    "Ġ2001": 2204,
    "Ġ2022": 2205,
    "ament": 2206,
    "Ġoff": 2207,
    "isation": 2208,
    "ose": 2209,
    "Ġgrow": 2210,
    "uddh": 2211,
    "ĠBuddh": 2212,
    "hed": 2213,
    "lear": 2214,
    "Ġelection": 2215,
    "uclear": 2216,
    "Ġnot": 2217,
    "rough": 2218,
    "Ġurban": 2219,
    "ince": 2220,
    "Ġthis": 2221,
    "Ġtheir": 2222,
    "ĠBrit": 2223,
    "Ġlanguage": 2224,
    "Ġpopulation": 2225,
    "ĠEmpire": 2226,
    "Ġminister": 2227,
    "Ġcaste": 2228,
    "ĠBritish": 2229,
    "mon": 2230,
    "Ġ50": 2231,
    "Ġ21": 2232,
    "à¯ĭà®°": 2233,
    "à®¿à®ķà®³à®¿à®²à¯į": 2234,
    "Ġà®µà®¿à®Ł": 2235,
    "Ġà®®à®¾à®±": 2236,
    "à®²à¯įà®ķà®³": 2237,
    "à®±à¯įà®±à¯ģà®®à®¤": 2238,
    "Ġà®¤à®®à®¿à®´": 2239,
    "Ġà®ıà®±à¯įà®±à¯ģà®®à®¤": 2240,
    "à®¿à®¯à®±": 2241,
    "Ġà®ļà¯Ĭ": 2242,
    "Ġà®®à®¤à¯įà®¤": 2243,
    "à¯įà®ªà®±à¯įà®±": 2244,
    "à®¿à®¯à®¿à®©à¯į": 2245,
    "Ġà®µà®¿à®²": 2246,
    "Ġà®ªà®´": 2247,
    "Ġà®¤à¯Ĭà®²": 2248,
    "à®°à®¾à®²à¯į": 2249,
    "Ġà®ĩà®°à¯ģà®ªà¯įà®ª": 2250,
    "Ġà®µà®¿à®µ": 2251,
    "à®¿à®µà¯ģ": 2252,
    "Ġà®ħà®µà¯Ī": 2253,
    "Ġà®®à¯ģà®ļ": 2254,
    "Ġà®¨à®Łà®©": 2255,
    "à®Łà®ķà¯į": 2256,
    "Ġà®ĩà®¤à¯ģà®µ": 2257,
    "à®°à¯įà®ķà®³à®¿à®©à¯į": 2258,
    "Ġà®µà®¾à®ķà¯įà®ķ": 2259,
    "Ġà®µà®¿à®Łà¯įà®Ł": 2260,
    "Ġà®Ĳà®ķà¯įà®ķà®¿à®¯": 2261,
    "Ġà®µà®Łà®ķà¯įà®ķà¯ģ": 2262,
    "Ġà®īà®¯à®°à¯į": 2263,
    "Ġà®ķà¯ģà®±à®¿à®ªà¯įà®ªà®¾à®ķ": 2264,
    "à¯įà®ķà®ªà¯įà®ªà®Łà¯ģà®®à¯į": 2265,
    "Ġà®ħà®°à®ļà®¾à®Ļà¯įà®ķ": 2266,
    "Ġà®¤à¯Ĩà®©à¯įà®©": 2267,
    "à®¿à®¯à®¾à®µà®¿à®©à¯į": 2268,
    "à¯Ĥà®°à¯įà®µ": 2269,
    "à¯ģà®ķà¯įà®ķà®²": 2270,
    "Ġà®īà®¯à®¿à®°à®¿à®©": 2271,
    "à¯Ĩà®Łà¯ģà®ªà¯įà®ª": 2272,
    "Ġà®ªà®¿à®°à®¤à®®": 2273,
    "Ġà®ķà®°à¯ģà®¤": 2274,
    "Ġà®ķà®¾à®Ļà¯įà®ķà®¿à®°à®ļà¯ģ": 2275,
    "Ġà®®à®¤à®¿à®ªà¯įà®ª": 2276,
    "Ġà®ħà®°à®ļà®¿à®¯à®²": 2277,
    "Ġà®µà¯ĩà®³à®¾à®£à¯įà®®": 2278,
    "Ġà®¨à®¾à®©à¯įà®ķ": 2279,
    "Ġà®®à¯ģà®ļà¯ģà®²": 2280,
    "Ġà®ĩà®¤à¯ģà®µà®¾à®ķà¯ģà®®à¯į": 2281,
    "Ġà®¤à¯Ĩà®©à¯įà®©à®¿à®¨à¯įà®¤": 2282,
    "Ġà®ħà®ķà®": 2283,
    "à®¾à®µà®¿à®©à¯į": 2284,
    "à®¿à®¯à¯Ī": 2285,
    "ite": 2286,
    ");": 2287,
    "à¥įà¤¹": 2288,
    "µà¤¿à¤": 2289,
    "à¤¾à¤°à¤¾": 2290,
    "Ġà¤ħà¤²": 2291,
    "Ġà¤¸à¤¹": 2292,
    "Ġà¤ľà¥Ģ": 2293,
    "Ġà¤µà¤¿à¤ķ": 2294,
    "à¤¦à¥įà¤¯": 2295,
    "¡à¤¼": 2296,
    "Ġà¤²à¤Ĺ": 2297,
    "Ġà¤ıà¤¶": 2298,
    "Ġà¤µà¤¿à¤¦": 2299,
    "Ġà¤¯à¤¾": 2300,
    "Ġà¤ľà¤¿à¤¨": 2301,
    "à¤¾à¤¯à¤¾": 2302,
    "Ġà¤¹à¥ģà¤ı": 2303,
    "Ġà¤¹à¥ĭà¤¤à¤¾": 2304,
    "Ġà¤ĩà¤¸à¤ķà¥ĩ": 2305,
    "Ġà¤ķà¤Ī": 2306,
    "à¤¤à¤Ĥà¤¤à¥įà¤°": 2307,
    "Ġà¤ķà¤¾à¤°à¤£": 2308,
    "Ġà¤ħà¤Ĥà¤Ĺà¥įà¤°à¥ĩ": 2309,
    "à¤¾à¤ļà¥Ģà¤¨": 2310,
    "Ġà¤¨à¤¿à¤°à¥įà¤®": 2311,
    "Ġà¤¸à¤Ĥà¤¸à¥įà¤ķà¥ĥà¤¤": 2312,
    "Ġà¤Īà¤¸": 2313,
    "Ġà¤ħà¤¨à¥ģà¤¸à¤¾à¤°": 2314,
    "Ġà¤¨à¤¹à¥Ģà¤Ĥ": 2315,
    "Ġà¤ļà¥ģà¤¨à¤¾à¤µ": 2316,
    "Ġà¤®à¤§à¥įà¤¯": 2317,
    "Ġà¤ªà¤¾à¤ķà¤¿à¤¸à¥įà¤¤à¤¾à¤¨": 2318,
    "Ġà¤ħà¤Ĥà¤Ĺà¥įà¤°à¥ĩà¤ľ": 2319,
    "ublic": 2320,
    "à°ķà°¾à°²": 2321,
    "à°°à±įà°Ł": 2322,
    "à°Łà±įà°²": 2323,
    "à°Ĥà°Ĺà±įà°²": 2324,
    "à°¾à°²à±ĭ": 2325,
    "Ġà°¸à°¿": 2326,
    "à°Łà°¿à°ķ": 2327,
    "Ġà°¨à°¡": 2328,
    "Ġà°Ĺà°²": 2329,
    "à±įà°¯à°§à°¿à°ķ": 2330,
    "à°¿à°¸à±įà°¤à°¾à°°à±ģ": 2331,
    "Ġà°ļà°¿à°¨à±įà°¨": 2332,
    "à°ķà±įà°°à°®": 2333,
    "Ġà°ķà°¾à°²à°Ĥà°²à±ĭ": 2334,
    "Ġà°Ĩà°°à±įà°§": 2335,
    "ķà±ĥà°¤": 2336,
    "à°Ńà°¾à°°à°¤à°¦à±ĩà°¶à°Ĥ": 2337,
    "Ġà°ľà°¨à°¾à°Ńà°¾": 2338,
    "Ġà°ªà±įà°°à°¾à°ļ": 2339,
    "Ġà°°à°¾à°ľà°ķà±Ģà°¯": 2340,
    "Ġà°ªà±įà°°à°¸à±įà°¤à±ģà°¤": 2341,
    "à°¾à°¬à±įà°¦": 2342,
    "Ġà°ħà°¤à±įà°¯à°§à°¿à°ķ": 2343,
    "Ġà°Ĩà°°à±įà°§à°¿à°ķ": 2344,
    "à°¥": 2345,
    "à°¾à°¡": 2346,
    "à°¿à°ľ": 2347,
    "à°Ĥà°ķ": 2348,
    "à°°à°¿": 2349,
    "à°°à±ĭ": 2350,
    "Ġà°ķà°¾à°°": 2351,
    "à°Łà±ģ": 2352,
    "Ġà°¸à°¿à°¨": 2353,
    "à°°à±įà°²": 2354,
    "Ġà°®à°¾à°¤": 2355,
    "à°Ĥà°Ĺà°¾à°²": 2356,
    "à°²à°²à±ĭ": 2357,
    "Ġà°®à°¹": 2358,
    "Ġà°Ńà°¾à°Ĺ": 2359,
    "à°¤à±įà°¤à°°": 2360,
    "à°¿à°²à±įà°²à±Ģ": 2361,
    "à°¡à±įà°¡": 2362,
    "Ġà°¶à°¾à°¸à±įà°¤": 2363,
    "à°¿à°¹à°¦à±įà°¦": 2364,
    "Ġà°¸à°Ĥà°Ĺà±Ģà°¤": 2365,
    "Ġà°¸à°¿à°¨à°¿à°®": 2366,
    "Ġà°īà°¤à±įà°¤à°°": 2367,
    "Ġà°¸à°°à°¿à°¹à°¦à±įà°¦": 2368,
    "à°Ĥà°¡à±ģ": 2369,
    "à±ĭà°°": 2370,
    "ountry": 2371,
    "ĠCE": 2372,
    "lo": 2373,
    "Ġter": 2374,
    "out": 2375,
    "ĠCon": 2376,
    "anges": 2377,
    "ially": 2378,
    "Ġear": 2379,
    "ĠAn": 2380,
    "Ġfol": 2381,
    "ell": 2382,
    "pt": 2383,
    "ree": 2384,
    "eng": 2385,
    "Ġland": 2386,
    "Ġrec": 2387,
    "rib": 2388,
    "ations": 2389,
    "ically": 2390,
    "lowing": 2391,
    "Ġsupp": 2392,
    "contin": 2393,
    "Ġnorth": 2394,
    "continent": 2395,
    "Ġnort": 2396,
    "Ġsouth": 2397,
    "Ġdance": 2398,
    "Ġmany": 2399,
    "Ġbegan": 2400,
    "akistan": 2401,
    "Ġbetween": 2402,
    "ari": 2403,
    "Â°": 2404,
    "Ġ1951": 2405,
    "à¥¬": 2406,
    "Ġà¤Ĭ": 2407,
    "à¤¾à¤§": 2408,
    "à¥įà¤ķ": 2409,
    "Ġà¤¹à¥Ģ": 2410,
    "Ġà¤ľà¤²": 2411,
    "à¤°à¥įà¤£": 2412,
    "à¤°à¥įà¤¤": 2413,
    "à¤°à¥įà¤ľ": 2414,
    "à¤¦à¥Ģ": 2415,
    "à¤®à¤¾à¤¨": 2416,
    "Ġà¤¹à¤¾à¤²": 2417,
    "Ġà¤ıà¤µ": 2418,
    "à¤¿à¤¯à¤¾à¤ģ": 2419,
    "à¤Ĥà¤¤à¥įà¤°à¥Ģ": 2420,
    "Ġà¤¸à¤Ĥà¤¸": 2421,
    "Ġà¤¸à¤¾à¤®à¥įà¤°": 2422,
    "à¥ģà¤ķà¥įà¤¤": 2423,
    "à¤°à¤¾à¤ľà¥įà¤¯": 2424,
    "Ġà¤Ńà¤¾à¤·à¤¾à¤ĵà¤Ĥ": 2425,
    "Ġà¤¸à¥Īà¤¨": 2426,
    "Ġà¤¦à¥ĩà¤ĸ": 2427,
    "Ġà¤ķà¤°à¥ĭà¤¡à¤¼": 2428,
    "Ġà¤Ńà¥Ĥà¤®": 2429,
    "Ġà¤²à¥ĭà¤ķ": 2430,
    "Ġà¤¨à¥įà¤¯à¤¾à¤¯": 2431,
    "Ġà¤¦à¤¶à¤ķ": 2432,
    "µà¤¿à¤§à¤¾à¤¨": 2433,
    "Ġà¤ªà¥įà¤°à¤¾à¤ļà¥Ģà¤¨": 2434,
    "Ġà¤¸à¤¾à¤®à¥įà¤°à¤¾à¤ľà¥įà¤¯": 2435,
    "velop": 2436,
    "India": 2437,
    "%),": 2438,
    "à¯Ĩà®¯": 2439,
    "à¯ĩà®¯": 2440,
    "à¯Ģà®ķ": 2441,
    "Ġà®ĩà®©": 2442,
    "à®Łà¯įà®Łà¯ģ": 2443,
    "Ġà®ªà®£à¯įà®Ł": 2444,
    "Ġà®¤à®ļ": 2445,
    "à®¿à®©à®°à¯į": 2446,
    "à®ķà®ªà¯į": 2447,
    "à®¾à®Łà¯įà®Łà®¿à®²à¯į": 2448,
    "à®¿à®ķà¯įà®ķà¯ģà®®à¯į": 2449,
    "Ġà®¤à®¾à®ķà¯įà®ķ": 2450,
    "Ġà®ªà®¾à®ķà¯įà®ķ": 2451,
    "Ġà®ĩà®°à®¾à®ļ": 2452,
    "à®¾à®³à®°à¯įà®ķà®³à¯į": 2453,
    "à®³à®µà¯ģ": 2454,
    "à®¿à®¯à®¿à®¯à®²à¯į": 2455,
    "Ġà®ļà¯Ĩà®¯à¯įà®¤": 2456,
    "Ġà®īà®°à¯ģà®µà®¾à®ķà¯įà®ķà®ªà¯įà®ªà®Łà¯įà®Ł": 2457,
    "Ġà®ªà¯Ĭà®°à¯ģà®Łà¯įà®ķà®³": 2458,
    "Ġà®Ĩà®Łà¯įà®ļà®¿à®¯": 2459,
    "Ġà®ªà®¿à®°à®¾à®¨à¯įà®¤": 2460,
    "Ġà®µà®°à®²à®¾à®±à¯įà®±": 2461,
    "Ġà®ªà®¾à®ķà¯įà®ķà®¿à®¤à¯įà®¤à®¾à®©": 2462,
    "%-": 2463,
    "Ġà®®à¯Īà®¯": 2464,
    "Ġà®µà®²": 2465,
    "Ġà®ªà¯Ĩà®±": 2466,
    "à®¨à¯įà®¤à¯ģ": 2467,
    "à®Ĩà®ķ": 2468,
    "à®ªà®°à¯į": 2469,
    "à¯Īà®ķà®³à®¿à®©à¯į": 2470,
    "Ġà®Ĩà®£à¯įà®Łà®¿à®©à¯į": 2471,
    "Ġà®¨à®Łà¯ģ": 2472,
    "Ġà®ĩà®¨à¯įà®¤à®¿à®¯à®ķà¯į": 2473,
    "Ġà®ªà®ķà¯ģà®¤à®¿": 2474,
    "Ġà®¤à¯Ĩà®©à¯į": 2475,
    "Ġà®¤à®©à®¿": 2476,
    "Ġà®ļà¯Ģà®©": 2477,
    "à®Łà¯Īà®¨à¯įà®¤": 2478,
    "Ġà®®à¯ģà®©à¯įà®©à®°à¯į": 2479,
    "Ġà®İà®ŀ": 2480,
    "à¯ģà®µà®¤à®±à¯įà®ķà¯ģ": 2481,
    "à®°à¯įà®¤à¯įà®¤": 2482,
    "à¯įà®ªà¯įà®ªà¯ģà®±": 2483,
    "Ġà®ĩà®²à®Łà¯įà®ļ": 2484,
    "Ġà®ĩà®°à®£à¯įà®Łà®¾à®µà®¤à¯ģ": 2485,
    "Ġà®®à¯ĩà®±à¯įà®ªà®Łà¯įà®Ł": 2486,
    "Ġà®µà®£à®¿à®ķ": 2487,
    "Ġà®ļà®¾à®°à¯įà®¨à¯įà®¤": 2488,
    "Ġà®ħà®¤à®¿à®ķà®¾à®°": 2489,
    "Ġà®¨à®¿à®°à¯įà®µ": 2490,
    "à¯ģà®ķà¯įà®ķà¯ģà®³à¯į": 2491,
    "Ġà®ķà¯ģà®±à¯Īà®µà®¾à®©": 2492,
    "Ġà®®à®¤à¯įà®¤à®¿à®¯à®¿à®²à¯į": 2493,
    "à¯ģà®ķà¯įà®ķà®²à®¾à®®à¯į": 2494,
    "Ġà®ķà®£à®ķà¯įà®ķà¯Ĩà®Łà¯ģà®ªà¯įà®ª": 2495,
    "Ġà®ħà®°à®ļà®¿à®¯à®²à®®à¯Īà®ªà¯įà®ª": 2496,
    "Ġà®¤à®ļà®¾à®ªà¯įà®¤": 2497,
    "Ġà®İà®ŀà¯įà®ļà®¿à®¯": 2498,
    "à®µà¯ģ": 2499,
    "à®¯à®®": 2500,
    "à¯įà®ķà®Ł": 2501,
    "à¯Ĥà®°à¯į": 2502,
    "à®°à®ªà¯įà®ª": 2503,
    "à®¿à®©à®°": 2504,
    "ack": 2505,
    "ni": 2506,
    "lu": 2507,
    "Ġj": 2508,
    "gen": 2509,
    "als": 2510,
    "ited": 2511,
    "Ġeast": 2512,
    "Ġtim": 2513,
    "Ġfore": 2514,
    "Ġapp": 2515,
    "versity": 2516,
    "dic": 2517,
    "ition": 2518,
    "ade": 2519,
    "Ġimp": 2520,
    "ond": 2521,
    "atic": 2522,
    "ilit": 2523,
    "Ġra": 2524,
    "Ġeconomy": 2525,
    "Ġlater": 2526,
    "Ġnorther": 2527,
    "ĠPakistan": 2528,
    "Ġnorthern": 2529,
    "Ġen": 2530,
    "vi": 2531,
    "sh": 2532,
    "Ġ14": 2533,
    "50": 2534,
    "Ġ1971": 2535,
    "Ġ13": 2536,
    "Ġ55": 2537,
    "Ġà¤ĵ": 2538,
    "Ġà¤¸à¤ķ": 2539,
    "ĸà¥įà¤¯": 2540,
    "à¤Ĥà¤ª": 2541,
    "à¤°à¥įà¤·": 2542,
    "à¥ģà¤ª": 2543,
    "à¥Ĥà¤¨": 2544,
    "à¤ķà¤¾à¤²": 2545,
    "Ġà¤Ĩà¤§": 2546,
    "à¤°à¤¬": 2547,
    "Ġà¤µà¤¿à¤¸": 2548,
    "Ġà¤Ĺà¤£": 2549,
    "Ġà¤¨à¥ĩà¤¤": 2550,
    "à¤¶à¤¾à¤¸": 2551,
    "à¤ķà¥įà¤·à¤¾": 2552,
    "à¥ĭà¤·": 2553,
    "à¥ĥà¤·": 2554,
    "à¤µà¤¸à¥įà¤": 2555,
    "Ġà¤ªà¥įà¤°à¤§à¤¾à¤¨": 2556,
    "Ġà¤ªà¥įà¤°à¤¦à¥ĩà¤¶": 2557,
    "Ġà¤ªà¤¾à¤°à¥įà¤Ł": 2558,
    "Ġà¤¸à¤Ĥà¤¬à¤Ĥà¤§": 2559,
    "Ġà¤¬à¥Ģà¤ļ": 2560,
    "Ġà¤®à¥Īà¤¦": 2561,
    "Ġà¤ªà¤¶à¥įà¤ļà¤¿à¤®": 2562,
    "Ġà¤¦à¥įà¤µà¤¾à¤°à¤¾": 2563,
    "Ġà¤ıà¤¶à¤¿à¤¯à¤¾": 2564,
    "Ġà¤¸à¥įà¤µà¤¤à¤Ĥà¤¤à¥įà¤°": 2565,
    "Ġà¤ļà¥ģà¤¨à¤¾à¤µà¥ĭà¤Ĥ": 2566,
    "Ġà¤¸à¤Ĥà¤µà¤¿à¤§à¤¾à¤¨": 2567,
    "ĸà¥įà¤¯à¤¾": 2568,
    "à¤µà¤¸à¥įà¤¥à¤¾": 2569,
    "Ġà¤®à¥Īà¤¦à¤¾à¤¨": 2570,
    "tern": 2571,
    "Ġ185": 2572,
    "à°¿à°¸": 2573,
    "à°¾à°³": 2574,
    "à±ģà°¨": 2575,
    "à±įà°¯à°¾à°¯": 2576,
    "à±ĩà°¨": 2577,
    "Ġà°ªà°¤": 2578,
    "Ġà°µà°¾à°°": 2579,
    "à±Ģà°ª": 2580,
    "à°ķà°¾à°²à±ģ": 2581,
    "à°¾à°¤à±įà°°": 2582,
    "Ġà°°à°¹": 2583,
    "Ġà°Ĩà°§": 2584,
    "à°¾à°°à±ģà°²à±ģ": 2585,
    "Ġà°®à±Ĥà°¡": 2586,
    "Ġà°ªà±įà°°à°®à±ģ": 2587,
    "à°Ĥà°¤à±ĭ": 2588,
    "à±įâĢĮà°¸": 2589,
    "Ġà°°à°¾à°·à±įà°Łà±įà°°à°ª": 2590,
    "Ġà°°à°¾à°·à±įà°Łà±įà°°à°¾à°²à±ģ": 2591,
    "Ġà°ªà±įà°°à°¾à°Ĥà°¤à°¾à°²à±ģ": 2592,
    "Ġà°¦à±ĩà°¶à°Ĥà°²à±ĭà°¨à°¿": 2593,
    "Ġà°®à±Ĭà°¦à°²": 2594,
    "Ġà°ĩà°Ĥà°¡à°¿à°¯à°¾": 2595,
    "Ġà°ªà°Łà±įà°Łà°£": 2596,
    "Ġà°µà°¿à°µà°¿à°§": 2597,
    "Ġà°¸à°¿à°Ĥà°§": 2598,
    "à°ªà±įà°ªà°Łà°¿à°ķ": 2599,
    "Ġà°¨à°¡à°¿à°ª": 2600,
    "Ġà°°à°¹à°¦": 2601,
    "Ġà°ªà±įà°°à°®à±ģà°ĸ": 2602,
    "à°«": 2603,
    "à°¿à°¦": 2604,
    "µà°¤": 2605,
    "Ġà°µà°²": 2606,
    "Ġà°®à°¨": 2607,
    "à°°à°¿à°ķ": 2608,
    "Ġà°ªà±Ĥ": 2609,
    "à±Ĩà°Ł": 2610,
    "Ġà°Ńà°¾à°°à°¤à±į": 2611,
    "à°Ĺà°²à±ģ": 2612,
    "à°¨à±įà°¨à°¿": 2613,
    "à°²à±įà°µ": 2614,
    "à°²à°¨à±ģ": 2615,
    "Ġà°¬à±Ĩ": 2616,
    "à±Ĩà°¬": 2617,
    "à°¾à°¬à°¾à°¦": 2618,
    "à°¤à°Ĥà°¤à±įà°°": 2619,
    "à±ģà°ķà±ĭà°µ": 2620,
    "Ġà°¬à°¹à±ģ": 2621,
    "Ġà°¬à±įà°°à°¿à°Ł": 2622,
    "Ġà°¸à±Įà°ķ": 2623,
    "¢à°¿à°²à±įà°²à±Ģ": 2624,
    "Ġà°¸à±Įà°ķà°°à±įà°¯": 2625,
    "à°¡à±ģ": 2626,
    "à°¿à°Ĥà°ļà°¿": 2627,
    "..": 2628,
    "Ġsec": 2629,
    "ular": 2630,
    "Ġext": 2631,
    "cy": 2632,
    "aw": 2633,
    "Ġthere": 2634,
    "ered": 2635,
    "iter": 2636,
    "gin": 2637,
    "Ġab": 2638,
    "ĠIt": 2639,
    "omin": 2640,
    "Ġnon": 2641,
    "ace": 2642,
    "Ġhum": 2643,
    "Ġemer": 2644,
    "raph": 2645,
    "Ġinflu": 2646,
    "ard": 2647,
    "ice": 2648,
    "ĠBy": 2649,
    "Ġrate": 2650,
    "ugh": 2651,
    "Ġspec": 2652,
    "Ġeconomic": 2653,
    "Ġwestern": 2654,
    "Ġpeop": 2655,
    "Ġclassical": 2656,
    "Ġincreased": 2657,
    "Ġsince": 2658,
    "Ġsubcontinent": 2659,
    "ting": 2660,
    "ci": 2661,
    "ĠCom": 2662,
    "Ġ40": 2663,
    "01": 2664,
    "26": 2665,
    "Ġ1962": 2666,
    "à®ī": 2667,
    "Ġà®®à®±": 2668,
    "à®³à¯įà®³": 2669,
    "à¯ģà®Łà®©": 2670,
    "à®µà®°à¯įà®ķà®³": 2671,
    "à¯įà®¤à®¾à®©": 2672,
    "à®¤à¯įà®¤à®¿à®¯": 2673,
    "Ġà®ļà¯ĩ": 2674,
    "à¯Ģà®ª": 2675,
    "Ġà®ķà®Łà¯įà®ļ": 2676,
    "®à®¾à®ķ": 2677,
    "à¯įà®¤à®¿à®°": 2678,
    "à®¾à®µà®¿à®²à¯į": 2679,
    "Ġà®ªà®¾": 2680,
    "à¯Īà®©": 2681,
    "Ġà®µà®±": 2682,
    "Ġà®ħà®ķ": 2683,
    "à®²à®®à¯į": 2684,
    "à®¾à®µà®¿à®¯": 2685,
    "Ġà®¤à®Ļà¯įà®ķà®³": 2686,
    "Ġà®ļà¯Ĥ": 2687,
    "à¯ģà®ķà¯įà®ķà®¾à®©": 2688,
    "à®²à¯įà®ķà®³à¯į": 2689,
    "à®£à¯įà®ķà®³à¯į": 2690,
    "Ġà®ĩà®¨à¯įà®¤à®¿à®¯à®¾à®µà¯Ī": 2691,
    "à®µà¯įà®µ": 2692,
    "à®Ļà¯įà®ķà®¿à®²": 2693,
    "Ġà®ļà¯ģà®®": 2694,
    "à®ªà¯įà®ªà®Łà¯įà®Łà¯ģà®³à¯įà®³à®¤à¯ģ": 2695,
    "Ġà®Ĩà®£à¯įà®Łà®¿à®²à¯į": 2696,
    "Ġà®ĩà®¤à®±à¯įà®ķ": 2697,
    "Ġà®®à¯ģà®´": 2698,
    "Ġà®µà®¾à®¯": 2699,
    "Ġà®µà¯Ĩà®ªà¯įà®ª": 2700,
    "Ġà®ķà®²à¯Ī": 2701,
    "Ġà®Ĭà®Ł": 2702,
    "à®¿à®ļà®¿": 2703,
    "Ġà®ªà¯ģà®²": 2704,
    "à®¤à¯įà®¤à¯Īà®¯à¯ģà®®à¯į": 2705,
    "Ġà®¤à¯Ĩà®±à¯įà®ķà¯ģ": 2706,
    "Ġà®ħà®®à¯Īà®ªà¯įà®ªà¯ģ": 2707,
    "Ġà®ħà®®à¯Īà®ªà¯įà®ªà®¾à®©à®¤à¯ģ": 2708,
    "à®²à®¿à®°à¯ģà®¨à¯įà®¤à¯ģ": 2709,
    "Ġà®ħà®¨": 2710,
    "à®©à®¨": 2711,
    "Ġà®¤à¯Ĭà®Łà®°à¯įà®ļ": 2712,
    "à®ķà¯įà®ķà®Ļ": 2713,
    "Ġà®¤à®¿à®²à¯įà®²": 2714,
    "à¯įà®ķà®ªà¯įà®ªà®Łà¯ģà®ķà®¿à®±à®¤à¯ģ": 2715,
    "à®Ļà¯įà®ķà®³à®¾à®©à®µà¯Ī": 2716,
    "Ġà®µà®ķà¯ģà®¤à¯įà®¤": 2717,
    "Ġà®µà®¿à®³à¯Īà®µ": 2718,
    "Ġà®ķà¯Ĭà®£à¯įà®Łà¯ģà®³à¯įà®³à®©": 2719,
    "Ġà®ķà®¿à®´à®ķà¯įà®ķà¯ģ": 2720,
    "Ġà®ļà®¿à®±à¯įà®ª": 2721,
    "Ġà®¨à®¾à®Łà¯įà®Łà®¿à®©à¯į": 2722,
    "Ġà®ªà¯ĭà®Łà¯įà®Łà®¿à®ķà®³à¯į": 2723,
    "Ġà®¤à¯Ĩà®±à¯įà®ķà®¾à®ļ": 2724,
    "Ġà®ļà®°à®¾à®ļ": 2725,
    "Ġà®ħà®°à®ļà®¾à®Ļ": 2726,
    "Ġà®µà¯ĩà®ķà®®à®¾à®ķ": 2727,
    "Ġà®ħà®Łà®¿à®ªà¯įà®ªà®Łà¯Īà®¯à®¾à®ķà®ķà¯į": 2728,
    "à®£à¯įà®ķà®³à¯ģà®ķà¯įà®ķà¯ģ": 2729,
    "Ġà®ªà®¿à®°à®ªà®²": 2730,
    "Ġà®īà®³à¯įà®³à®¿à®Łà¯įà®Łà®µà¯Ī": 2731,
    "Ġà®Ĳà®°à¯ĭ": 2732,
    "Ġà®®à¯Ģà®£à¯įà®Łà¯ģà®®à¯į": 2733,
    "Ġà®¤à®±à¯įà®ªà¯ĭà®¤à¯ģ": 2734,
    "Ġà®µà®¾à®ķà¯įà®ķà®¿à®²à¯į": 2735,
    "Ġà®¨à®¾à®©à¯įà®ķà¯ģ": 2736,
    "Ġà®¨à®ªà®°à¯į": 2737,
    "Ġà®¨à®ķà®°à¯įà®ªà¯įà®ªà¯ģà®±": 2738,
    "Ġà®ĩà®®à®¯à®®": 2739,
    "Ġà®¤à®Ļà¯įà®ķà®³à®¤à¯ģ": 2740,
    "à®©à®¨à®¾à®¯": 2741,
    "à¯Īà®ªà¯įà®ªà¯ģ": 2742,
    "£à¯įà®Ł": 2743,
    "Ġ2013": 2744,
    "à¥©": 2745,
    "à¥įà¤¸": 2746,
    "Ġà¤ķà¥įà¤°": 2747,
    "Ġà¤ħà¤¸": 2748,
    "à¤Ĥà¤¬": 2749,
    "à¤¹à¤°": 2750,
    "Ġà¤¬à¥įà¤°": 2751,
    "à¥įà¤¯à¥ĭà¤Ĥ": 2752,
    "à¤¤à¤¿à¤ķ": 2753,
    "Ġà¤ħà¤µ": 2754,
    "à¤§à¥Ģ": 2755,
    "Ġà¤ĩà¤¨": 2756,
    "Ġà¤µà¤¿à¤Ń": 2757,
    "Ġà¤ħà¤Ń": 2758,
    "à¤ľà¤¾à¤¤": 2759,
    "à¤ļà¥Ģ": 2760,
    "à¥§à¥": 2761,
    "à¤Ĥà¤Ĺà¤¾": 2762,
    "Ġà¤¸à¥įà¤¥à¤¿à¤¤": 2763,
    "à¤¯à¥ĭà¤Ĺ": 2764,
    "à¤ļà¥įà¤ļ": 2765,
    "Ġà¤®à¥ģà¤ĸ": 2766,
    "Ġà¤ķà¤¾à¤°à¥įà¤¯": 2767,
    "Ġà¤¶à¥ģà¤°": 2768,
    "à¥īà¤Ĥà¤Ĺà¥įà¤°à¥ĩ": 2769,
    "Ġà¤Ĩà¤°à¥įà¤¥": 2770,
    "à¥ģà¤¦à¥įà¤§": 2771,
    "Ġà¤°à¤¾à¤·à¥įà¤Łà¥įà¤°à¥Ģà¤¯": 2772,
    "à¤¦à¥įà¤¯à¥ĭà¤Ĺ": 2773,
    "Ġà¤¨à¤¿à¤°à¥įà¤®à¤¾à¤£": 2774,
    "à¤®à¤Ĥà¤¤à¥įà¤°à¥Ģ": 2775,
    "Ġà¤¸à¥Īà¤¨à¥įà¤¯": 2776,
    "Ġà¤µà¤¿à¤¸à¥įà¤¤": 2777,
    "Ġà¤¨à¥ĩà¤¤à¥ĥà¤¤": 2778,
    "à¥īà¤Ĥà¤Ĺà¥įà¤°à¥ĩà¤¸": 2779,
    "Ġà¤Ĩà¤°à¥įà¤¥à¤¿à¤ķ": 2780,
    "Ġ1980": 2781,
    "23": 2782,
    "ĠWorld": 2783,
    "ta": 2784,
    "orm": 2785,
    "Ġwar": 2786,
    "ech": 2787,
    "ĠAl": 2788,
    "rol": 2789,
    "amil": 2790,
    "lim": 2791,
    "Ġparli": 2792,
    "Ġdevelop": 2793,
    "Ġliter": 2794,
    "cient": 2795,
    "Ġparliament": 2796,
    "sl": 2797,
    "athe": 2798,
    "ork": 2799,
    "esp": 2800,
    "ise": 2801,
    "vent": 2802,
    "ĠTh": 2803,
    "ever": 2804,
    "Ġhist": 2805,
    "Ġmus": 2806,
    "own": 2807,
    "Ġmid": 2808,
    "ĠMo": 2809,
    "ains": 2810,
    "able": 2811,
    "ative": 2812,
    "Ġcour": 2813,
    "Ġocc": 2814,
    "hm": 2815,
    "ced": 2816,
    "ised": 2817,
    "Ġthan": 2818,
    "ately": 2819,
    "Ġstate": 2820,
    "ected": 2821,
    "ĠAfter": 2822,
    "Ġlif": 2823,
    "ĠChin": 2824,
    "Ġlargest": 2825,
    "Ġperi": 2826,
    "Ġgeneral": 2827,
    "Ġnew": 2828,
    "Ġpower": 2829,
    "Ġnumber": 2830,
    "Ġamong": 2831,
    "Ġnuclear": 2832,
    "Ġmilit": 2833,
    "ĠMugh": 2834,
    "Ġspecies": 2835,
    "Ġpeople": 2836,
    "Ġlife": 2837,
    "Ġperiod": 2838,
    "ex": 2839,
    "ĠPl": 2840,
    "Ġ2014": 2841,
    "201": 2842,
    "à¥®": 2843,
    "Ġà¤Ł": 2844,
    "à¤¾à¤ĩ": 2845,
    "à¤¾à¤Ł": 2846,
    "à¤¿à¤Ł": 2847,
    "Ġà¤®à¤¨": 2848,
    "à¥Ģà¤¸": 2849,
    "Ġà¤®à¥ģ": 2850,
    "Ġà¤ķà¤®": 2851,
    "à¥Ģà¤²": 2852,
    "à¤¸à¤Ĥà¤": 2853,
    "à¤Ĥà¤ľ": 2854,
    "Ġà¤¨à¤¿à¤": 2855,
    "à¤ªà¥įà¤°": 2856,
    "à¤¨à¥ĭà¤Ĥ": 2857,
    "Ġà¤¸à¤¦": 2858,
    "à¤ªà¥Ĥ": 2859,
    "Ġà¤ªà¥įà¤°à¤¤": 2860,
    "Ġà¤¶à¤¤": 2861,
    "Ġà¤¸à¤Ĥà¤Ĺ": 2862,
    "Ġà¤ªà¤¡à¤¼": 2863,
    "Ġà¤¸à¥ĩà¤¨à¤¾": 2864,
    "Ġà¤ªà¤°à¥įà¤µ": 2865,
    "Ġà¤ľà¤¾à¤¤à¥Ģ": 2866,
    "à¥ĩà¤·": 2867,
    "Ġà¤¸à¥įà¤¥à¤¾à¤¨": 2868,
    "Ġà¤ªà¤°à¤®": 2869,
    "Ġà¤¬à¤¹à¥ģà¤¤": 2870,
    "Ġà¤ªà¥įà¤°à¤¾à¤ªà¥įà¤¤": 2871,
    "Ġà¤Ĺà¤£à¤°à¤¾à¤ľà¥įà¤¯": 2872,
    "Ġà¤ľà¤¨à¤ľà¤¾à¤¤": 2873,
    "Ġà¤®à¥ģà¤ĸà¥įà¤¯": 2874,
    "Ġà¤ķà¥īà¤Ĥà¤Ĺà¥įà¤°à¥ĩà¤¸": 2875,
    "Ġà¤ªà¤°à¤®à¤¾à¤£": 2876,
    "Ġà¤ªà¤°à¤®à¤¾à¤£à¥ģ": 2877,
    "à®ķà¯ģà®¤": 2878,
    "Ġà®¤à®¾à®ķ": 2879,
    "à®°à®¾à®ķ": 2880,
    "à®°à®¿": 2881,
    "Ġà®®à®£": 2882,
    "à®°à®¿à®©à¯į": 2883,
    "à®¾à®ķà®µ": 2884,
    "à®¿à®¯à®¾à®³": 2885,
    "à¯Īà®¤à¯įà®¤à®¤à¯ģ": 2886,
    "Ġà®¨à®¾à®Łà¯ģà®ķà®³": 2887,
    "à®Łà®¿à®¯à®¾à®ķ": 2888,
    "à¯įà®°": 2889,
    "Ġà®®à¯Ĩ": 2890,
    "à®µà®¿à®°": 2891,
    "Ġà®Ĩà®±": 2892,
    "Ġà®ªà®Łà¯įà®Ł": 2893,
    "à®ªà¯įà®ªà¯Ī": 2894,
    "Ġà®ªà®Ļà¯įà®ķà®³": 2895,
    "à®Ļà¯įà®ķà®³à®¾à®ķ": 2896,
    "Ġà®¤à®¿à®±": 2897,
    "à®ªà¯įà®ªà¯ģà®±": 2898,
    "Ġà®ªà¯ģà®±": 2899,
    "Ġà®ħà®¨à¯įà®¤": 2900,
    "Ġà®ªà¯Ĭà®¤à¯ģ": 2901,
    "à¯ģà®¤à¯įà®¤à®¿à®°": 2902,
    "à¯Ĭà®°à¯ģ": 2903,
    "à®Ļà¯įà®ķà¯ģà®®à¯į": 2904,
    "à¯ģà®®à®£": 2905,
    "Ġà®ļà®®à®µ": 2906,
    "à¯Īà®ķà®³à¯Ī": 2907,
    "Ġà®®à¯ģà®¨à¯įà®¤": 2908,
    "Ġà®¨à®Łà¯ģà®µ": 2909,
    "Ġà®µà¯ĩà®²": 2910,
    "Ġà®µà®°à¯ģà®®à¯į": 2911,
    "Ġà®ķà®¾à®²à®¤à¯įà®¤à®¿à®©à¯į": 2912,
    "à¯Ĩà®Łà¯ģà®¤à¯įà®¤": 2913,
    "Ġà®ħà®Łà¯Īà®¯": 2914,
    "Ġà®®à¯ĩà®²à¯į": 2915,
    "Ġà®ķà®¾à®²à®¤à¯įà®¤à®¿à®²à¯į": 2916,
    "Ġà®µà®°à¯ģà®®": 2917,
    "Ġà®¨à¯Ģà®¤": 2918,
    "Ġà®ķà®Ļà¯įà®ķ": 2919,
    "à®¯à®®à®¾à®ķ": 2920,
    "Ġà®ıà®µ": 2921,
    "Ġà®®à®¾à®®": 2922,
    "à®¿à®®à¯Īà®¯à®¾à®©": 2923,
    "Ġà®ļà¯ģà®²": 2924,
    "à®¿à®¨à¯įà®¤à¯Īà®¯": 2925,
    "Ġà®¤à®©à¯įà®®": 2926,
    "à®¤à¯įà®¤à¯Īà®ļà¯į": 2927,
    "Ġà®ħà®¤à®¿à®ķà®°à®¿à®¤à¯įà®¤à®¤à¯ģ": 2928,
    "à®µà®±à¯įà®±à®¿à®©à¯į": 2929,
    "Ġà®ªà¯Ĭà®¤à¯ģà®¤à¯į": 2930,
    "Ġà®ħà®®à¯Īà®¨à¯įà®¤": 2931,
    "Ġà®¤à¯Ĭà®ķà¯Ī": 2932,
    "à®²à®¾à®®à¯į": 2933,
    "à®Łà®¿à®¯à®¾à®©": 2934,
    "Ġà®ĩà®£à¯Īà®¯": 2935,
    "à®¿à®¯à®¾à®µà®¿à®²à¯į": 2936,
    "à®ķà¯Īà®®": 2937,
    "Ġà®ķà®¾à®°à®£à®®à®¾à®ķ": 2938,
    "Ġà®¨à¯Ĥà®±à¯įà®±à®¾à®£à¯įà®Łà®¿à®²à¯į": 2939,
    "Ġà®¨à¯Ĥà®±à¯įà®±à®¾à®£à¯įà®Łà®¿à®©à¯į": 2940,
    "Ġà®Ĩà®£à¯įà®Łà¯ģà®ķà®³à¯ģà®ķà¯įà®ķà¯ģ": 2941,
    "Ġà®Ĩà®£à¯įà®Łà¯ģà®ķà®³à®¿à®²à¯į": 2942,
    "à¯Īà®¯à®¿à®²à®¾à®©": 2943,
    "Ġà®¤à¯ĩà®°à¯įà®¨à¯įà®¤": 2944,
    "à®¿à®£à¯įà®£": 2945,
    "à®ħà®£à¯į": 2946,
    "Ġà®ķà¯ģà®ļ": 2947,
    "Ġà®ķà®²à¯įà®µà®¿": 2948,
    "Ġà®İà®©à¯įà®ªà®¤": 2949,
    "Ġà®İà®©à¯įà®ªà®¤à¯ģ": 2950,
    "Ġà®¤à¯Ģà®ª": 2951,
    "Ġà®µà®£à®¿à®ķà®": 2952,
    "Ġà®īà®²à®ķà®ķà¯į": 2953,
    "Ġà®ķà¯Ĭà®³à¯įà®ķ": 2954,
    "Ġà®ķà®¿à®´à®ķà¯įà®ķà®¿à®¨à¯įà®¤": 2955,
    "Ġà®ªà¯ĭà®¤à®¿à®²à¯ģà®®à¯į": 2956,
    "à¯Īà®ļà¯įà®ļ": 2957,
    "Ġà®ļà¯Ĩà®¯à®²à¯įà®ª": 2958,
    "Ġà®®à¯ģà®©à¯įà®©à¯ĩà®±à¯įà®±": 2959,
    "Ġà®ķà¯ģà®Łà¯ģà®®à¯įà®ª": 2960,
    "Ġà®ħà®®à¯Ĩà®°": 2961,
    "Ġà®ªà®²à¯įà®µà¯ĩà®±": 2962,
    "Ġà®ķà®µà®©": 2963,
    "Ġà®ªà®¿à®²à¯įà®²à®¿à®¯à®©à¯į": 2964,
    "Ġà®ķà®²à¯įà®µà®¿à®¯à®±": 2965,
    "Ġà®ªà®¿à®©à¯įà®ªà®±à¯įà®±": 2966,
    "Ġà®ķà®Łà¯įà®Łà®Łà®ķà¯į": 2967,
    "Ġà®®à¯ģà®ļà¯ģà®²à®¿à®": 2968,
    "à®¿à®²à¯ĩà®¯": 2969,
    "Ġà®ªà®¿à®°à®¾à®¨à¯įà®¤à®¿à®¯": 2970,
    "Ġà®ĩà®°à¯ģà®ķà¯įà®ķà®²à®¾à®®à¯į": 2971,
    "Ġà®ļà¯Īà®©": 2972,
    "Ġà®īà®²à®ķà®³": 2973,
    "Ġà®ļà¯ģà®®à®¾à®°à¯į": 2974,
    "Ġà®ħà®¨à¯įà®¨": 2975,
    "Ġà®¤à®¿à®²à¯įà®²à®¿": 2976,
    "Ġà®ķà®¿à®°à®¾à®®à®ªà¯įà®ªà¯ģà®±": 2977,
    "Ġà®ļà®®à®µà¯Ĩà®³": 2978,
    "Ġà®µà®°à¯ģà®®à®¾à®©": 2979,
    "Ġà®®à®¾à®®à®¿à®ļ": 2980,
    "Ġà®ļà¯ģà®²à¯įà®¤à®¾à®©": 2981,
    "Ġà®ħà®®à¯Ĩà®°à®¿à®ķà¯įà®ķ": 2982,
    "Ġà®ªà®²à¯įà®µà¯ĩà®±à¯ģ": 2983,
    "Ġà®®à¯ģà®ļà¯ģà®²à®¿à®®à¯į": 2984,
    "à®¿à®²à¯ĩà®¯à¯ĩ": 2985,
    "Ġà®īà®²à®ķà®³à®¾à®µà®¿à®¯": 2986,
    "à®³à®µà®¿à®²à¯į": 2987,
    "à¯Īà®ª": 2988,
    "±à¯įà®ª": 2989,
    "®à®¾à®©": 2990,
    "à®Łà¯Ī": 2991,
    "Ġ2023": 2992,
    "à±įà°§": 2993,
    "à±ģà°Ĺà°¾": 2994,
    "Ġà°ĸ": 2995,
    "Ġà°Ĳ": 2996,
    "à°¿à°¡": 2997,
    "à°¨à±į": 2998,
    "à°°à°¤": 2999,
    "Ġà°ªà±ĭ": 3000,
    "¥à°¿à°ķ": 3001,
    "Ġà°°à±ĭ": 3002,
    "à°ªà°¾à°²": 3003,
    "Ġà°µà°°à±įà°": 3004,
    "Ġà°ļà°°": 3005,
    "à°ķà±įà°¤": 3006,
    "Ġà°ħà°¨à±ģ": 3007,
    "à°¿à°Ĥà°ļà±ĩ": 3008,
    "à±įà°µà°¹": 3009,
    "à°¾à°²à°ķà±ģ": 3010,
    "à°¾à°Ĥà°¡": 3011,
    "Ġà°ħà°Ń": 3012,
    "Ġà°¤à°¨": 3013,
    "Ġà°¤à°®": 3014,
    "Ġà°µà°¿à°¶": 3015,
    "Ġà°ļà±Īà°¨": 3016,
    "à°®à±ģà°¦": 3017,
    "à°ķà±įà°·à°°": 3018,
    "µà°¾à°®": 3019,
    "à°·à±įà°Ł": 3020,
    "Ġà°ķà±Ĥà°¡à°¿à°¨": 3021,
    "Ġà°ľà°¾à°¬": 3022,
    "à°®à°Ĥà°¤à±įà°°": 3023,
    "Ġà°®à±Ĭà°¤à±įà°¤": 3024,
    "ĠâĢĶ": 3025,
    "Ġà°ķà°²à°¿à°Ĺ": 3026,
    "Ġà°ªà°¦à±įà°§": 3027,
    "à°²à°¤à±ĭ": 3028,
    "à°¾à°²à°¤à±ĭ": 3029,
    "à°·à±įà°": 3030,
    "Ġà°ħà°§à°¿à°ķà°¾à°°à°¿à°ķ": 3031,
    "Ġà°¸à°°à±įà°µ": 3032,
    "Ġà°ªà±įà°°à°ªà°Ĥà°ļà°Ĥà°²à±ĭ": 3033,
    "à±ģà°ķà±ģà°Ĥà°Ł": 3034,
    "à°¾à°²à±įà°²à±ĭ": 3035,
    "à°¿à°¸à±įà°¤à°¾à°¨à±į": 3036,
    "Ġà°µà°¾à°¤": 3037,
    "Ġà°ļà±ĩà°¸": 3038,
    "Ġà°ļà±ĩà°¯": 3039,
    "Ġà°°à±Ĩà°Ĥà°¡à±ģ": 3040,
    "à°ķà°¾à°°à°Ĥ": 3041,
    "à±Ģà°°à±įà°£": 3042,
    "Ġà°īà°Ĥà°Łà°¾à°¯à°¿": 3043,
    "Ġà°ľà°°à°¿à°Ĺà°¿à°¨": 3044,
    "Ġà°ªà°°à°¿à°¶": 3045,
    "Ġà°¨à±ģà°Ĥà°¡à°¿": 3046,
    "Ġà°ħà°¨à±ĩà°ķ": 3047,
    "Ġà°İà°ķà±įà°ķà±ģà°µà°Ĺà°¾": 3048,
    "Ġà°ķà°¾à°Ĥà°Ĺà±įà°°à±Ĩà°¸à±ģ": 3049,
    "Ġà°¸à°Ĥà°ĸà±įà°¯": 3050,
    "Ġà°ķà±ĭà°°à±įà°Ł": 3051,
    "Ġà°ªà±įà°°à°¾à°ļà±Ģà°¨": 3052,
    "Ġà°ªà±įà°°à°¸à±įà°¤à±ģà°¤à°Ĥ": 3053,
    "Ġà°¶à°¤": 3054,
    "Ġà°°à°¾à°·à±įà°Łà±įà°°à°ªà°¤à°¿": 3055,
    "Ġà°°à°¹à°¦à°¾à°°à±ģà°²à±ģ": 3056,
    "Ġà°¬à±Ĩà°Ĥà°Ĺà°¾à°²": 3057,
    "à°¿à°¦à±įà°§": 3058,
    "Ġà°ļà°°à°¿à°¤à±įà°°": 3059,
    "Ġà°ľà°¾à°¬à°¿à°¤": 3060,
    "Ġà°®à±Ĭà°¤à±įà°¤à°Ĥ": 3061,
    "Ġà°µà°¾à°¤à°¾à°µ": 3062,
    "Ġà°¶à°¤à°¾à°¬à±įà°¦": 3063,
    "Ġà°µà°¾à°¤à°¾à°µà°°à°£": 3064,
    "Ġà°¶à°¤à°¾à°¬à±įà°¦à°Ĥ": 3065,
    "Ġà°µà°¾à°¤à°¾à°µà°°à°£à°Ĥ": 3066,
    "à°¿à°·": 3067,
    "à°²à±į": 3068,
    "à°°à°Ĥ": 3069,
    "à±ĩà°¦": 3070,
    "Ġà°¸à°¾à°°": 3071,
    "à°®à±Ģ": 3072,
    "à±ģà°ª": 3073,
    "Ġà°¨à°Ĺ": 3074,
    "à°²à±įà°²": 3075,
    "à±įà°²à°¨à±ģ": 3076,
    "à°¨à±ģà°ķ": 3077,
    "à°¸à±įà°²": 3078,
    "Ġà°µà°¿à°¦": 3079,
    "à°¾à°¤à°Ĥà°¤à±įà°°": 3080,
    "Ġà°¸à±įà°µà°¾à°¤à°Ĥà°¤à±įà°°": 3081,
    "à°¾à°Łà±ģ": 3082,
    "à°¿à°¸à±įà°¥": 3083,
    "Ġà°ªà±įà°°à°¤à°¿à°ª": 3084,
    "Ġà°ªà°Ĥà°¡à±ģ": 3085,
    "Ġà°°à±Īà°²à±įà°µ": 3086,
    "Ġà°µà±Ĩà°¬": 3087,
    "Ġà°¨à°¿à°°à±įà°µà°¹": 3088,
    "Ġà°¤à°®à°¿à°³": 3089,
    "Ġà°ªà±įà°°à°§à°¾à°¨à°®à°Ĥà°¤à±įà°°": 3090,
    "act": 3091,
    "%.": 3092,
    "ya": 3093,
    "fe": 3094,
    "The": 3095,
    "ket": 3096,
    "ron": 3097,
    "Ġset": 3098,
    "unj": 3099,
    "urop": 3100,
    "ĠEast": 3101,
    "ultan": 3102,
    "ood": 3103,
    "Ġthough": 3104,
    "Ġlead": 3105,
    "Ġconstitution": 3106,
    "athem": 3107,
    "ĠPunj": 3108,
    "urope": 3109,
    "ĠPunjab": 3110,
    "hen": 3111,
    "Ġthem": 3112,
    "Ġbas": 3113,
    "Ġest": 3114,
    "Ġref": 3115,
    "til": 3116,
    "ĠMa": 3117,
    "vement": 3118,
    "ities": 3119,
    "illen": 3120,
    "krit": 3121,
    "ĠUS": 3122,
    "ĠIndo": 3123,
    "Ġincluding": 3124,
    "Ġlanguages": 3125,
    "Ġrule": 3126,
    "Ġcaused": 3127,
    "Ġsocial": 3128,
    "Ġthrough": 3129,
    "Ġcountry": 3130,
    "ĠBeng": 3131,
    "nium": 3132,
    "Ġemerg": 3133,
    "ograph": 3134,
    "ĠChina": 3135,
    "Ġmilitary": 3136,
    "ĠMughal": 3137,
    "ĠSans": 3138,
    "ĠBengal": 3139,
    "illennium": 3140,
    "ĠSanskrit": 3141,
    "ten": 3142,
    "Ġ30": 3143,
    "Ġ36": 3144,
    "91": 3145,
    "Ġ2010": 3146,
    "Ġ2024": 3147,
    "à¥įà¤¡": 3148,
    "à¤¿à¤¹": 3149,
    "à¤¿à¤ª": 3150,
    "à¤Ĥà¤¤": 3151,
    "Ġà¤¸à¤¿": 3152,
    "à¤®à¤¾": 3153,
    "à¤¾à¤°à¤¿à¤ķ": 3154,
    "à¤¦à¤²": 3155,
    "à¥įà¤¤à¥ģ": 3156,
    "à¥ģà¤·": 3157,
    "à¤Ńà¤¾": 3158,
    "Ġà¤ªà¥įà¤°à¤Ń": 3159,
    "Ġà¤ļà¤²": 3160,
    "Ġà¤¸à¤®à¤¾à¤ľ": 3161,
    "Ġà¤ħà¤¨à¥įà¤¤": 3162,
    "Ġà¤Ĺà¤Ī": 3163,
    "Ġà¤¸à¥įà¤¥à¤¾à¤ª": 3164,
    "Ġà¤ķà¥įà¤·à¥ĩà¤¤à¥įà¤°à¥Ģà¤¯": 3165,
    "à¤ķà¥įà¤¤à¤¿": 3166,
    "Ġà¤µà¤°à¥įà¤·à¥ĭà¤Ĥ": 3167,
    "Ġà¤¬à¤¹à¥ģà¤®": 3168,
    "Ġà¤ľà¤¿à¤¸à¤®à¥ĩà¤Ĥ": 3169,
    "à¤¨à¥įà¤¦à¥įà¤°": 3170,
    "Ġà¤ªà¤¹à¤²à¥ĩ": 3171,
    "à¥įà¤µà¥Ģà¤ª": 3172,
    "Ġà¤²à¤¿à¤¯à¥ĩ": 3173,
    "Ġà¤µà¤¿à¤ķà¤¾à¤¸": 3174,
    "Ġà¤¸à¤Ĥà¤¸à¤¦": 3175,
    "Ġà¤ĵà¤°": 3176,
    "Ġà¤ħà¤°à¤¬": 3177,
    "Ġà¤¯à¥ģà¤¦à¥įà¤§": 3178,
    "Ġà¤ªà¥įà¤°à¤§à¤¾à¤¨à¤®à¤Ĥà¤¤à¥įà¤°à¥Ģ": 3179,
    "Ġà¤¨à¥ĩà¤¤à¥ĥà¤¤à¥įà¤µ": 3180,
    "Ġà¤¬à¥įà¤°à¤¿à¤Ł": 3181,
    "Ġà¤¶à¤¤à¤¾à¤¬": 3182,
    "Ġà¤ľà¤¨à¤ľà¤¾à¤¤à¤¿": 3183,
    "à¤£à¥įà¤¡": 3184,
    "Ġà¤¶à¤¤à¤¾à¤¬à¥įà¤¦": 3185,
    "Ġà¤¶à¤¤à¤¾à¤¬à¥įà¤¦à¥Ģ": 3186,
    "Ġwe": 3187,
    "âĢ²": 3188,
    "à®°à¯ģà®³": 3189,
    "à®Łà¯ģà®¤à¯įà®¤à®ªà¯įà®ªà®Łà¯įà®Ł": 3190,
    "Ġà®ıà®±à¯įà®ª": 3191,
    "Ġà®ªà¯Ĥ": 3192,
    "à®¤à®±à¯įà®ķ": 3193,
    "Ġà®®à¯ģà®±à¯Īà®¯": 3194,
    "à®¤à®±à¯įà®ķà¯ģ": 3195,
    "Ġà®²": 3196,
    "à®¤à®¿": 3197,
    "¸à¯įà®Ł": 3198,
    "à®®à¯ĩ": 3199,
    "Ġà®ļà¯ģà®¤": 3200,
    "Ġà®¤à®Łà¯įà®Ł": 3201,
    "à®¾à®ªà¯į": 3202,
    "Ġà®¨à¯ĭ": 3203,
    "à®°à¯ģà®Ļ": 3204,
    "Ġà®®à®°à¯ģà®": 3205,
    "Ġà®Ĩà®ªà¯įà®ª": 3206,
    "à®ªà¯įà®ªà®¿à®¯": 3207,
    "à®ªà¯įà®ªà®®": 3208,
    "Ġà®¤à®¾à®°": 3209,
    "à®ķà¯įà®ķà®¿": 3210,
    "Ġà®¤à®ķà¯įà®ķ": 3211,
    "à¯Īà®¯à®²à¯į": 3212,
    "à¯ģà®±à¯įà®±": 3213,
    "Ġà®Ĵà®Ł": 3214,
    "Ġà®¤à®¨à¯įà®¤": 3215,
    "Ġà®İà®¨à¯įà®¤": 3216,
    "à®ķà®Ļ": 3217,
    "à®ķà®µ": 3218,
    "à®¿à®¤à¯įà®¤à¯ģà®µ": 3219,
    "Ġà®ªà¯ĭà®°": 3220,
    "à®¿à®ªà¯įà®ªà¯ģ": 3221,
    "à®¿à®¯à¯ģà®³à¯įà®³à®¤à¯ģ": 3222,
    "à®¾à®ķà®°": 3223,
    "à®Ļà¯įà®ķà®³à¯ģà®ķà¯įà®ķà¯ģ": 3224,
    "Ġà®ķà®Łà¯ģà®®": 3225,
    "à®ªà¯įà®ªà®Łà¯ģà®¤à¯įà®¤": 3226,
    "à®¿à®ķà¯įà®ķà¯ģ": 3227,
    "à®¿à®°à®¿à®ķà¯įà®ķ": 3228,
    "Ġà®ªà®ķà®¿à®°": 3229,
    "Ġà®ħà®°à®ļà¯ģ": 3230,
    "Ġà®ħà®°à®ļà®¿à®©à¯į": 3231,
    "Ġà®¨à®¿à®²à¯Ī": 3232,
    "à¯įà®µà®¾à®¯": 3233,
    "Ġà®İà®²à¯įà®²": 3234,
    "à®¿à®ªà¯įà®ªà®Łà¯ģà®¤à¯įà®¤": 3235,
    "à®°à¯įà®ķà®³à¯Īà®ķà¯į": 3236,
    "Ġà®ħà®¤à®¿à®ķà®ªà¯įà®ª": 3237,
    "Ġà®µà®°à¯ģà®ķà®¿à®±à®¤à¯ģ": 3238,
    "Ġà®¨à®¾à®Łà®¾à®ķ": 3239,
    "à®¿à®®à®©à¯įà®±": 3240,
    "Ġà®ªà®°à®¿à®®": 3241,
    "Ġà®ķà®Łà¯įà®ļà®¿à®¯": 3242,
    "Ġà®ķà®¿à®Łà¯įà®Ł": 3243,
    "Ġà®ªà®ķà¯ģà®¤à®¿à®¯à®¿à®²à¯į": 3244,
    "à¯ģà®²à®¾à®®": 3245,
    "Ġà®ªà¯Ĩà®°à¯ģà®®à®³à®µ": 3246,
    "à¯ģà®¤à®¿à®¯à®¾à®ķ": 3247,
    "à®¿à®´à®ķà¯įà®ķà¯ģ": 3248,
    "à®¤à¯įà®¤à¯ģà®Łà®©à¯į": 3249,
    "Ġà®µà®³à®°à¯ģà®®à¯į": 3250,
    "Ġà®¨à®¿à®²à¯Īà®¯à®¿à®²à¯į": 3251,
    "Ġà®¤à¯Ĭà®Łà®°à¯įà®ª": 3252,
    "Ġà®īà®£à¯įà®£": 3253,
    "Ġà®ħà®£à¯į": 3254,
    "Ġà®¤à¯Ĭà®ķà¯Īà®ķà¯į": 3255,
    "Ġà®ħà®±à®¿à®ķà¯įà®ķ": 3256,
    "Ġà®¤à¯Ĭà®´à®¿à®²": 3257,
    "à®ķà®³à®¿à®©à¯į": 3258,
    "Ġà®ĩà®±à®ķà¯įà®ķ": 3259,
    "Ġà®ĩà®±à¯Īà®¯": 3260,
    "Ġà®Ĩà®¯à®¿à®°": 3261,
    "Ġà®ķà®¾à®°à®£à®®à®¾à®©à®¤à¯ģ": 3262,
    "Ġà®ķà®¾à®²à®¤à¯įà®¤à®¿à®±à¯įà®ķ": 3263,
    "Ġà®İà®©à®¿à®©": 3264,
    "Ġà®¤à¯ģà®±à¯Ī": 3265,
    "Ġà®¤à¯ģà®±à¯Īà®¯à®¾à®©à®¤à¯ģ": 3266,
    "Ġà®ªà®¤à®µ": 3267,
    "Ġà®ħà®³à®µà¯ģà®ķà¯įà®ķà¯ģ": 3268,
    "Ġà®µà®³à®°à¯įà®ļà¯įà®ļà®¿à®¯": 3269,
    "Ġà®µà¯Ĩà®³à®¿à®¯": 3270,
    "Ġà®ªà¯ĩà®°à®°à®ļà¯ģ": 3271,
    "Ġà®ªà®ķà¯ģà®¤à®¿à®ķà®³à®¿à®²à¯į": 3272,
    "Ġà®īà®ļà¯įà®ļ": 3273,
    "Ġà®¤à¯ģà®£à¯Īà®ķà¯į": 3274,
    "Ġà®Ĩà®ķà®¿à®¯à®µà®±à¯įà®±à¯Ī": 3275,
    "Ġà®ļà¯Ĩà®¯à¯įà®¯à®ªà¯įà®ªà®Łà¯įà®Ł": 3276,
    "Ġà®ªà®¿à®©à¯įà®©": 3277,
    "Ġà®®à®°à®ª": 3278,
    "Ġà®¨à¯ĩà®°à®¤à¯įà®¤à®¿à®²à¯į": 3279,
    "Ġà®®à¯Ĥà®©à¯įà®±à®¾à®µà®¤à¯ģ": 3280,
    "Ġà®µà®°à¯įà®ķà¯įà®ķ": 3281,
    "Ġà®¤à¯ĩà®°à¯įà®¤à®²à®¿à®²à¯į": 3282,
    "Ġà®®à¯ģà®ķà®²à®¾à®¯à®ªà¯į": 3283,
    "Ġà®Īà®°": 3284,
    "à®¸à¯į": 3285,
    "Ġà®ªà¯ĩà®ļ": 3286,
    "Ġà®ļà®¿à®¨à¯įà®¤à¯ģ": 3287,
    "Ġà®ĩà®µà¯įà®µà®¾à®±à¯ģ": 3288,
    "Ġà®¤à®²à¯Īà®®à¯Ī": 3289,
    "Ġà®Ĩà®¤à®°à®µ": 3290,
    "Ġà®ĩà®°à®¾à®ļà¯įà®ļà®¿à®¯": 3291,
    "Ġà®ĩà®²à®Łà¯įà®ļà®®à¯į": 3292,
    "à¯Ģà®ªà®¤à¯įà®¤à®¿à®¯": 3293,
    "Ġà®µà®ķà¯ģà®¤à¯įà®¤à®¤à¯ģ": 3294,
    "Ġà®ĩà®®à®¯à®®à®²": 3295,
    "Ġà®¤à®µà®¿à®°": 3296,
    "Ġà®¤à®¿à®°à¯ģà®®à®£": 3297,
    "Ġà®¨à®Łà¯ģà®µà®£à¯į": 3298,
    "Ġà®ªà®¿à®¨à¯įà®¤à¯Īà®¯": 3299,
    "Ġà®¤à¯ĩà®°à¯įà®¨à¯įà®¤à¯Ĩà®Ł": 3300,
    "Ġà®¤à¯Ģà®ªà®ķà®": 3301,
    "Ġà®ķà®¿à®´à®ķà¯įà®ķà®¿à®¨à¯įà®¤à®¿à®¯": 3302,
    "Ġà®ħà®®à¯Īà®ļà¯įà®ļ": 3303,
    "Ġà®ķà®²à¯įà®µà®¿à®¯à®±à®¿à®µà¯ģ": 3304,
    "Ġà®ħà®¨à¯įà®¨à¯ĩà®°": 3305,
    "Ġà®ļà¯ģà®¤à®¨à¯įà®¤à®¿à®°": 3306,
    "Ġà®ªà¯Ĩà®°à¯ģà®Ļ": 3307,
    "Ġà®Ĩà®ªà¯įà®ªà®¿à®°à®¿à®ķà¯įà®ķ": 3308,
    "Ġà®ĩà®±à®ķà¯įà®ķà¯ģà®®à®¤": 3309,
    "Ġà®İà®©à®¿à®©à¯ģà®®à¯į": 3310,
    "Ġà®¤à¯Ģà®ªà®ķà®±à¯įà®ª": 3311,
    "Ġà®ħà®¨à¯įà®¨à¯ĩà®°à®¤à¯įà®¤à®¿à®²à¯į": 3312,
    "à®¿à®°à¯į": 3313,
    "à®¿à®¯à®®à¯į": 3314,
    "à¯įà®ķà®³à®¿à®²à¯į": 3315,
    "à¯įà®ķà®²": 3316,
    "Ġ-": 3317,
    "ach": 3318,
    "nolog": 3319,
    "ati": 3320,
    "ib": 3321,
    "rew": 3322,
    "ied": 3323,
    "ild": 3324,
    "heast": 3325,
    "orts": 3326,
    "ians": 3327,
    "Äģ": 3328,
    "Ġcr": 3329,
    "ors": 3330,
    "orn": 3331,
    "Ġpre": 3332,
    "Ġfar": 3333,
    "Ġled": 3334,
    "ĠCent": 3335,
    "Ġgra": 3336,
    "roc": 3337,
    "ĠSt": 3338,
    "read": 3339,
    "ident": 3340,
    "ĠMus": 3341,
    "ird": 3342,
    "Ġwho": 3343,
    "emp": 3344,
    "Ġsty": 3345,
    "Ġmain": 3346,
    "Ġdire": 3347,
    "Ġone": 3348,
    "ould": 3349,
    "Ġup": 3350,
    "Ġall": 3351,
    "ivil": 3352,
    "large": 3353,
    "Ġbillion": 3354,
    "Ġcenturies": 3355,
    "ĠIndus": 3356,
    "duced": 3357,
    "Ġother": 3358,
    "Ġsome": 3359,
    "Ġsign": 3360,
    "ared": 3361,
    "Ġriver": 3362,
    "Ġrural": 3363,
    "Ġreligi": 3364,
    "Ġpolit": 3365,
    "ording": 3366,
    "ĠHimal": 3367,
    "ĠSik": 3368,
    "Ġserved": 3369,
    "Ġforest": 3370,
    "ĠComp": 3371,
    "owever": 3372,
    "Ġmusic": 3373,
    "Ġmathem": 3374,
    "Ġmillennium": 3375,
    "largest": 3376,
    "ĠHimalay": 3377,
    "ments": 3378,
    "Ġemp": 3379,
    "Ġgr": 3380,
    "Ġtr": 3381,
    "ai": 3382,
    "ived": 3383,
    "ĠPlate": 3384,
    "ange": 3385,
    "Ġ2008": 3386,
    "Ġ,": 3387,
    "à¤Ĩ": 3388,
    "à¤ĥ": 3389,
    "à¥¯": 3390,
    "à¥įà¤£": 3391,
    "Ġà¤ķà¤¿": 3392,
    "à¤¿à¤·": 3393,
    "à¤¿à¤ľ": 3394,
    "à¥Ģà¤¤": 3395,
    "à¥Īà¤²": 3396,
    "à¥Ĥà¤°": 3397,
    "à¤¾à¤¨à¤¾": 3398,
    "à¤µà¥įà¤¯": 3399,
    "à¥ģà¤Ĺ": 3400,
    "Ġà¤ķà¥ģà¤": 3401,
    "à¤¼à¥Ģ": 3402,
    "à¤¾à¤ľà¤ª": 3403,
    "à¤ªà¤¾à¤²": 3404,
    "Ġà¤¸à¤¾à¤²": 3405,
    "Ġà¤ķà¤¾à¤²": 3406,
    "Ġà¤Ĩà¤¯": 3407,
    "Ġà¤Ĩà¤¦": 3408,
    "Ġà¤ľà¤¬": 3409,
    "à¤Ńà¤Ĺ": 3410,
    "Ġà¤ķà¤¿à¤¨": 3411,
    "Ġà¤¸à¤Ĥà¤¯": 3412,
    "à¤¾à¤¯à¥ģ": 3413,
    "Ġà¤¸à¤°à¥įà¤µ": 3414,
    "à¤®à¤¿à¤²": 3415,
    "à¥Įà¤°": 3416,
    "à¤°à¥Ĥà¤ª": 3417,
    "Ġà¤²à¥ĭà¤Ĺ": 3418,
    "à¥īà¤²": 3419,
    "Ġà¤Ńà¤¾à¤·à¤¾": 3420,
    "à¤¬à¤Ĥà¤§": 3421,
    "Ġà¤Ńà¤¾à¤Ĺ": 3422,
    "Ġà¤¥à¥ĩ": 3423,
    "Ġà¤Ĺà¤ł": 3424,
    "Ġà¤ªà¥ģà¤°": 3425,
    "Ġà¤°à¤¾à¤ľà¤¨à¥Ģ": 3426,
    "Ġà¤Ńà¤¾à¤·à¤¾à¤ı": 3427,
    "Ġà¤ķà¥ģà¤²": 3428,
    "à¤®à¥įà¤Ń": 3429,
    "à¥įà¤¹à¥ĩà¤Ĥ": 3430,
    "Ġà¤µà¤¿à¤¦à¥ĩà¤¶": 3431,
    "Ġà¤¸à¤Ĥà¤¸à¥įà¤ķà¥ĥà¤¤à¤¿": 3432,
    "Ġà¤ıà¤µà¤Ĥ": 3433,
    "Ġà¤Ńà¥Ĥà¤®à¤¿à¤ķà¤¾": 3434,
    "Ġà¤°à¤ķà¥įà¤·à¤¾": 3435,
    "Ġà¤¸à¥įà¤µà¤¤à¤Ĥà¤¤à¥įà¤°à¤¤à¤¾": 3436,
    "Ġà¤ľà¤¨à¤¸à¤Ĥà¤": 3437,
    "Ġà¤¨à¤¿à¤Ń": 3438,
    "Ġà¤¦à¥ĭà¤¨à¥ĭà¤Ĥ": 3439,
    "Ġà¤¸à¤¦à¤¸": 3440,
    "Ġà¤¬à¥įà¤°à¤¿à¤Łà¤¿à¤¶": 3441,
    "Ġà¤ķà¥ģà¤Ľ": 3442,
    "à¤¬à¤Ĥà¤§à¤¨": 3443,
    "Ġà¤ľà¤¨à¤¸à¤Ĥà¤ĸà¥įà¤¯à¤¾": 3444,
    "31": 3445,
    "Ġ2017": 3446,
    "17": 3447,
    "icial": 3448,
    "Ġ2018": 3449,
    "Ġ70": 3450,
    "Ġ300": 3451,
    "Ġ400": 3452,
    "500": 3453,
    "Ġ2007": 3454,
    "Ġ500": 3455,
    "15": 3456,
    "à°¾à°¸à±įà°": 3457,
    "à°®à±Ī": 3458,
    "à°¾à°ĸ": 3459,
    "à±ĩà°¤": 3460,
    "à°¾à°²à±į": 3461,
    "Ġà°«": 3462,
    "Ġà°ĺ": 3463,
    "Ġà°¡": 3464,
    "à°¾à°¶": 3465,
    "à°²à°Ĥ": 3466,
    "à°¤à±įà°°": 3467,
    "à°¨à±Ģ": 3468,
    "à°°à±Ģ": 3469,
    "à°¦à°°": 3470,
    "à±ĩà°Ĺ": 3471,
    "à±ĩà°µ": 3472,
    "Ġà°ķà±įà°¯": 3473,
    "à±Ģà°µ": 3474,
    "à°µà±ĩ": 3475,
    "à°®à±Ĩ": 3476,
    "à°¡à°Ĥ": 3477,
    "Ġà°¸à±Ĥ": 3478,
    "Ġà°Ńà±Ĥ": 3479,
    "à°¨à°¾à°²à±ģ": 3480,
    "Ġà°µà±Ī": 3481,
    "à°Łà°Ĥ": 3482,
    "à°¿à°¨à°¿": 3483,
    "à°¿à°¨à°¾à°²à±ģ": 3484,
    "à°¯à±ĭ": 3485,
    "à°°à±įà°ķ": 3486,
    "à°°à±įà°·": 3487,
    "à°°à±įà°ľ": 3488,
    "à°¾à°¯à°ķ": 3489,
    "Ġà°¨à±Ĩ": 3490,
    "Ġà°ĩà°µ": 3491,
    "Ġà°ªà±Ĭ": 3492,
    "Ġà°µà°¹": 3493,
    "à±Ģà°¸": 3494,
    "à±įà°¯à±ģà°²à±ģ": 3495,
    "à°¿à°¤à°¿": 3496,
    "Ġà°Ĺà±ĭ": 3497,
    "Ġà°Ĺà°¾à°Ĥ": 3498,
    "à°Ĥà°Łà±ĩ": 3499,
    "à±ģà°¤à±ĭ": 3500,
    "Ġà°µà°¿à°§": 3501,
    "Ġà°µà°¿à°Ń": 3502,
    "Ġà°¸à°Ĥà°ª": 3503,
    "Ġà°¸à°Ĥà°ĺ": 3504,
    "Ġà°¸à°Ĥà°ķ": 3505,
    "à°®à±ģà°²à±ĭ": 3506,
    "à°£à°Ĥà°Ĺà°¾": 3507,
    "Ġà°µà°¿à°¸à±įà°¤": 3508,
    "Ġà°ħà°¨à°¿": 3509,
    "Ġà°īà°¨à±įà°¨à°¾à°°à±ģ": 3510,
    "Ġà°ªà±Ī": 3511,
    "à°¾à°¦à±ĩà°¶": 3512,
    "à°¾à°¦à°¨": 3513,
    "à°ĸà°Ĥà°¡": 3514,
    "Ġà°ħà°¤à°¿": 3515,
    "Ġà°²à°ķà±įà°·": 3516,
    "à±ĭà°³": 3517,
    "Ġà°°à±Īà°³": 3518,
    "à°®à±įà°®": 3519,
    "Ġà°°à°¾à°·à±įà°Łà±įà°°à°¾à°²": 3520,
    "à°®à±Īà°¨à°¦à°¿": 3521,
    "à±įà°ļà°¿à°®": 3522,
    "Ġà°²à±ĭà°ķ": 3523,
    "Ġà°Ńà°¾à°°à°¤à°¦à±ĩà°¶à°ªà±ģ": 3524,
    "à°¾à°¸à±įà°¯": 3525,
    "Ġà°Ńà°¾à°°à°¤à°¦à±ĩà°¶à°Ĥà°²à±ĭà°¨à°¿": 3526,
    "Ġà°µà°ļà±įà°ļà°¿à°¨": 3527,
    "Ġà°Ńà°¾à°°à°¤à°¦à±ĩà°¶à°¾à°¨à°¿à°ķà°¿": 3528,
    "à±Ģà°·": 3529,
    "à°¾à°Ĺà°¾": 3530,
    "Ġà°ļà±Ĩà°Ĥà°¦": 3531,
    "Ġà°¦à±ĩà°¶à°¾à°²à°²à±ĭ": 3532,
    "à°¿à°¤à±įà°°à°ķ": 3533,
    "Ġà°®à±ģà°Ĥà°¬": 3534,
    "à°¿à°¸à±įà°¤à±ģà°¨à±įà°¨": 3535,
    "à±ģà°¤à±ģà°¨à±įà°¨": 3536,
    "à±įà°°à°¾à°ľ": 3537,
    "Ġà°°à°¾à°ľà±įà°¯à°¾à°²à±ģ": 3538,
    "Ġà°ªà°¾à°ķà±į": 3539,
    "Ġà°¦à°ķà±įà°·à°¿à°£à°¾à°¨": 3540,
    "Ġà°ªà°¶": 3541,
    "Ġà°ªà±įà°°à°ľà°²": 3542,
    "Ġà°Ńà°¾à°·à°²à±ģ": 3543,
    "Ġà°ªà±įà°°à°Ńà±ģà°¤à±įà°µà°Ĥ": 3544,
    "à°¸à°¤à±įà°µ": 3545,
    "Ġà°¯à±ģ": 3546,
    "Ġà°ªà±ģà°Łà±įà°Ł": 3547,
    "Ġà°¸à°¾à°Ĥà°ªà±įà°°": 3548,
    "Ġà°°à±Ĥà°ª": 3549,
    "Ġà°ļà±Ĩà°Ĥà°¦à°¿à°¨": 3550,
    "Ġà°µà°Ĥà°Łà°¿": 3551,
    "Ġà°¸à°¾à°§à°¿à°Ĥà°ļ": 3552,
    "Ġà°°à°ķà°¾à°²": 3553,
    "à°Łà±įà°²à±ģ": 3554,
    "Ġà°Ĩà°ķà±įà°°à°®": 3555,
    "Ġà°¸à°Ĥà°¸à±įà°ķà±ĥà°¤": 3556,
    "Ġà°ķà°¾à°°à±įà°¯": 3557,
    "Ġà°ķà±ģà°Łà±ģ": 3558,
    "à°°à±įà°²à±ģ": 3559,
    "Ġà°®à°¾à°¤à±įà°°à°Ĥ": 3560,
    "Ġà°¶à°¾à°¸à±įà°¤à±įà°°à°Ĥ": 3561,
    "Ġà°¸à°Ĥà°Ĺà±Ģà°¤à°Ĥ": 3562,
    "Ġà°¸à°¿à°¨à°¿à°®à°¾": 3563,
    "Ġà°¨à±įà°¯à°¾à°¯": 3564,
    "Ġà°¦à±įà°µà±Ģà°ª": 3565,
    "Ġà°ªà°¾à°¤à±įà°°": 3566,
    "Ġà°Ĩà°§à°¾à°°": 3567,
    "Ġà°®à±Ĥà°¡à±ģ": 3568,
    "à°ªà±įà°ªà°Łà°¿à°ķà±Ģ": 3569,
    "Ġà°¨à°¡à°¿à°ªà°¿à°Ĥà°ļ": 3570,
    "Ġà°Ĩà°«": 3571,
    "Ġà°¸à°Ĥà°µà°¤": 3572,
    "Ġà°ķà±Ĭà°¨à±įà°¨à°¿": 3573,
    "à°¾à°¬à°¾à°¦à±į": 3574,
    "Ġà°¸à±įà°µà°¤à°Ĥà°¤à±įà°°": 3575,
    "Ġà°¢à°¿à°²à±įà°²à±Ģ": 3576,
    "Ġà°Ĩà°°à±įà°¥à°¿à°ķ": 3577,
    "Ġà°°à±ĭà°¡à±įà°¡": 3578,
    "Ġà°ķà±ĩà°Ĥà°¦à±įà°°à°ªà°¾à°²": 3579,
    "Ġà°ħà°Ńà°¿à°µ": 3580,
    "µà°¾à°®à±įà°¯": 3581,
    "Ġà°ķà°²à°¿à°Ĺà°¿": 3582,
    "à°·à±įà°£": 3583,
    "Ġà°ªà±įà°°à°ķà°¾à°°à°Ĥ": 3584,
    "Ġà°ªà°°à°¿à°¶à±įà°°à°®": 3585,
    "Ġà°¬à±Ĩà°Ĥà°Ĺà°¾à°²à±Ģ": 3586,
    "Ġà°ľà°¾à°¬à°¿à°¤à°¾": 3587,
    "Ġà°¬à±įà°°à°¿à°Łà°¿à°·": 3588,
    "Ġà°ªà°¾à°ķà°¿à°¸à±įà°¥": 3589,
    "à±ĩà°Ĺà°Ĥà°Ĺà°¾": 3590,
    "à°°à±įà°ķà±Ĭ": 3591,
    "Ġà°¸à°°à±įà°µà±Ģà°¸": 3592,
    "Ġà°¸à°Ĥà°ªà±įà°°": 3593,
    "Ġà°ªà±Īà°Ĺà°¾": 3594,
    "à°ķà±įà°·à°°à°¾à°¸à±įà°¯": 3595,
    "Ġà°¸à°¾à°®à±įà°°à°¾à°ľ": 3596,
    "Ġà°ªà°¶à±įà°ļà°¿à°®": 3597,
    "Ġà°µà°¾à°°à°¸à°¤à±įà°µ": 3598,
    "Ġà°¸à°¾à°Ĥà°ªà±įà°°à°¦à°¾à°¯": 3599,
    "Ġà°ķà±ģà°Łà±ģà°Ĥà°¬": 3600,
    "Ġà°¸à°Ĥà°µà°¤à±įà°¸": 3601,
    "Ġà°ķà±ĩà°Ĥà°¦à±įà°°à°ªà°¾à°²à°¿à°¤": 3602,
    "Ġà°ħà°Ńà°¿à°µà±ĥ": 3603,
    "à°¾à°¸à±įà°µà°¾à°®à±įà°¯": 3604,
    "Ġà°¸à°Ĥà°ªà±įà°°à°¦à°¾à°¯": 3605,
    "à°ķà±įà°·à°°à°¾à°¸à±įà°¯à°¤": 3606,
    "Ġà°ħà°Ńà°¿à°µà±ĥà°¦à±įà°§": 3607,
    "Ġà°ħà°Ńà°¿à°µà±ĥà°¦à±įà°§à°¿": 3608,
    "à±įà°Ĺ": 3609,
    "Ġà°ªà°¦": 3610,
    "à°µà±ģ": 3611,
    "à°¡à°¿": 3612,
    "Ġà°ħà°µ": 3613,
    "à°¯à°¾à°²à±ģ": 3614,
    "à°¸à±į": 3615,
    "Ġà°Ĵà°ķà°Ł": 3616,
    "à°¨à±įà°¨à°¾à°¯à°¿": 3617,
    "à°Ĥà°ļà°¿": 3618,
    "à±įà°ķ": 3619,
    "led": 3620,
    "gl": 3621,
    "hr": 3622,
    "ata": 3623,
    "ars": 3624,
    "ank": 3625,
    "anu": 3626,
    "hes": 3627,
    "Ġac": 3628,
    "ats": 3629,
    "arn": 3630,
    "Ġfe": 3631,
    "Ġwom": 3632,
    "Ġsur": 3633,
    "Ġrem": 3634,
    "very": 3635,
    "Ġcol": 3636,
    "cri": 3637,
    "eration": 3638,
    "amp": 3639,
    "ĠSh": 3640,
    "dle": 3641,
    "put": 3642,
    "Ġout": 3643,
    "ĠIndians": 3644,
    "omet": 3645,
    "Ġus": 3646,
    "ories": 3647,
    "Ġass": 3648,
    "ĠEn": 3649,
    "ants": 3650,
    "acy": 3651,
    "ĠGand": 3652,
    "day": 3653,
    "Ġareas": 3654,
    "Ġloc": 3655,
    "ives": 3656,
    "dust": 3657,
    "Ġcoal": 3658,
    "Ġcoast": 3659,
    "ances": 3660,
    "ĠDel": 3661,
    "Ġcook": 3662,
    "Ġgreat": 3663,
    "ĠHinduism": 3664,
    "Ġinclude": 3665,
    "Ġhigh": 3666,
    "Ġwide": 3667,
    "Ġused": 3668,
    "Ġcentral": 3669,
    "Ġagric": 3670,
    "Ġfound": 3671,
    "ensus": 3672,
    "Ġculture": 3673,
    "Ġgrowth": 3674,
    "Ġterrit": 3675,
    "Ġcontrib": 3676,
    "Ġfollowing": 3677,
    "Ġtime": 3678,
    "Ġmade": 3679,
    "Ġhuman": 3680,
    "Ġinfluen": 3681,
    "Ġtech": 3682,
    "Ġcontrol": 3683,
    "ĠIsl": 3684,
    "ultanate": 3685,
    "Ġemerged": 3686,
    "ĠCentral": 3687,
    "ĠMuslim": 3688,
    "Ġthird": 3689,
    "Ġreligious": 3690,
    "Ġpolitical": 3691,
    "ccording": 3692,
    "ĠSikh": 3693,
    "ĠCompany": 3694,
    "Ġtrans": 3695,
    "ehr": 3696,
    "Ġwomen": 3697,
    "ĠGandhi": 3698,
    "ĠDelhi": 3699,
    "ands": 3700,
    "Ġno": 3701,
    "ins": 3702,
    "ost": 3703,
    "à¯ģà®¨à¯įà®¤": 3704,
    "à®¿à®¯à®®": 3705,
    "Ġà®ħà®²": 3706,
    "Ġà®¤à¯Ĩà®©": 3707,
    "Ġà®ļà¯Ģ": 3708,
    "Ġà®¨à¯ĩ": 3709,
    "à®¾à®Łà¯įà®Łà®¿à®©à¯į": 3710,
    "Ġà®ħà®®à¯Ī": 3711,
    "Ġà®¯": 3712,
    "Ġà®¹": 3713,
    "à®¾à®ľ": 3714,
    "à®¿à®¯à¯ģà®®à¯į": 3715,
    "Ġà®ķà®¤": 3716,
    "Ġà®¤à®°": 3717,
    "Ġà®ĩà®¨": 3718,
    "Ġà®ķà¯Īà®¯": 3719,
    "Ġà®ļà®ķ": 3720,
    "à®°à¯ĩ": 3721,
    "Ġà®Ĩà®°": 3722,
    "Ġà®®à®Łà¯įà®Ł": 3723,
    "Ġà®Ĩà®³": 3724,
    "Ġà®ħà®ªà¯įà®ª": 3725,
    "Ġà®¤à®¯": 3726,
    "à®³à®®à¯į": 3727,
    "à®ķà¯įà®ķà¯ģà®®à¯į": 3728,
    "à®Ļà¯įà®ķà®³à¯ģà®®à¯į": 3729,
    "®à®¾à®©à®¤à¯ģ": 3730,
    "à®¤à¯įà®¤à¯ģà®µ": 3731,
    "Ġà®Ĵà®±à¯įà®±": 3732,
    "à¯ģà®ķà®³à®¾à®ķ": 3733,
    "Ġà®ĩà®©à¯įà®±": 3734,
    "Ġà®ħà®©à¯įà®±": 3735,
    "Ġà®¨à®©à¯įà®±": 3736,
    "à¯ģà®¤à¯įà®¤à®°": 3737,
    "à®¿à®¤à¯įà®¤à¯ģ": 3738,
    "à®¿à®ķà®´": 3739,
    "à®ªà¯Ĭ": 3740,
    "à¯Īà®¯à¯Īà®ķà¯į": 3741,
    "à®Ļà¯įà®ķà®³à¯Īà®ķà¯į": 3742,
    "à®¿à®°à¯ģà®ªà¯įà®ª": 3743,
    "Ġà®ķà®¾à®²à®ªà¯į": 3744,
    "à®¾à®µà¯ģà®ķà¯įà®ķà¯ģ": 3745,
    "à®¤à¯įà®¤à¯ģà®ķà¯įà®ķà¯ģ": 3746,
    "Ġà®ªà®¾à®±": 3747,
    "Ġà®µà®°à¯Īà®¯": 3748,
    "à®¿à®¨à¯įà®¤à®¤à¯ģ": 3749,
    "Ġà®¨à®¿à®²à®ªà¯įà®ª": 3750,
    "à¯ģà®ªà¯įà®ªà¯ģ": 3751,
    "à¯ģà®ªà¯įà®ªà¯ģà®±": 3752,
    "Ġà®ħà®Łà¯ģà®¤à¯įà®¤": 3753,
    "à®¤à¯įà®¤à¯Īà®ªà¯į": 3754,
    "Ġà®ªà®°à®ªà¯įà®ª": 3755,
    "à®°à®¿à®®": 3756,
    "Ġà®¨à®Łà¯ģà®ķà¯į": 3757,
    "Ġà®ªà®¾à®°à®ļ": 3758,
    "Ġà®ķà®¾à®±à¯įà®±": 3759,
    "Ġà®¤à®¿à®Łà¯įà®Ł": 3760,
    "à®¾à®®à®²à¯į": 3761,
    "Ġà®µà®¿à®ļ": 3762,
    "Ġà®ªà®¿à®±à¯įà®ª": 3763,
    "Ġà®ļà®®à®¯à®®à¯į": 3764,
    "Ġà®ļà®®à®¯à®ªà¯į": 3765,
    "Ġà®ĩà®Łà®®à¯į": 3766,
    "Ġà®ħà®£à®¿à®¯": 3767,
    "Ġà®µà®³à®°à¯įà®¨à¯įà®¤à¯ģ": 3768,
    "Ġà®ħà®±à®¿à®µ": 3769,
    "Ġà®īà®±à¯ģà®¤": 3770,
    "Ġà®¤à¯Ĭà®²à¯Ī": 3771,
    "Ġà®ĩà®¯à®ķà¯įà®ķà®": 3772,
    "Ġà®®à¯ģà®Łà®¿à®µ": 3773,
    "à®¿à®¯à®¿à®²à®¾à®©": 3774,
    "Ġà®ªà¯Ĭà®¤à¯ģà®µà®¾à®©": 3775,
    "Ġà®®à®¨à¯įà®¤à®¿à®°": 3776,
    "Ġà®ķà¯Ĭà®£à¯įà®Łà®¿à®°à¯ģà®¨à¯įà®¤": 3777,
    "à¯ģà®ķà®£": 3778,
    "Ġà®Ĵà®©à¯įà®±à®¿à®£": 3779,
    "Ġà®ªà®¯à®©à¯įà®ªà®Łà¯ģà®¤à¯įà®¤à®ªà¯įà®ªà®Łà¯ģà®ķà®¿à®±à®¤à¯ģ": 3780,
    "Ġà®Ĩà®±à¯įà®±à®²à¯į": 3781,
    "Ġà®®à¯ĩà®±à¯įà®ķà¯Ĭ": 3782,
    "Ġà®İà®¤à®¿à®°à¯į": 3783,
    "Ġà®®à¯Ģà®¤à¯ģ": 3784,
    "Ġà®ªà®¾à®£à®¿à®¯à®¾à®©à®¤à¯ģ": 3785,
    "Ġà®®à®ķà¯įà®ķà®³à®¿à®©à¯į": 3786,
    "Ġà®ķà¯ģà®Łà®¿à®¯à®°à®ļà¯ģà®¤à¯į": 3787,
    "Ġà®°à¯Ģà®¤à®¿à®¯à®¾à®ķ": 3788,
    "Ġà®ĩà®ķà¯įà®ķà®¾à®²à®¤à¯įà®¤à®¿à®©à¯į": 3789,
    "Ġà®ķà¯ģà®´à®¨à¯įà®¤": 3790,
    "Ġà®Ĵà®ªà¯įà®ªà¯Ģà®Łà¯įà®Ł": 3791,
    "à®µà®¿à®²à¯įà®²à¯Ī": 3792,
    "Ġà®ªà®°à®µà®²à®¾à®ķ": 3793,
    "Ġà®ļà¯Ģà®°": 3794,
    "Ġà®¨à¯Ĩà®°": 3795,
    "à®°à®¾à®¤à¯įà®¤": 3796,
    "Ġà®¤à¯ģà®£à¯Īà®ķà¯įà®ķà®": 3797,
    "Ġà®®à¯ĩà®²à¯ģà®®à¯į": 3798,
    "Ġà®ķà¯ģà®±à¯ģà®ķà®¿à®¯": 3799,
    "Ġà®ļà®¾à®¤à®¿": 3800,
    "Ġà®µà¯Ĩà®©à¯įà®±à¯ģà®³à¯įà®³à®¤à¯ģ": 3801,
    "Ġà®ħà®±à®¿à®¯à®ªà¯įà®ªà®Łà¯įà®Ł": 3802,
    "Ġà®ªà®ŀà¯įà®ļà®¾à®ª": 3803,
    "Ġà®¤à¯Ĭà®²à¯Īà®ķà¯įà®ķ": 3804,
    "à¯Īà®ķà¯įà®ķà®ªà¯įà®ªà®Łà¯ģà®®à¯į": 3805,
    "Ġà®ªà¯Ĥà®°à¯įà®µ": 3806,
    "Ġà®µà¯ĩà®³à®¾à®£à¯įà®®à¯Ī": 3807,
    "Ġà®ħà®ķà®£": 3808,
    "Ġà®İà®£à¯įà®£à¯Ĩà®¯": 3809,
    "Ġà®ªà®¾à®ķà¯įà®ķà®¿à®¤à¯įà®¤à®¾à®©à¯į": 3810,
    "Ġà®ħà®Łà®°à¯įà®¤à¯įà®¤": 3811,
    "Ġà®īà®±à®µà¯ģ": 3812,
    "à®īà®®à¯į": 3813,
    "Ġà®ªà®³à¯įà®³": 3814,
    "Ġà®µà®±à¯ģà®®": 3815,
    "Ġà®®à¯Ĥà®²à®®à¯į": 3816,
    "Ġà®Ĩà®Ļà¯įà®ķà®¿à®²": 3817,
    "Ġà®®à¯ģà®´à¯ģà®µà®¤": 3818,
    "Ġà®ĩà®Łà®¤à¯įà®¤à¯Īà®¯à¯ģà®®à¯į": 3819,
    "Ġà®ªà®¿à®°à®ªà®²à®®à®¾à®©": 3820,
    "Ġà®ļà®©à®¨à®¾à®¯": 3821,
    "Ġà®¤à®¾à®ķà¯įà®ķà®®à¯į": 3822,
    "Ġà®ļà®°à®¾à®ļà®°à®¿": 3823,
    "Ġà®ķà¯ĭà®ªà¯įà®ªà¯Ī": 3824,
    "Ġà®ħà®Łà®Ļà¯įà®ķà¯ģà®®à¯į": 3825,
    "Ġà®µà¯ĩà®²à¯Īà®ªà¯įà®ª": 3826,
    "Ġà®µà®²à®¿à®®à¯Īà®¯à®¾à®©": 3827,
    "Ġà®ħà®®à¯Īà®¨à¯įà®¤à¯ģà®³à¯įà®³à®¤à¯ģ": 3828,
    "Ġà®ªà®²à¯įà®µà®ķà¯Īà®®": 3829,
    "Ġà®İà®£à¯įà®£à®¿à®ķà¯įà®ķà¯Īà®¯à®¿à®²à®¾à®©": 3830,
    "Ġà®ķà®¿à®£à¯įà®£": 3831,
    "Ġà®ļà®®à¯Īà®¯à®²à¯į": 3832,
    "Ġà®ļà¯ģà®±à¯įà®±": 3833,
    "Ġà®¤à®ķà®µ": 3834,
    "Ġà®ªà®ķà®¿à®°à¯įà®¨à¯įà®¤à¯ģ": 3835,
    "Ġà®ħà®¤à®¿à®ķà®ªà¯įà®ªà®Łà®¿à®¯à®¾à®©": 3836,
    "Ġà®ªà®¿à®©à¯įà®©à®°à¯į": 3837,
    "Ġà®µà®°à¯įà®ķà¯įà®ķà®¤à¯įà®¤": 3838,
    "Ġà®ļà®®à¯Ģà®ªà®¤à¯įà®¤à®¿à®¯": 3839,
    "Ġà®¤à®µà®¿à®°à¯įà®¤à¯įà®¤": 3840,
    "Ġà®¤à¯Ĩà®©à¯įà®ķ": 3841,
    "Ġà®ĩà®¨à¯įà®¨": 3842,
    "Ġà®¨à®Łà¯ģà®¤à¯įà®¤à®°": 3843,
    "Ġà®¨à®¿à®²à®ªà¯įà®ªà®°à®ªà¯įà®ª": 3844,
    "Ġà®¨à®¾à®Łà¯įà®Łà¯ģà®ªà¯įà®ªà¯ģà®±": 3845,
    "Ġà®ªà®¿à®±à¯įà®ªà®ķà¯ģà®¤": 3846,
    "Ġà®ıà®µà¯ģà®ķà®£": 3847,
    "Ġà®¨à¯Ĩà®°à¯ģà®ķà¯įà®ķà®": 3848,
    "Ġà®ķà¯ģà®ļà®°à®¾à®¤à¯įà®¤": 3849,
    "Ġà®¤à¯ģà®£à¯Īà®ķà¯įà®ķà®£à¯įà®Ł": 3850,
    "Ġà®¤à¯Ĭà®²à¯Īà®ķà¯įà®ķà®¾à®Łà¯įà®ļà®¿": 3851,
    "Ġà®ħà®ķà®£à®¿à®¯": 3852,
    "Ġà®¤à®¾à®©": 3853,
    "à¯ĭà®ķ": 3854,
    "Ġà®Ĩà®ķà¯įà®ķ": 3855,
    "à®µà®°à¯įà®ķà®³à¯į": 3856,
    "à¯Ĥà®Łà¯įà®Ł": 3857,
    "à®¿à®¯à®¤": 3858,
    "à¯ģà®ķà®¿à®±": 3859,
    "à¯ĩà®ļ": 3860,
    "à®°à¯įà®ļ": 3861,
    "64": 3862,
    "Ġ2020": 3863,
    "ĠĊ": 3864,
    "ĠGovernment": 3865,
    "Ġ$": 3866,
    "Ġà¤ĭ": 3867,
    "à¥ĩà¤°": 3868,
    "à¤¾à¤ĸ": 3869,
    "à¥ĭà¤¤": 3870,
    "Ġà¤®à¥ĭ": 3871,
    "à¥ĩà¤ķ": 3872,
    "Ġà¤ªà¥Ī": 3873,
    "à¤®à¤¨": 3874,
    "Ġà¤ķà¤¹": 3875,
    "à¥ĭà¤ª": 3876,
    "Ġà¤¦à¤°": 3877,
    "à¤¿à¤¯à¤¾à¤°": 3878,
    "Ġà¤¨à¤¦": 3879,
    "à¥Ĥà¤²": 3880,
    "à¥Ĥà¤¸": 3881,
    "à¥ĭà¤µ": 3882,
    "Ġà¤¸à¥ĩà¤µ": 3883,
    "Ġà¤Ĺà¥ģà¤": 3884,
    "Ġà¥«": 3885,
    "Ġà¤²à¤¿à¤¯à¤¾": 3886,
    "Ġà¤ķà¤¾à¤®": 3887,
    "Ġà¤¬à¤¨à¥ĩ": 3888,
    "à¤Łà¥ĩ": 3889,
    "Ġà¤ĩà¤¸à¥Ģ": 3890,
    "Ġà¤ķà¤°à¤¨à¤¾": 3891,
    "à¤¾à¤µà¤¾": 3892,
    "Ġà¤¹à¤¿à¤®": 3893,
    "Ġà¤ªà¥įà¤°à¤ķà¤¾à¤°": 3894,
    "Ġà¤ľà¤¾à¤¤à¥ĩ": 3895,
    "Ġà¤µà¤°à¥įà¤Ĺ": 3896,
    "Ġà¤§à¥Ģ": 3897,
    "Ġà¤ħà¤ªà¥įà¤°": 3898,
    "Ġà¤ħà¤ªà¤¨à¥ĩ": 3899,
    "Ġà¤°à¤¹à¥ĩ": 3900,
    "Ġà¤¨à¤¿à¤°": 3901,
    "Ġà¤¨à¤¾à¤Ĺ": 3902,
    "à¥ģà¤¨à¤¿à¤ķ": 3903,
    "Ġà¤īà¤¤à¥įà¤ª": 3904,
    "Ġà¤ħà¤°à¥įà¤¥": 3905,
    "Ġà¤ħà¤ªà¤¨à¥Ģ": 3906,
    "à¥ĭà¤²à¤¨": 3907,
    "Ġà¤¬à¤¡à¤¼à¤¾": 3908,
    "Ġà¤ĩà¤Ĥà¤¡": 3909,
    "Ġà¤µà¥įà¤¯à¤¾à¤ª": 3910,
    "Ġà¥¨à¥¦à¥¦": 3911,
    "Ġà¤¹à¤¥": 3912,
    "Ġà¤ªà¥įà¤²": 3913,
    "à¤¾à¤¡à¤¼": 3914,
    "Ġà¤Īà¤¸à¤¾": 3915,
    "Ġà¤¹à¤¾à¤²à¤¾à¤ģ": 3916,
    "Ġà¤¨à¥įà¤¯à¤¾à¤¯à¤¾à¤²à¤¯": 3917,
    "Ġà¤ªà¤°à¤Ĥà¤ª": 3918,
    "Ġà¤ĺà¥ĭà¤·": 3919,
    "Ġà¤ªà¤¾à¤°à¥įà¤Łà¥Ģ": 3920,
    "à¤§à¤¿à¤ķà¤¾à¤°à¤¿à¤ķ": 3921,
    "Ġà¤ªà¥įà¤°à¤Ńà¤¾à¤µ": 3922,
    "Ġà¤¯à¥Ĥà¤°": 3923,
    "à¤¾à¤ľà¤ªà¤¾": 3924,
    "Ġà¤¸à¤Ĥà¤¯à¥ģà¤ķà¥įà¤¤": 3925,
    "Ġà¤¤à¤®à¤¿à¤²": 3926,
    "à¤¾à¤°à¤®à¥įà¤Ń": 3927,
    "Ġà¤¨à¤¿à¤Ńà¤¾à¤Ī": 3928,
    "Ġà¤Ĺà¤łà¤¬à¤Ĥà¤§à¤¨": 3929,
    "Ġà¤¹à¤¿à¤®à¤¾à¤²à¤¯": 3930,
    "Ġà¤¹à¤¥à¤¿à¤¯à¤¾à¤°": 3931,
    "Ġà¤ªà¥įà¤²à¥ĩà¤Ł": 3932,
    "Ġà¤¹à¤¾à¤²à¤¾à¤ģà¤ķà¤¿": 3933,
    "80": 3934,
    "Ġ1998": 3935,
    "24": 3936,
    "%)": 3937,
    "70": 3938,
    "Ġ2009": 3939,
    "Ġ2003": 3940,
    "Ġ24": 3941,
    "Ġ1990": 3942,
    "bo": 3943,
    "ĠPro": 3944,
    "ue": 3945,
    "are": 3946,
    "Ġbi": 3947,
    "vol": 3948,
    "au": 3949,
    "JP": 3950,
    "Ġthey": 3951,
    "Ġfed": 3952,
    "ving": 3953,
    "oms": 3954,
    "Ġori": 3955,
    "ley": 3956,
    "ists": 3957,
    "Ġlast": 3958,
    "Ġfig": 3959,
    "Ġpain": 3960,
    "ĠIts": 3961,
    "verse": 3962,
    "ature": 3963,
    "emoc": 3964,
    "reated": 3965,
    "Ġarch": 3966,
    "Ġdev": 3967,
    "ĠHindi": 3968,
    "ually": 3969,
    "Ġparty": 3970,
    "Ġmarri": 3971,
    "fore": 3972,
    "Ġcap": 3973,
    "Ġregions": 3974,
    "Ġstates": 3975,
    "Ġrates": 3976,
    "Ġleg": 3977,
    "cess": 3978,
    "minist": 3979,
    "Ġdiff": 3980,
    "Ġago": 3981,
    "Ġreligions": 3982,
    "Ġmajority": 3983,
    "Ġscul": 3984,
    "ĠConstitution": 3985,
    "ĠGanges": 3986,
    "Ġearly": 3987,
    "ĠUnited": 3988,
    "Ġdiversity": 3989,
    "Ġsecond": 3990,
    "Ġancient": 3991,
    "Ġparliamentary": 3992,
    "Ġesp": 3993,
    "Ġmovement": 3994,
    "Ġgrew": 3995,
    "Ġdirect": 3996,
    "ĠEngl": 3997,
    "Ġliteracy": 3998,
    "Ġlocal": 3999,
    "Ġindust": 4000,
    "Ġcensus": 4001,
    "ĠNehr": 4002,
    "Ġpainting": 4003,
    "Ġsculpt": 4004,
    "Ġespec": 4005,
    "ĠEnglish": 4006,
    "ĠNehru": 4007,
    "Ġespecially": 4008,
    "iz": 4009,
    "oin": 4010,
    "ked": 4011,
    "ess": 4012,
    "ines": 4013,
    "ites": 4014,
    "Ġent": 4015,
    "Ġdra": 4016,
    "istic": 4017,
    "ades": 4018,
    "vid": 4019,
    "und": 4020,
    "Ġbir": 4021,
    "Ġher": 4022,
    "abl": 4023,
    "Ġarm": 4024,
    "ific": 4025,
    "ĠJain": 4026,
    "Ġrigh": 4027,
    "ultural": 4028,
    "Ġanimal": 4029,
    "Ġsupport": 4030,
    "work": 4031,
    "Ġoccup": 4032,
    "ĠEurope": 4033,
    "Ġmathemat": 4034,
    "Ġremain": 4035,
    "Ġcontribut": 4036,
    "Ġorigin": 4037,
    "Ġne": 4038,
    "west": 4039,
    "mit": 4040,
    "ven": 4041,
    "str": 4042,
    "ons": 4043,
    "ĠAr": 4044,
    "ĠAct": 4045,
    "16": 4046,
    "72": 4047,
    "Ġ74": 4048,
    "Ġà¤ĳ": 4049,
    "à¤¾à¤¶": 4050,
    "à¥Ģà¤°": 4051,
    "à¤¿à¤ĸ": 4052,
    "à¤¤à¤°": 4053,
    "à¤Ĥà¤ķ": 4054,
    "à¤¤à¤®": 4055,
    "à¤Ĥà¤¶": 4056,
    "à¤Ĥà¤Ł": 4057,
    "à¤Ĥà¤¹": 4058,
    "à¥ĭà¤¹": 4059,
    "Ġà¤ľà¤¾": 4060,
    "Ġà¤¬à¤¾à¤°": 4061,
    "Ġà¤µà¥ĩ": 4062,
    "à¤ªà¤°": 4063,
    "à¤²à¥ĭà¤Ĥ": 4064,
    "à¤¿à¤¯à¤¨": 4065,
    "à¥įà¤¤à¥įà¤°": 4066,
    "à¥įâĢ": 4067,
    "à¥Ģà¤µ": 4068,
    "à¤µà¤²": 4069,
    "Ġà¤µà¤¾à¤²": 4070,
    "à¤Ĺà¤°": 4071,
    "Ġà¤Ĩà¤ķ": 4072,
    "Ġà¤Ĩà¤Ĺ": 4073,
    "Ġà¤īà¤¸": 4074,
    "à¤¾à¤¤à¤¾": 4075,
    "Ġà¤¸à¤Ń": 4076,
    "Ġà¤¸à¤¿à¤¨": 4077,
    "à¥ĩà¤ľ": 4078,
    "Ġà¤ļà¤¾à¤°": 4079,
    "à¤¾à¤¦à¥Ģ": 4080,
    "à¥įà¤¯à¤¤à¤¾": 4081,
    "à¥įà¤¥à¤¾à¤¨": 4082,
    "à¤¸à¥ĩà¤¨à¤¾": 4083,
    "Ġà¤ļà¥Ģà¤¨": 4084,
    "Ġà¤°à¤ĸ": 4085,
    "Ġà¤¸à¥įà¤¤à¤°": 4086,
    "Ġà¥§à¥¯à¥®": 4087,
    "Ġà¥§à¥¯à¥Ń": 4088,
    "Ġà¥§à¥¯à¥¯à¥": 4089,
    "Ġà¤ľà¤¿à¤¸à¤ķà¥ĩ": 4090,
    "Ġà¤ħà¤«": 4091,
    "à¤ķà¤°à¤£": 4092,
    "Ġà¤¸à¤®à¥įà¤ª": 4093,
    "Ġà¤¹à¥ĭà¤¤à¥Ģ": 4094,
    "à¥Īà¤²à¥Ģ": 4095,
    "à¥ĩà¤²à¥Ģ": 4096,
    "à¥ĥà¤¦à¥įà¤§": 4097,
    "Ġà¤Ĺà¤ı": 4098,
    "Ġà¤¬à¤¡à¤¼à¥ĩ": 4099,
    "Ġà¤¬à¤¡à¤¼à¥Ģ": 4100,
    "à¤®à¥įà¤¬": 4101,
    "Ġà¤ħà¤²à¤Ĺ": 4102,
    "Ġà¤ħà¤Ĥà¤Ĺà¥įà¤°à¥ĩà¤ľà¥Ģ": 4103,
    "Ġà¤Ĭà¤ģ": 4104,
    "à¤¾à¤§à¤¿à¤ķ": 4105,
    "Ġà¤ķà¤°à¥įà¤ľ": 4106,
    "à¤¶à¤¾à¤¸à¤¿à¤¤": 4107,
    "à¥ĥà¤·à¥įà¤Ł": 4108,
    "Ġà¤µà¥įà¤¯à¤µà¤¸à¥įà¤¥à¤¾": 4109,
    "Ġà¤Ĺà¤¾à¤Ĥ": 4110,
    "Ġà¤¸à¤¹à¤¯à¥ĭà¤Ĺ": 4111,
    "Ġà¤¶à¥ģà¤°à¥Ĥ": 4112,
    "Ġà¤µà¤¿à¤¸à¥įà¤¤à¥ĥà¤¤": 4113,
    "Ġà¤¤à¥Ģà¤¸": 4114,
    "à¤¸à¤Ńà¤¾": 4115,
    "Ġà¤¬à¤¹à¥ģà¤®à¤¤": 4116,
    "Ġà¤ķà¥ĩà¤¨à¥įà¤¦à¥įà¤°": 4117,
    "à¤¾à¤¦à¥įà¤µà¥Ģà¤ª": 4118,
    "Ġà¤¯à¥ģà¤Ĺ": 4119,
    "à¤ªà¤¾à¤²à¤¿à¤ķà¤¾": 4120,
    "Ġà¤²à¤Ĺà¤Ńà¤Ĺ": 4121,
    "Ġà¤ķà¤¿à¤¨à¥įà¤¤à¥ģ": 4122,
    "Ġà¤¡à¥īà¤²": 4123,
    "Ġà¤µà¤¿à¤¦à¥ĩà¤¶à¥Ģ": 4124,
    "Ġà¤§à¥Ģà¤°à¥ĩ": 4125,
    "Ġà¤ħà¤°à¥įà¤¥à¤µà¥įà¤¯": 4126,
    "Ġà¤Ĩà¤§à¤¿à¤ķà¤¾à¤°à¤¿à¤ķ": 4127,
    "Ġà¤ªà¥įà¤°à¤¾à¤°à¤®à¥įà¤Ń": 4128,
    "à¥įâĢį": 4129,
    "Ġà¤Ĺà¤¾à¤Ĥà¤§à¥Ģ": 4130,
    "Ġà¤¡à¥īà¤²à¤°": 4131,
    "Ġ25": 4132,
    "Ġ1200": 4133,
    "35": 4134,
    "Ġ100": 4135,
    "40": 4136,
    "Ġ28": 4137,
    "Łà®¿": 4138,
    "à¯įà®¤à®¿": 4139,
    "¯à®±": 4140,
    "à®¤à¯įà®¤à¯ģ": 4141,
    "à®²à®¿à®©à¯į": 4142,
    "Ġà®¤à®³": 4143,
    "à¯ĭà®Łà¯įà®Ł": 4144,
    "à¯ĭà®®": 4145,
    "Ġà®ħà®ļ": 4146,
    "à¯Ģà®µ": 4147,
    "Ġà®µà®¿à®¤": 4148,
    "à¯ģà®¤à¯įà®¤à¯ģà®µ": 4149,
    "à¯įà®µà¯ģ": 4150,
    "à¯įà®µà®©": 4151,
    "à®¾à®Łà¯įà®Łà¯Ī": 4152,
    "à¯Īà®ªà¯įà®ªà®Ł": 4153,
    "à®¾à®³à®°à¯į": 4154,
    "Ġà®¤à®¾à®¯": 4155,
    "Ġà®µà¯Ĩà®Łà¯įà®Ł": 4156,
    "Ġà®İà®Łà¯ģà®¤à¯įà®¤": 4157,
    "Ġà®¤à¯Ĭà®Łà®°à¯įà®ķà®³": 4158,
    "Ġà®ĩà®¨à¯įà®¤à®¿à®¯à®°à¯įà®ķà®³": 4159,
    "à¯Īà®µà®©": 4160,
    "Ġà®ıà®´": 4161,
    "Ġà®¤à®¿à®ļ": 4162,
    "Ġà®ĩà®²à¯įà®²": 4163,
    "Ġà®īà®£à¯įà®®": 4164,
    "à®ķà®µà¯ģà®®à¯į": 4165,
    "à®¿à®ķà¯įà®ķà®ªà¯įà®ªà®Ł": 4166,
    "Ġà®ħà®Łà¯Īà®¨à¯įà®¤": 4167,
    "Ġà®ĩà®¯à®±à¯įà®±": 4168,
    "Ġà®Ĩà®ļà®¿à®¯à®¾à®µ": 4169,
    "Ġà®¤à¯Ģà®µ": 4170,
    "Ġà®ļà¯Ĭà®²à¯įà®²": 4171,
    "Ġà®¤à®¿à®±à®©": 4172,
    "à®®à®¯à®®à®¾à®ķ": 4173,
    "Ġà®¨à®Łà¯Īà®ª": 4174,
    "Ġà®ıà®±à¯įà®ªà®Łà¯ģà®¤à¯įà®¤": 4175,
    "Ġà®µà®Łà®®à¯ĩ": 4176,
    "Ġà®¤à®ķà¯įà®ķà®¾à®£": 4177,
    "Ġà®®à¯ģà®ķà¯įà®ķà®¿à®¯à®¤à¯įà®¤à¯ģà®µ": 4178,
    "Ġà®ªà®¾à®°à®ļà¯Ģà®ķ": 4179,
    "Ġà®®à¯ģà®¯à®±": 4180,
    "Ġà®¨à®Łà¯Īà®ªà¯Ĩ": 4181,
    "Ġà®µà®Łà®®à¯ĩà®±à¯įà®ķ": 4182,
    "à¯ģà®ķà®¿à®°": 4183,
    "Ġà®®à®£à¯įà®Ł": 4184,
    "à®£à¯įà®Łà¯Ī": 4185,
    "Ġà®µà®¯": 4186,
    "Ġà®ķà®ļ": 4187,
    "à®¤à¯ģà®ķà¯įà®ķ": 4188,
    "à¯ģà®ķà¯įà®ķà®¾à®ķ": 4189,
    "Ġà®¨à®¿à®¤": 4190,
    "Ġà®ªà¯ĭà®°à¯į": 4191,
    "Ġà®ªà¯ĭà®²": 4192,
    "Ġà®¤à®±à¯įà®ķ": 4193,
    "Ġà®ļà®®à®ļ": 4194,
    "à¯Īà®ķà®³à®¾à®²à¯į": 4195,
    "Ġà®ļà¯Ĩà®©à¯įà®±": 4196,
    "Ġà®ĩà®¤à¯ĩ": 4197,
    "à®ļà®¾à®¯": 4198,
    "à®¾à®ķà®ļà¯į": 4199,
    "à®Ļà¯įà®ķà®³à¯Īà®ªà¯į": 4200,
    "à®¿à®ķà¯įà®ķà®¿à®±à®¤à¯ģ": 4201,
    "Ġà®ķà®¾à®²à®®à®¾à®©à®¤à¯ģ": 4202,
    "Ġà®ĩà®µà®±à¯įà®±": 4203,
    "Ġà®ĩà®µà®°à¯į": 4204,
    "Ġà®ĩà®¨à¯įà®¤à®¿à®¯à®°à¯įà®ķà®³à¯į": 4205,
    "Ġà®Ĳà®¨à¯įà®¤": 4206,
    "Ġà®ªà®°à®¨à¯įà®¤": 4207,
    "Ļà¯įà®ķà¯ģ": 4208,
    "Ġà®ªà®ķà¯ģà®¤à®¿à®ķà®³à¯į": 4209,
    "Ġà®ķà¯Ĥà®±": 4210,
    "Ġà®ĩà®¤à¯Īà®¤à¯į": 4211,
    "Ġà®¨à®¿à®²à¯Īà®¯à®¾à®©": 4212,
    "à®®à¯Īà®¯à®¾à®©": 4213,
    "Ġà®ĩà®¤à®±à¯įà®ķà¯ģ": 4214,
    "Ġà®¤à®¾à®£à¯įà®Ł": 4215,
    "Ġà®ªà®ķà¯ģà®¤à®¿à®¯à®¾à®ķ": 4216,
    "à¯ģà®°à¯ģà®µ": 4217,
    "Ġà®®à®¿à®ķà®ķà¯į": 4218,
    "Ġà®ķà¯ģà®ª": 4219,
    "Ġà®ķà¯ģà®ªà¯įà®¤": 4220,
    "Ġà®®à®¿à®ķà®µà¯ģà®®à¯į": 4221,
    "Ġà®ªà¯Ĩà®±à¯įà®±à¯ģà®³à¯įà®³à®¤à¯ģ": 4222,
    "Ġà®ªà®¾à®°à®®à¯įà®ªà®°à®¿à®¯à®®à®¾à®ķ": 4223,
    "Ġà®®à¯Ĭà®´à®¿": 4224,
    "Ġà®ļà¯Ĩà®©à¯įà®©": 4225,
    "à®©à¯įà®©à®¾à®Łà¯įà®Łà¯ģ": 4226,
    "Ġà®®à®ķà®³": 4227,
    "Ġà®µà®Łà®¿à®µà®Ļà¯įà®ķà®³à¯į": 4228,
    "Ġà®ľà®µ": 4229,
    "Ġà®ħà®µà®°à¯įà®ķà®³à¯į": 4230,
    "Ġà®¨à®¿à®²à¯Īà®¯à¯Ī": 4231,
    "Ġà®ªà®¿à®°à®¿à®ķà¯įà®ķà®ªà¯įà®ªà®Łà¯įà®Ł": 4232,
    "Ġà®ªà¯Ĩà®°à¯ģà®®à¯įà®ªà®¾à®²à¯ģà®®à¯į": 4233,
    "Ġà®ªà®°à®µà®¿à®¯à®¤à¯ģ": 4234,
    "Ġà®ªà®£à¯įà®ªà®¾à®Łà¯įà®Łà¯ģ": 4235,
    "Ġà®ļà®®à¯Īà®ķà¯įà®ķà®ªà¯įà®ªà®Łà¯įà®Ł": 4236,
    "Ġà®¤à¯Ĭà®Łà¯ģà®ķà®": 4237,
    "Ġà®®à¯ĩà®±à¯įà®ķà¯ĩ": 4238,
    "Ġà®ªà¯ģà®µà®¿à®¤à¯į": 4239,
    "Ġà®¨à®¾à®Łà¯ģà®ķà®³à®¿à®©à¯į": 4240,
    "Ġà®īà®°à¯ģà®µà®¾à®ķà¯įà®ķà®¿à®¯à®¤à¯ģ": 4241,
    "Ġà®¤à¯Ĭà®Łà®ķà¯įà®ķà®¤à¯įà®¤à®¿à®²à¯į": 4242,
    "Ġà®ķà¯Ĭà®³à¯įà®³": 4243,
    "Ġà®ļà¯Ĩà®²à®µà¯Ģà®©": 4244,
    "Ġà®¤à¯Ĩà®±à¯įà®ķà¯ĩ": 4245,
    "Ġà®ķà®¾à®£à®ªà¯įà®ªà®Łà¯ģà®ķà®¿à®±à®¤à¯ģ": 4246,
    "Ġà®ķà®¿à®´à®ķà¯įà®ķà¯ĩ": 4247,
    "Ġà®ªà®£à¯įà®ªà®¾à®Łà¯ģ": 4248,
    "Ġà®Ĵà®ªà¯įà®ªà®¨à¯įà®¤": 4249,
    "à®ĩà®¨à¯įà®¤à®¿à®¯": 4250,
    "à®ĩà®¨à¯įà®¤à®¿à®¯à®¾": 4251,
    "Ġà®ķà¯Ĥà®Łà¯įà®Łà®£à®¿": 4252,
    "Ġà®ªà®°à®µà®²à®¾à®©": 4253,
    "Ġà®ªà®¾à®¤à¯ģà®ķà®¾à®ªà¯įà®ªà¯ģ": 4254,
    "Ġà®ªà®¾à®¤à¯ģà®ķà®¾à®ªà¯įà®ªà¯ģà®ļà¯į": 4255,
    "Ġà®ªà®Łà®¿à®ªà¯įà®ª": 4256,
    "Ġà®ļà®¤à¯ģà®°": 4257,
    "Ġà®ħà®°à¯ģà®ķà®¿à®¯": 4258,
    "Ġà®ķà®¾à®Łà¯ģà®ķà®³à¯į": 4259,
    "à®¤à¯ģà®ķà¯įà®ķà®ªà¯įà®ªà®Łà¯įà®Ł": 4260,
    "Ġà®ªà¯Ĩà®°à¯ģà®®à¯įà®ªà®¾à®©à¯įà®®à¯Ī": 4261,
    "Ġà®ªà¯Įà®¤à¯įà®¤à®®à¯į": 4262,
    "Ġà®ªà¯ĭà®Łà¯įà®Łà®¿à®ķà®³à®¿à®²à¯į": 4263,
    "Ġà®µà®¿à®²à®Ļà¯įà®ķ": 4264,
    "Ġà®¨à®Łà®©à®®à¯į": 4265,
    "à®ªà¯įà®ªà¯Ĥà®°à¯įà®µ": 4266,
    "Ġà®ªà¯ģà®µà®¿à®¯à®¿à®¯à®²à¯į": 4267,
    "Ġà®Ĳà®¨à¯įà®¤à¯ģ": 4268,
    "Ġà®ķà®£à®ķà¯įà®ķà¯Ĩà®Łà¯ģà®ªà¯įà®ªà®¿à®©à¯į": 4269,
    "à®µà®°à¯įà®ķà®³à®¾à®ķ": 4270,
    "Ġà®ļà¯ĩà®µà¯Īà®¯": 4271,
    "à¯įà®¤à®¿à®°à¯ģà®¤à¯įà®¤": 4272,
    "Ġà®Ĩà®£à¯įà®ķà®³à¯į": 4273,
    "Ġà®ļà¯Ĩà®µà¯įà®µ": 4274,
    "Ġà®Ĳà®ļ": 4275,
    "Ġà®¤à¯Ĭà®Łà®°à¯įà®ļà¯įà®ļà®¿à®¯": 4276,
    "Ġà®Ĩà®£à¯įà®ķà®³à¯ģà®ķà¯įà®ķà¯ģ": 4277,
    "à®¾à®ķà®µà¯ĩ": 4278,
    "Ġà®ħà®®à¯Īà®¤à¯įà®¤à®¤à¯ģ": 4279,
    "Ġà®ħà®¨à¯įà®¤à®®à®¾à®©": 4280,
    "Ġà®ħà®µà®±à¯įà®±à®¿à®©à¯į": 4281,
    "Ġà®ĩà®£à¯Īà®¯à®¤à¯įà®¤": 4282,
    "Ġà®®à®°à¯ģà®¨à¯įà®¤": 4283,
    "Ġà®¨à¯ĭà®ķà¯įà®ķà®¿": 4284,
    "Ġà®¤à®©à®¿à®¤à¯įà®¤à¯ģà®µ": 4285,
    "Ġà®ķà®¿à®Łà¯įà®Łà®¤à¯įà®¤": 4286,
    "Ġà®ĩà®±à¯ģà®¤à®¿à®¯à®¾à®ķ": 4287,
    "Ġà®ªà¯Ĩà®°à¯ģà®Ļà¯įà®ķà®Ł": 4288,
    "Ġà®¨à®©à¯įà®±à®¾à®ķ": 4289,
    "Ġà®¤à®¿à®ķà®´": 4290,
    "Ġà®®à¯ģà®Łà®¿à®¨à¯įà®¤à®¤à¯ģ": 4291,
    "Ġà®®à¯ĩà®±à¯įà®ķà¯Ĭà®£à¯įà®Ł": 4292,
    "Ġà®Ĵà®ªà¯įà®ªà¯Ģà®Łà¯įà®Łà®³à®µà®¿à®²à¯į": 4293,
    "Ġà®®à¯ģà®´à¯ģà®µà®¤à¯ģà®®à¯į": 4294,
    "Ġà®ļà¯ģà®±à¯įà®±à®¿": 4295,
    "Ġà®ªà®¿à®±à¯įà®ªà®ķà¯ģà®¤à®¿à®¯à®¿à®²à¯į": 4296,
    "à¯ģà®ķà®¿à®±à®¾à®°à¯į": 4297,
    "Ġà®ªà®¾à®²à¯Īà®µà®©": 4298,
    "à¯ģà®ķà®¿à®°à¯ģà®¤": 4299,
    "Ġà®ªà®´à®®à¯Īà®¯à®¾à®©": 4300,
    "Ġà®ļà¯Ĩà®©à¯įà®©à¯Ī": 4301,
    "Ġà®¤à¯Ĭà®Łà¯ģà®ķà®±": 4302,
    "Ġà®ļà¯Ģà®°à¯įà®¤à®¿à®°à¯ģà®¤à¯įà®¤": 4303,
    "Ġà®ļà¯Ĩà®µà¯įà®µà®¿à®¯à®²à¯į": 4304,
    "Ġà®Ĳà®ļà®¿à®ļà®¿": 4305,
    "Ġà®ħà®¨à¯įà®¤à®®à®¾à®©à¯į": 4306,
    "Ġà®¤à®©à®¿à®¤à¯įà®¤à¯ģà®µà®®à®¾à®©": 4307,
    "Ġà®ķà®¿à®Łà¯įà®Łà®¤à¯įà®¤à®Łà¯įà®Ł": 4308,
    "Ġà®ļà®®à®ļà¯ģà®ķà®¿à®°à¯ģà®¤": 4309,
    "à®¾à®°à®®à¯į": 4310,
    "Ġà®ķà®®": 4311,
    "Ġà®Ĵà®¤à¯įà®¤": 4312,
    "Ġà®İà®³": 4313,
    "à®²à¯įà®µ": 4314,
    "°à¯įà®µ": 4315,
    "à¯ģà®ķà®°à¯įà®µ": 4316,
    "Ġà®¨à¯ģà®ķà®°à¯įà®µ": 4317,
    "à®Łà®Ļà¯įà®ķ": 4318,
    "à®¤à®¾à®²à¯į": 4319,
    "à¯įà®¨à¯įà®¤à®¤à¯ģ": 4320,
    "à®¿à®ļà¯į": 4321,
    "Ġà®®à¯ĩà®²": 4322,
    "à¯ĩà®ļà®¿à®¯": 4323,
    "à®¨à®¿à®²": 4324,
    "à®ªà®Łà¯įà®ļ": 4325,
    "à®°à®¾à®ķà®µà¯ģà®®à¯į": 4326,
    "à®®à¯Īà®ªà¯įà®ªà¯ģ": 4327,
    "à®Łà¯Īà®¨à¯įà®¤à®¤à¯ģ": 4328,
    "Ġà®ħà®°à®ļà®¾à®Ļà¯įà®ķà®": 4329,
    "à®¤à®¿à®²à¯į": 4330,
    "à®¾à®Łà¯ģà®ķà®³": 4331,
    "à¯ģà®¨": 4332,
    "46": 4333,
    "Ġ29": 4334,
    "Ġ1977": 4335,
    "Ġ0": 4336,
    "Ġ2006": 4337,
    "Ġ22": 4338,
    "Ġ2016": 4339,
    "Ġ1999": 4340,
    "Ġ1960": 4341,
    "à°ĩ": 4342,
    "Łà±į": 4343,
    "à±ĥà°¤": 4344,
    "à±Ģà°": 4345,
    "Ġà°ķà±įà°°": 4346,
    "à°¾à°¨à°Ĥ": 4347,
    "Ġà°¬à°Ĥà°Ĺ": 4348,
    "SB": 4349,
    "à±įà°³": 4350,
    "à±įà°ĺ": 4351,
    "à°Ĥà°Ń": 4352,
    "à°²à°¿": 4353,
    "à±ĩà°²": 4354,
    "à°¾à°°à°¿": 4355,
    "à°¾à°°à±į": 4356,
    "à°ķà°¿": 4357,
    "à°°à±ĩà°": 4358,
    "à±ĩà°ª": 4359,
    "à±ĩà°¸": 4360,
    "à±ĩà°·": 4361,
    "à±ĩà°ľ": 4362,
    "à°®à°²": 4363,
    "à°®à°¨": 4364,
    "Ġà°®à±Ģ": 4365,
    "Ġà°ªà±įà°°à°¾à°°": 4366,
    "à°ªà°¾": 4367,
    "à°ªà°¡": 4368,
    "Ġà°ħà°²": 4369,
    "à°ªà±Ĥ": 4370,
    "à±Ĥà°²": 4371,
    "Ġà°®à±Ī": 4372,
    "à±Īà°ª": 4373,
    "à±Īà°Ł": 4374,
    "à°¿à°¨à±Ģ": 4375,
    "Ġà°ķà°¨à±įà°¨": 4376,
    "Ġà°®à°Ĥà°¦à°¿": 4377,
    "Ġà°ªà°Ĥà°ļ": 4378,
    "à°¾à°¤à±ĭ": 4379,
    "Ġà°ªà±įà°°à°¦à±ĩà°¶": 4380,
    "Ġà°°à°Ĥà°Ĺ": 4381,
    "Ġà°ļà°¾à°²": 4382,
    "à°¨à°²à±ĭ": 4383,
    "à°¨à±ģà°²à±ģ": 4384,
    "Ġà°īà°Ĥà°¡": 4385,
    "Ġà°ħà°¹": 4386,
    "Ġà°¸à°¹": 4387,
    "à°¸à°°": 4388,
    "à°¸à±įà°°": 4389,
    "Ġà°Ĩà°¹": 4390,
    "à°Ĺà°£": 4391,
    "à°ļà±ĩ": 4392,
    "Ġà°Ĺà±įà°°": 4393,
    "Ġà°Ĺà±ģ": 4394,
    "Ġà°Ĺà°£": 4395,
    "à°¯à°¿à°Ĥà°¦à°¿": 4396,
    "Ġà°¸à±Īà°¨": 4397,
    "à±Ĥà°°à±ģ": 4398,
    "Ġà°ľà°°à±ģ": 4399,
    "Ġà°¸à°Ĥà°¬": 4400,
    "Ġà°¦à±ĩà°¶à°Ĥà°Ĺà°¾": 4401,
    "à°Ĥà°Łà°¾à°°à±ģ": 4402,
    "à°ķà±įà°·à°Ĥ": 4403,
    "à±įâĢĮà°²": 4404,
    "Ġà°¦à°¾à°¦": 4405,
    "à°¿à°ªà°¾à°²": 4406,
    "à°¿à°ªà±ģ": 4407,
    "Ġà°¹à±Ī": 4408,
    "Ġà°¨à°¿à°¯": 4409,
    "à±ģà°²à°ķà±ģ": 4410,
    "Ġà°ķà±ģà°²": 4411,
    "à°¿à°²à±į": 4412,
    "à±Ĩà°Łà±įà°Ł": 4413,
    "Ġà°®à°°": 4414,
    "Ġà°°à°¾à°ľà±ģ": 4415,
    "Ġà°ªà°°à°Ĥà°Ĺà°¾": 4416,
    "à°µà°ļà±įà°ļ": 4417,
    "Ġà°Ńà°¾à°µ": 4418,
    "à°¿à°°à±ģ": 4419,
    "Ġà°¶à±įà°°à±Ģ": 4420,
    "à°³à°¿": 4421,
    "à±įà°®à±Ģ": 4422,
    "Ġà°ľà°¨à±įà°®": 4423,
    "à°¾à°¤à±įà°®": 4424,
    "Ġà°ķà°¿à°Ĥà°¦": 4425,
    "Ġà°®à°Ĥà°¤à±įà°°": 4426,
    "Ġà°Ńà±Į": 4427,
    "Ġà°®à±Į": 4428,
    "Ġà°¹à°¿à°®": 4429,
    "à°¾à°²à°¨à±ĩ": 4430,
    "à°ªà±ģà°ķà±ģ": 4431,
    "Ġà°İà°¨à±įà°¨à°¿à°ķ": 4432,
    "à±įà°¯à°µà°¸à±įà°¥": 4433,
    "à±ģà°ķà±Ĭ": 4434,
    "Ġà°ķà°²à±įà°ª": 4435,
    "Ġà°Ńà°¿à°¨à±įà°¨": 4436,
    "Ġà°¦à±ĩà°¶à°¾à°¨à°¿à°ķà°¿": 4437,
    "Ġà°µà°¾à°£": 4438,
    "Ġà°¹à°¿à°Ĥà°¦à±Ģ": 4439,
    "à°°à±ģà°·": 4440,
    "Ġà°¨à°¾à°Ĺ": 4441,
    "à°¾à°Ĺà°Ĥ": 4442,
    "Ġà°ķà±ĭà°²": 4443,
    "Ġà°®à°¤à°¾à°²à±ģ": 4444,
    "Ġà°®à±Ĭà°Łà±įà°Ł": 4445,
    "Ġà°ľà°Ĥà°¬": 4446,
    "Ġà°ķà±Ĥà°¡à±ģà°ķà±ģ": 4447,
    "Ġà°¶à±Ĩà°²": 4448,
    "Ġà°ĩà°µà°¿": 4449,
    "à°²à±įà°²à±ĭ": 4450,
    "à°¿à°Ĥà°ļà°¬à°¡": 4451,
    "Ġà°µà±įà°¯à°µà°¸à±įà°¥à°²à±ĭ": 4452,
    "Ġà°µà±Ģ": 4453,
    "Ġà°¦à°ķà±įà°·à°¿à°£à°¾à°¸": 4454,
    "à°µà°¿à°§": 4455,
    "Ġà°¸à°®à°¾à°": 4456,
    "Ġà°°à°¾à°ľà±įà°¯à°¾à°Ĥà°Ĺ": 4457,
    "Ġà°®à±Ĭà°¦à°Łà°¿": 4458,
    "Ġà°¤à°ķà±įà°ķà±ģà°µ": 4459,
    "Ġà°¹à°¿à°Ĥà°¦à±Ĥà°¦à±ĩà°¶à°Ĥ": 4460,
    "Ġà°¶à°¾à°ĸ": 4461,
    "à±įà°¸à±į": 4462,
    "Ġà°¨à°¾à°²à±ģ": 4463,
    "Ġà°¸à°Ĥà°¸à±įà°ķà±ĥ": 4464,
    "Ġà°¸à±įà°¥à°¾à°¨à°Ĥà°²à±ĭ": 4465,
    "à°²à°Ĥà°ª": 4466,
    "Ġà°ķà°Ĥà°ª": 4467,
    "Ġà°µà±įà°¯à°¾à°ª": 4468,
    "à±ģà°¤à±ģà°Ĥà°¦à°¿": 4469,
    "Ġà°¦à±įà°µà°¾à°°": 4470,
    "Ġà°īà°Ĥà°Łà±ģà°Ĥà°¦à°¿": 4471,
    "Ġà°¨à°¿à°°à±įà°®": 4472,
    "Ġà°ķà±įà°°à±Ģà°¡à°²à±ģ": 4473,
    "Ġà°¤à°°à±ģà°µà°¾à°¤à°¿": 4474,
    "Ġà°¤à±Ĩà°²à±ģ": 4475,
    "Ġà°®à±ģà°ĸà±įà°¯à°®à±Īà°¨": 4476,
    "Ġà°ĩà°Ĥà°Ĺà±įà°²": 4477,
    "Ġà°¬à°Ĥà°Ĺà±įà°²": 4478,
    "à°¿à°¯à°¾à°²à±ĭ": 4479,
    "Ġà°¸à°¾à°Ĥà°¸à±įà°": 4480,
    "Ġà°ķà°¥": 4481,
    "à°¿à°ľà±įà°¯": 4482,
    "à°Łà°°à±įà°²": 4483,
    "Ġà°Ńà°¾à°Ĺà°Ĥ": 4484,
    "Ġà°ıà°°à±įà°ªà°¡à±įà°¡": 4485,
    "Ġà°¶à°¾à°¸à±įà°¤à±įà°°": 4486,
    "Ġà°¸à°¿à°¨à°¿à°®à°¾à°²à±ģ": 4487,
    "Ġà°ķà°²à°¿à°¸": 4488,
    "à°®à±ĩà°¨": 4489,
    "Ġà°ªà°¤à°ķà°¾à°²à±ģ": 4490,
    "Ġà°®à±Ĭà°¦à°²à±Īà°¨": 4491,
    "Ġà°ªà°Łà±įà°Łà°£à°¾à°²à±ģ": 4492,
    "Ġà°¸à°¿à°Ĥà°§à±ģ": 4493,
    "à°°à°¿à°ķà°¤": 4494,
    "à±Ĩà°Łà±į": 4495,
    "Ġà°¬à°¹à±ģà°³": 4496,
    "Ġà°µà°°à±įà°Ĺ": 4497,
    "Ġà°¸à°®à±ģà°¦": 4498,
    "Ġà°ªà°¦à±įà°§à°¤": 4499,
    "Ġà°ªà°¾à°ķà°¿à°¸à±įà°¤à°¾à°¨à±į": 4500,
    "Ġà°ļà±ĩà°¸à°¿à°Ĥà°¦à°¿": 4501,
    "à°¿à°¦à±įà°§à°¿": 4502,
    "Ġà°²à±ĩà°¦": 4503,
    "Ġà°¨à°Ĺà°°à°¾à°²à±ģ": 4504,
    "à°µà±Ĩ": 4505,
    "Ġà°µà°¿à°¦à±įà°¯": 4506,
    "Ġà°¸à±įà°µà°¾à°¤à°Ĥà°¤à±įà°°à±įà°¯": 4507,
    "Ġà°ªà°Ĥà°¡à±ģà°Ĺà°²à±ģ": 4508,
    "Ġà°°à±Īà°²à±įà°µà±ĩ": 4509,
    "Ġà°µà±Ĩà°¬à±įâĢĮà°¸": 4510,
    "Ġà°¨à°¿à°°à±įà°µà°¹à°£": 4511,
    "Ġà°¤à°®à°¿à°³à°Ĥ": 4512,
    "Ġà°ªà±įà°°à°§à°¾à°¨à°®à°Ĥà°¤à±įà°°à°¿": 4513,
    "Ġà°ķà°¾à°¶": 4514,
    "Ġà°ķà±ĩà°µ": 4515,
    "Ġà°ķà±įà°¯à°¾à°²": 4516,
    "Ġà°¸à±Ĥà°ļ": 4517,
    "à°¦à°¿à°¨à°¾à°²à±ģ": 4518,
    "Ġà°ªà±Ĭà°Ĥà°¦à°¿à°¨": 4519,
    "Ġà°Ĺà°¾à°Ĥà°§": 4520,
    "Ġà°µà°¿à°Ńà°¿à°¨à±įà°¨": 4521,
    "Ġà°¸à°Ĥà°ķà±Ģà°°à±įà°£": 4522,
    "Ġà°ķà°¾à°°à°£à°Ĥà°Ĺà°¾": 4523,
    "Ġà°ªà±įà°°à°¤à°¿à°ªà°¾à°¦à°¨": 4524,
    "Ġà°īà°ªà°ĸà°Ĥà°¡": 4525,
    "à°Ĺà±ĭà°³": 4526,
    "Ġà°°à±Īà°³à±įà°²à°¨à±ģ": 4527,
    "à±Ģà°·à±ģ": 4528,
    "à°¾à°°à°¿à°¤à±įà°°à°ķ": 4529,
    "Ġà°®à±ģà°Ĥà°¬à±Ī": 4530,
    "Ġà°ķà°¾à°°à±įà°¯à°ķà±įà°°à°®": 4531,
    "Ġà°ĩà°¸à±įà°²": 4532,
    "Ġà°°à±ĭà°¡à±įà°¡à±ģ": 4533,
    "Ġà°ªà°°à°¿à°¶à±įà°°à°®à°²à±ģ": 4534,
    "Ġà°ªà°¾à°ķà°¿à°¸à±įà°¥à°¾à°¨à±į": 4535,
    "Ġà°µà±ĩà°Ĺà°Ĥà°Ĺà°¾": 4536,
    "Ġà°ªà±ĩà°°à±įà°ķà±Ĭ": 4537,
    "Ġà°¸à°°à±įà°µà±Ģà°¸à±ģà°²à±ģ": 4538,
    "Ġà°¸à°¾à°Ĥà°ªà±įà°°à°¦à°¾à°¯à°¿à°ķ": 4539,
    "Ġà°ªà±įà°°à°ľà°¾à°¸à±įà°µà°¾à°®à±įà°¯": 4540,
    "Ġà°¸à°Ĥà°ªà±įà°°à°¦à°¾à°¯à°¾à°²à±ģ": 4541,
    "à°Ĺà±įà°Ĺ": 4542,
    "Ġà°Ĵà°ķà°Łà°¿à°Ĺà°¾": 4543,
    "Ġà°¨à±ģà°Ĥà°ļà°¿": 4544,
    "Ġà°ªà±Ģà°": 4545,
    "SBN": 4546,
    "Ġà°Ĩà°«à±įà°ĺ": 4547,
    "Ġà°¨à±ĩà°ª": 4548,
    "Ġà°ªà±įà°°à°¾à°°à°Ĥà°Ń": 4549,
    "Ġà°ļà°¾à°²à°¾": 4550,
    "Ġà°ľà°¨à°Ĺà°£": 4551,
    "Ġà°Ĺà±ģà°°à±įà°¤": 4552,
    "Ġà°¸à°Ĥà°¬à°Ĥà°§": 4553,
    "Ġà°¦à°¾à°¦à°¾à°ª": 4554,
    "Ġà°ªà°°à°¿à°ªà°¾à°²": 4555,
    "Ġà°¹à°¿à°®à°¾à°²": 4556,
    "Ġà°ľà°°à±ģà°ªà±ģà°ķà±ģ": 4557,
    "Ġà°ªà±ģà°°à±ģà°·": 4558,
    "Ġà°®à±Ĭà°Łà±įà°Łà°®": 4559,
    "Ġà°ľà°Ĥà°¬à±Ĥ": 4560,
    "Ġà°¶à±Ĩà°²à°µà±ģ": 4561,
    "Ġà°µà±Ģà°Ł": 4562,
    "Ġà°¦à°ķà±įà°·à°¿à°£à°¾à°¸à°¿à°¯à°¾": 4563,
    "Ġà°µà±Īà°µà°¿à°§": 4564,
    "Ġà°¸à°®à°¾à°ĸà±įà°¯": 4565,
    "Ġà°¨à°¾à°²à±ģà°Ĺà±ģ": 4566,
    "Ġà°¸à°Ĥà°¸à±įà°ķà±ĥà°¤à°¿": 4567,
    "Ġà°ķà°Ĥà°ªà±Ĩ": 4568,
    "Ġà°¦à±įà°µà°¾à°°à°¾": 4569,
    "Ġà°¤à±Ĩà°²à±ģà°Ĺà±ģ": 4570,
    "Ġà°¬à°Ĥà°Ĺà±įà°²à°¾à°¦à±ĩà°¶": 4571,
    "Ġà°¸à°¾à°Ĥà°¸à±įà°ķà±ĥà°¤": 4572,
    "Ġà°µà°¾à°£à°¿à°ľà±įà°¯": 4573,
    "Ġà°¶à°¾à°¸à±įà°¤à±įà°°à±Ģà°¯": 4574,
    "Ġà°¨à°¾à°Ĺà°°à°¿à°ķà°¤": 4575,
    "Ġà°²à±ĩà°¦à°¾": 4576,
    "à°µà±Ĩà°¨à±ģà°ķ": 4577,
    "Ġà°µà±Ĩà°¬à±įâĢĮà°¸à±Ī": 4578,
    "Ġà°ķà°¾à°¶à±įà°®à±Ģ": 4579,
    "Ġà°ķà±ĩà°µà°²à°Ĥ": 4580,
    "Ġà°ķà±įà°¯à°¾à°²à±Ĩà°Ĥà°¡": 4581,
    "Ġà°Ĺà°¾à°Ĥà°§à±Ģ": 4582,
    "Ġà°ĩà°¸à±įà°²à°¾à°®": 4583,
    "Ġà°ªà±Ģà°ł": 4584,
    "Ġà°®à±Ĭà°Łà±įà°Łà°®à±Ĭ": 4585,
    "Ġà°µà±Ģà°Łà°¿à°²à±ĭ": 4586,
    "Ġà°¸à°¾à°Ĥà°¸à±įà°ķà±ĥà°¤à°¿à°ķ": 4587,
    "à°µà±Ĩà°¨à±ģà°ķà°Łà°¿": 4588,
    "Ġà°µà±Ĩà°¬à±įâĢĮà°¸à±Īà°Łà±ģ": 4589,
    "Ġà°ķà±įà°¯à°¾à°²à±Ĩà°Ĥà°¡à°°à±į": 4590,
    "Ġà°ĩà°¸à±įà°²à°¾à°®à°¾à°¬à°¾à°¦à±į": 4591,
    "Ġà°®à±Ĭà°Łà±įà°Łà°®à±Ĭà°¦": 4592,
    "Ġà°®à±Ĭà°Łà±įà°Łà°®à±Ĭà°¦à°Łà°¿": 4593,
    "Ġà°ıà°°à±įà°ªà°¡": 4594,
    "à±Ģà°ķ": 4595,
    "à±ĩà°¯": 4596,
    "à°®à±ĩ": 4597,
    "à°¾à°¤à±Ģà°¯": 4598,
    "à°¦à±ĩ": 4599,
    "min": 4600,
    "ft": 4601,
    "wn": 4602,
    "tions": 4603,
    "ana": 4604,
    "odi": 4605,
    "bal": 4606,
    "cent": 4607,
    "oup": 4608,
    "urn": 4609,
    "ration": 4610,
    "rop": 4611,
    "leg": 4612,
    "etic": 4613,
    "ively": 4614,
    "Ġdecl": 4615,
    "ix": 4616,
    "DP": 4617,
    "mar": 4618,
    "Ġcar": 4619,
    "Ġwon": 4620,
    "Ġpen": 4621,
    "ingd": 4622,
    "ĠThere": 4623,
    "aman": 4624,
    "ecut": 4625,
    "Ġed": 4626,
    "Ġair": 4627,
    "Ġprom": 4628,
    "ĠThese": 4629,
    "Ġunion": 4630,
    "ĠPers": 4631,
    "osed": 4632,
    "Ġcontin": 4633,
    "ract": 4634,
    "ĠDuring": 4635,
    "Ġforms": 4636,
    "Ġsever": 4637,
    "Ġcommer": 4638,
    "Ġpopular": 4639,
    "Ġgener": 4640,
    "outher": 4641,
    "urther": 4642,
    "Ġbecome": 4643,
    "alled": 4644,
    "Ġnational": 4645,
    "ĠNational": 4646,
    "ĠWestern": 4647,
    "Ġlower": 4648,
    "Ġregional": 4649,
    "Ġlonger": 4650,
    "ĠAmong": 4651,
    "Ġwhose": 4652,
    "ĠBuddhism": 4653,
    "ished": 4654,
    "Ġelections": 4655,
    "Ġrepublic": 4656,
    "Ġearli": 4657,
    "ĠAnd": 4658,
    "Ġwell": 4659,
    "Ġeastern": 4660,
    "ĠTamil": 4661,
    "Ġhistor": 4662,
    "Ġbased": 4663,
    "Ġcities": 4664,
    "Ġoften": 4665,
    "outheast": 4666,
    "Ġroc": 4667,
    "ĠStates": 4668,
    "Ġstyles": 4669,
    "ĠHimalayas": 4670,
    "Ġwidely": 4671,
    "Ġtechnolog": 4672,
    "Ġsultanate": 4673,
    "ĠBJP": 4674,
    "Ġfederal": 4675,
    "Ġcreated": 4676,
    "Ġadminist": 4677,
    "ificant": 4678,
    "Ġpenins": 4679,
    "Ġexecut": 4680,
    "Ġeduc": 4681,
    "Ġsouther": 4682,
    "ĠAndaman": 4683,
    "Ġeducation": 4684,
    "Ġsouthern": 4685,
    "yan": 4686,
    "ert": 4687,
    "arat": 4688,
    "Ġind": 4689,
    "Ġsm": 4690,
    "ning": 4691,
    "ating": 4692,
    "alth": 4693,
    "amm": 4694,
    "iet": 4695,
    "Ġlow": 4696,
    "Ġinter": 4697,
    "Ġpres": 4698,
    "Ġstat": 4699,
    "ody": 4700,
    "sequ": 4701,
    "sequent": 4702,
    "Ġendem": 4703,
    "ight": 4704,
    "atures": 4705,
    "Ġcommon": 4706,
    "ternal": 4707,
    "Ġmarket": 4708,
    "alley": 4709,
    "ual": 4710,
    "ped": 4711,
    "dian": 4712,
    "de": 4713,
    "ĠĊĊ": 4714,
    "36": 4715,
    "á¼": 4716,
    "¸Î": 4717,
    "½Î": 4718,
    "Ġ42": 4719,
    "Ġ1985": 4720,
    "á¼¸Î": 4721,
    "½Î´": 4722,
    "á¼¸Î½Î´": 4723,
    "94": 4724,
    "Ġ1987": 4725,
    "à¥§": 4726,
    "à¥įà¤ł": 4727,
    "Ġà¤¸à¥Ģ": 4728,
    "à¥ĭà¤°": 4729,
    "Ġà¤ªà¥ģ": 4730,
    "à¤¸à¤®": 4731,
    "à¥įà¤¯à¤®": 4732,
    "à¤®à¤¹": 4733,
    "Ġà¤ľà¥Ī": 4734,
    "Ġà¤¬à¥Ī": 4735,
    "à¤ªà¥ĩ": 4736,
    "Ġà¤¨à¤¿à¤¯": 4737,
    "à¤¿à¤ķà¥Ģ": 4738,
    "à¤¦à¥įà¤°": 4739,
    "Ġà¤¸à¥Ĥ": 4740,
    "à¤¿à¤¯à¤¾à¤¨": 4741,
    "Ġà¤¨à¤µ": 4742,
    "Ġà¤¤à¤°": 4743,
    "Ġà¤ªà¥įà¤°à¤¯": 4744,
    "à¥ģà¤§": 4745,
    "Ġà¤ħà¤Ĺ": 4746,
    "Ġà¤Ĩà¤ª": 4747,
    "Ġà¤²à¥ĩ": 4748,
    "Ġà¤¶à¤¿à¤ķ": 4749,
    "Ġà¤ħà¤¬": 4750,
    "à¤¡à¥Ģ": 4751,
    "à¤¸à¥įà¤µ": 4752,
    "Ġà¤µà¤¿à¤µ": 4753,
    "Ġà¤µà¤¿à¤ľ": 4754,
    "à¤£à¤¾": 4755,
    "à¤£à¥Ģ": 4756,
    "à¤¸à¤¿à¤¤": 4757,
    "Ġà¤Ĩà¤ľ": 4758,
    "Ġà¤ķà¤°à¤¤à¤¾": 4759,
    "Ġà¤¬à¤¨à¤¾": 4760,
    "Ġà¤¶à¤¾à¤Ĥ": 4761,
    "à¤¾à¤Ĥà¤Ĺ": 4762,
    "à¤¾à¤Ĥà¤¸": 4763,
    "à¤¾à¤Ĥà¤¡": 4764,
    "Ġà¥§à¥¦": 4765,
    "Ġà¤¦à¤¿à¤²": 4766,
    "Ġà¤µà¤°à¥įà¤£": 4767,
    "à¤¾à¤ģà¤ļ": 4768,
    "à¤µà¤°à¥Ģ": 4769,
    "Ġà¤¹à¥ĭà¤¤à¥ĩ": 4770,
    "à¤µà¥Ģà¤Ĥ": 4771,
    "Ġà¥§à¥¯à¥¬": 4772,
    "Ġà¤¬à¤¨à¥Ģ": 4773,
    "Ġà¤µà¤¿à¤°": 4774,
    "à¤«à¤¼": 4775,
    "à¤«à¤²": 4776,
    "Ġà¤¹à¤¿à¤¨à¥įà¤¦à¥Ĥ": 4777,
    "Ġà¤ĩà¤¸à¤ķà¥Ģ": 4778,
    "Ġà¤ħà¤§à¤¿à¤ķà¤¾à¤°": 4779,
    "Ġà¤¸à¤®à¤°à¥įà¤¥": 4780,
    "à¤¨à¥įà¤¨": 4781,
    "à¤¿à¤¨à¥įà¤¨": 4782,
    "Ġà¤¬à¤¨à¤¾à¤¨à¥ĩ": 4783,
    "à¤¸à¥įà¤¤à¥įà¤°": 4784,
    "Ġà¤¬à¤¾à¤¹": 4785,
    "Ġà¤®à¤¾à¤¨à¤¾": 4786,
    "Ġà¤Ĩà¤¨à¥įà¤¦": 4787,
    "Ġà¤¶à¥įà¤°à¥Ģ": 4788,
    "Ġà¤ªà¥įà¤°à¤¤à¥įà¤¯": 4789,
    "Ġà¤¸à¤®à¤¾à¤ªà¥įà¤¤": 4790,
    "Ġà¤®à¤¿à¤²à¤¾": 4791,
    "Ġà¤ħà¤®à¤°à¥Ģ": 4792,
    "Ġà¤ľà¤²à¥ĭ": 4793,
    "à¥ģà¤ªà¥įà¤¤": 4794,
    "Ġà¤ķà¥ĥà¤·": 4795,
    "Ġà¤ħà¤Ńà¥Ģ": 4796,
    "Ġà¤Ĺà¤Ĥà¤Ĺà¤¾": 4797,
    "Ġà¤īà¤¦à¥įà¤¯à¥ĭà¤Ĺ": 4798,
    "Ġà¤ªà¥įà¤°à¤¤à¤¿à¤¶": 4799,
    "Ġà¤ªà¤¡à¤¼à¥ĭ": 4800,
    "à¤¤à¤¿à¤¹": 4801,
    "Ġà¤¬à¤¦à¤²": 4802,
    "Ġà¤¸à¥įà¤¥à¤¾à¤ªà¤¨à¤¾": 4803,
    "à¤¤à¤ĥ": 4804,
    "Ġà¤ľà¤¾à¤¨à¤¾": 4805,
    "Ġà¤ħà¤Ĥà¤Ĺà¥įà¤°à¥ĩà¤ľà¤¼à¥Ģ": 4806,
    "Ġà¤Ĩà¤¦à¤¿": 4807,
    "Ġà¤ľà¤¬à¤ķà¤¿": 4808,
    "Ġà¤ľà¤²à¤µ": 4809,
    "Ġà¤¸à¤°à¥įà¤µà¥ĭ": 4810,
    "Ġà¤°à¤¾à¤ľà¤¨à¥Ģà¤¤à¤¿à¤ķ": 4811,
    "Ġà¤ĭà¤¤": 4812,
    "Ġà¤²à¤¾à¤ĸ": 4813,
    "Ġà¤ħà¤ªà¥įà¤°à¥Īà¤²": 4814,
    "Ġà¤Ĩà¤§à¥ģà¤¨à¤¿à¤ķ": 4815,
    "Ġà¤īà¤¤à¥įà¤ªà¤¾à¤¦": 4816,
    "Ġà¤ªà¤¹à¤¾à¤¡à¤¼": 4817,
    "Ġà¤ªà¤°à¤Ĥà¤ªà¤°": 4818,
    "Ġà¤¯à¥Ĥà¤°à¥ĭà¤ª": 4819,
    "Ġà¤Ńà¤¾à¤ľà¤ªà¤¾": 4820,
    "Ġà¤ķà¥ĩà¤µà¤²": 4821,
    "Ġà¤ħà¤«à¥įà¤°à¥Ģ": 4822,
    "Ġà¤¦à¥ĥà¤·à¥įà¤Ł": 4823,
    "Ġà¤ħà¤°à¥įà¤¥à¤µà¥įà¤¯à¤µà¤¸à¥įà¤¥à¤¾": 4824,
    "Ġà¤ªà¥įà¤°à¤¯à¤¾à¤¸": 4825,
    "Ġà¤µà¤¿à¤µà¤¾à¤¦": 4826,
    "Ġà¤¸à¤®à¤°à¥įà¤¥à¤¨": 4827,
    "Ġà¤µà¤¿à¤Ńà¤¿à¤¨à¥įà¤¨": 4828,
    "Ġà¤ľà¤²à¥ĭà¤¢à¤¼": 4829,
    "Ġà¤ªà¥įà¤°à¤¤à¤¿à¤¶à¤¤": 4830,
    "Ġà¤ªà¤¡à¤¼à¥ĭà¤¸à¥Ģ": 4831,
    "à¤¤à¤¿à¤¹à¤¾à¤¸": 4832,
    "Ġà¤ľà¤²à¤µà¤¾à¤¯à¥ģ": 4833,
    "Ġà¤¸à¤°à¥įà¤µà¥ĭà¤ļà¥įà¤ļ": 4834,
    "Ġà¤¯à¥Ĥà¤°à¥ĭà¤ªà¥Ģà¤¯": 4835,
    "Ġà¤ħà¤«à¥įà¤°à¥Ģà¤ķà¤¾": 4836,
    "10": 4837,
    "Ġ1996": 4838,
    "Ġ31": 4839,
    "Ġ1967": 4840,
    "Ġ1984": 4841,
    "Ġ2012": 4842,
    "ternational": 4843,
    "ĠAt": 4844,
    "cast": 4845,
    "Ġ2026": 4846,
    "ĠFore": 4847,
    "ĠDe": 4848,
    "04": 4849,
    "Ġ1974": 4850,
    "14": 4851,
    "Ġ11": 4852,
    "Ġà®ļà®¾à®": 4853,
    "Ġà®ķà¯Ĭà®£à¯įà®Łà®¿à®°": 4854,
    "à®¤à¯ģà®µ": 4855,
    "à®¿à®©à¯įà®±à®©à®°à¯į": 4856,
    "à®¿à®°à®®": 4857,
    "à®¤à¯Ī": 4858,
    "µà¯ĭ": 4859,
    "à¯įà®ķà®ªà¯įà®ªà®Łà¯įà®Łà®¤à¯ģ": 4860,
    "à¯ģà®¯": 4861,
    "¸à¯įà®¤": 4862,
    "à®£à¯Ī": 4863,
    "Ġà®µà®¾à®ķ": 4864,
    "à¯ĭà®³": 4865,
    "à®¤à®¾à®°": 4866,
    "à¯įà®ªà®¾à®°": 4867,
    "Ġà®¤à¯Ĥ": 4868,
    "à¯Ĥà®®": 4869,
    "à®´à¯ģà®¤": 4870,
    "à®ķà®©": 4871,
    "Ġà®ªà¯ĭà®ķà¯įà®ķ": 4872,
    "Ġà®ļà®Ļà¯įà®ķ": 4873,
    "à®¿à®¯à®¾à®²à¯į": 4874,
    "à¯ĭà®ª": 4875,
    "à®¾à®¯à®¿à®©": 4876,
    "à®¾à®ķà¯įà®ķà®¿": 4877,
    "Ġà®īà®¯à®°": 4878,
    "Ġà®¨à®¿à®²à¯Īà®ķà¯įà®ķ": 4879,
    "à®µà®±à¯įà®±à®¿à®²à¯į": 4880,
    "à®¾à®ļà®¿à®¯à®¾à®µ": 4881,
    "à®¿à®¯à®¿à®²à®¿à®°à¯ģà®¨à¯įà®¤à¯ģ": 4882,
    "à®ªà¯įà®ªà®Łà¯ģà®µà®¤": 4883,
    "Ġà®īà®±à¯ģà®ªà¯įà®ªà®¿à®©à®°à¯įà®ķà®³": 4884,
    "à®¿à®ŀ": 4885,
    "à®±à¯ģà®®à¯į": 4886,
    "Ġà®µà®¾à®©": 4887,
    "Ġà®ĩà®³": 4888,
    "à®®à¯ģà®®à¯į": 4889,
    "Ġà®¨à®²": 4890,
    "Ġà®ļà®±à¯įà®±": 4891,
    "Ġà®ªà®¿à®©à¯į": 4892,
    "Ġà®ĩà®¨à¯įà®¤à¯ĭ": 4893,
    "à®°à¯ģà®ļ": 4894,
    "Ġà®ļà®ªà¯įà®ª": 4895,
    "à®¯à¯ģà®®à¯į": 4896,
    "Ġà®®à®¾à®µ": 4897,
    "Ġà®ķà®©": 4898,
    "Ġà®µà®¿à®ķ": 4899,
    "Ġà®ķà®¿à®±": 4900,
    "à®µà®°à¯į": 4901,
    "Ġà®ļà¯ģà®µ": 4902,
    "Ġà®ļà¯ģà®Ł": 4903,
    "Ġà®ªà¯ģà®Ł": 4904,
    "Ġà®Ĵà®´": 4905,
    "à®®à¯ģà®³à¯įà®³": 4906,
    "à®ķà®Ł": 4907,
    "à®¾à®°à¯įà®ķà®³à¯į": 4908,
    "à®´à¯ģà®¤à¯įà®¤": 4909,
    "Ġà®ªà¯ģà®¤à¯įà®¤": 4910,
    "Ġà®¤à®©à¯į": 4911,
    "Ġà®ªà¯ĭà®²à¯į": 4912,
    "à®¿à®Łà®®": 4913,
    "Ġà®µà®¾à®Łà¯įà®Ł": 4914,
    "à®´à®¿à®ªà¯įà®ª": 4915,
    "à®¿à®¤à¯įà®¤à¯ģà®³à¯įà®³à®¤à¯ģ": 4916,
    "Ġà®ķà®¾à®²à¯į": 4917,
    "à®®à¯įà®®": 4918,
    "à¯Īà®ķà®³à¯ģà®ķà¯įà®ķà¯ģ": 4919,
    "à®¾à®³à¯į": 4920,
    "Ġà®µà¯ĩà®£à¯įà®Ł": 4921,
    "Ġà®µà¯ĩà®ķ": 4922,
    "à®µà®¾à®¯": 4923,
    "à®Ĩà®°à®¿à®¯": 4924,
    "à®²à¯įà®²à®¿": 4925,
    "à®¤à¯Īà®ªà¯į": 4926,
    "à®®à®¾à®ķà¯ģà®®à¯į": 4927,
    "Ġà®ķà®²à¯įà®²": 4928,
    "Ġà®ķà¯Īà®µ": 4929,
    "Ġà®ļà¯Īà®µ": 4930,
    "à®¾à®ļà®©": 4931,
    "Ġà®ĩà®µà®°à¯įà®ķà®³à¯į": 4932,
    "Ġà®ªà®°à®¤": 4933,
    "Ġà®µà®¿à®®": 4934,
    "Ġà®®à¯Ģà®¤": 4935,
    "à®µà¯Īà®¯à®¿à®©à¯į": 4936,
    "à®µà¯Īà®¯à®¿à®²à¯į": 4937,
    "à¯ģà®ķà¯įà®ķà¯ģà®ķà¯į": 4938,
    "Ġà®ķà®Łà¯įà®ļà®¿": 4939,
    "à®¤à¯įà®¤à¯Īà®¤à¯į": 4940,
    "à®µà®¿à®¯à®²à¯į": 4941,
    "Ġà®ħà®®à¯Īà®ªà¯įà®ªà¯Ī": 4942,
    "Ġà®ħà®®à¯Īà®ªà¯įà®ªà®¿à®©à¯į": 4943,
    "Ġà®Ĩà®ķà¯įà®ķà®¿à®¯": 4944,
    "Ġà®ļà®¿à®¨à¯įà®¤": 4945,
    "Ġà®ªà¯Ĭà®°à¯ģà®³à®¾à®¤à®¾à®°à®®à®¾à®ķ": 4946,
    "Ġà®¨à¯Ģà®°": 4947,
    "Ġà®¨à¯Ģà®³": 4948,
    "Ġà®¨à¯Ģà®°à¯į": 4949,
    "Ġà®ķà¯ģà®±à®¿à®ªà¯įà®ªà®¿à®Łà¯įà®Ł": 4950,
    "à¯ģà®ķà¯įà®ķà¯ģà®¤à¯į": 4951,
    "à¯Īà®¯à®¾à®ķà®ķà¯į": 4952,
    "à®Ļà¯įà®ķà®³à¯Īà®ļà¯į": 4953,
    "Ġà®µà®¨à¯įà®¤à®¤à¯ģ": 4954,
    "à¯Īà®ķà¯įà®ķà¯ģà®®à¯į": 4955,
    "à®ķà¯įà®ķà®²": 4956,
    "Ġà®¤à¯Ĭà®Łà®ķà¯įà®ķà®": 4957,
    "à¯ģà®ķà¯įà®ķà®ªà¯įà®ªà®Ł": 4958,
    "Ġà®ħà®¤à®¿à®ķà®°à®¿à®¤à¯įà®¤à¯ģà®³à¯įà®³à®¤à¯ģ": 4959,
    "à¯Īà®ķà®³à®¾à®©à®µà¯Ī": 4960,
    "Ġà®µà®´à®¿à®¯": 4961,
    "Ġà®īà®³à¯įà®³à®©à®°à¯į": 4962,
    "Ġà®¤à®¾à®Ļà¯įà®ķ": 4963,
    "Ġà®¤à®²à¯Īà®¯": 4964,
    "Ġà®ķà¯ģà®±à¯Īà®¨à¯įà®¤": 4965,
    "à®®à¯ģà®Łà¯Īà®¯": 4966,
    "Ġà®ªà®¾à®°à®®à¯įà®ªà®°à®¿à®¯à®Ļà¯įà®ķà®³à¯į": 4967,
    "Ġà®ĩà®°à®£à¯įà®Łà®¾à®®à¯į": 4968,
    "Ġà®ĩà®©à¯įà®©": 4969,
    "Ġà®ĩà®£à¯įà®Ł": 4970,
    "à¯Īà®¯à®¿à®²à®¿à®°à¯ģà®¨à¯įà®¤à¯ģ": 4971,
    "Ġà®ķà®¾à®°à®£à®®à¯į": 4972,
    "Ġà®µà®Łà®¿à®µà®Ļà¯įà®ķà®³à®¿à®²à¯į": 4973,
    "à®ķà®®à®¾à®©à®¤à¯ģ": 4974,
    "à®¤à¯Ĥà®°": 4975,
    "Ġà®ªà¯ģà®¤à¯ģà®ªà¯įà®ª": 4976,
    "Ġà®ļà®¿à®±à®¿à®¯": 4977,
    "Ġà®ħà®³à®µà¯ģ": 4978,
    "Ġà®ªà®¾à®¤à®¿à®ķà¯įà®ķà®ªà¯įà®ªà®Łà¯įà®Ł": 4979,
    "Ġà®µà®³à®°à¯įà®ļà¯įà®ļ": 4980,
    "Ġà®¨à¯ģà®´": 4981,
    "à®¿à®Łà®ªà¯įà®ªà®Łà¯įà®Łà®¤à¯ģ": 4982,
    "Ġà®īà®°à¯ģà®µà®¾à®ķà®¿à®¯à®¤à¯ģ": 4983,
    "à¯įà®ªà¯įà®ªà¯ģ": 4984,
    "Ġà®µà¯Ĩà®³à¯įà®³": 4985,
    "Ġà®µà¯Ĩà®³à®¿": 4986,
    "Ġà®¤à®¿à®°à®¾à®µ": 4987,
    "Ġà®ªà¯ĩà®°à®°à®ļà®¾à®©à®¤à¯ģ": 4988,
    "Ġà®Ĩà®Łà¯įà®ļ": 4989,
    "Ġà®µà¯Īà®ķà¯įà®ķà®ªà¯įà®ªà®Łà¯įà®Ł": 4990,
    "Ġà®ĩà®Łà¯Īà®¯à®¿à®²à®¾à®©": 4991,
    "Ġà®®à®¾à®¨à®¿à®²à®Ļà¯įà®ķà®³à¯į": 4992,
    "Ġà®ĩà®°à®¾à®£à¯ģà®µà®¤à¯į": 4993,
    "à¯įà®¨à¯ģà®Łà¯įà®ª": 4994,
    "Ġà®¤à¯ģà®£à¯Ī": 4995,
    "Ġà®®à¯Į": 4996,
    "Ġà®Ĩà®£à¯įà®Łà¯ģà®ķà®³à¯ģà®ķà¯įà®ķà¯ģà®®à¯į": 4997,
    "Ġà®ķà®¿à®°à¯ĩ": 4998,
    "Ġà®Ĩà®Łà¯įà®ļà®¿": 4999,
    "à®¾à®Łà¯ģà®ķà®³à¯Ī": 5000,
    "Ġà®ªà®¾à®£à®¿": 5001,
    "Ġà®®à¯ģà®¤à®²à®¿à®²à¯į": 5002,
    "Ġà®¨à®¿à®²à¯Īà®¯à®¾à®ķ": 5003,
    "Ġà®ªà®Ļà¯įà®ķà¯ģ": 5004,
    "Ġà®ļà®¾à®°à®¾à®¤": 5005,
    "Ġà®īà®±à¯įà®ªà®¤à¯įà®¤à®¿à®¯à®¿à®²à¯į": 5006,
    "Ġà®ļà¯Ĩà®²à¯ģà®¤à¯įà®¤": 5007,
    "Ġà®ļà¯Ĩà®²à¯įà®µ": 5008,
    "Ġà®¨à®¿à®±à¯ģà®µà®©à®®à¯į": 5009,
    "Ġà®ķà®¾à®¨à¯įà®¤": 5010,
    "Ġà®ĩà®ļà¯Ī": 5011,
    "Ġà®®à®²à¯Īà®¤à¯į": 5012,
    "Ġà®ªà¯Ĩà®°à®¿à®¯à®¤à®¾à®ķà¯ģà®®à¯į": 5013,
    "Ġà®ķà¯Ĥà®Łà¯įà®Łà®¾à®Łà¯įà®ļà®¿": 5014,
    "Ġà®ķà¯ģà®Łà®¿à®¯à®°à®ļà¯ģ": 5015,
    "Ġà®°à¯Ģà®¤à®¿à®¯à®¾à®©": 5016,
    "à¯įà®µà¯Ĩà®³": 5017,
    "Ġà®ķà¯ģà®±à®¿à®ķà¯įà®ķà®": 5018,
    "Ġà®¤à®¾à®Ļ": 5019,
    "Ġà®ļà¯ĭà®¤": 5020,
    "Ġà®ļà®¨à¯įà®¤à¯Ī": 5021,
    "Ġà®ħà®®à¯Īà®¨à¯įà®¤à®¤à¯ģ": 5022,
    "Ġà®®à¯Ĥà®©à¯įà®±à¯ģ": 5023,
    "Ġà®µà®Ļà¯įà®ķà®¾à®³à®¤à¯įà®¤à®¿à®©à¯į": 5024,
    "Ġà®ħà®Łà®¿à®ªà¯įà®ªà®Łà¯Īà®¯à®¿à®²à¯į": 5025,
    "Ġà®ķà¯ģà®Łà®¿à®¯à¯ĩà®±à¯įà®±": 5026,
    "à®¿à®²à¯ģà®®à¯ĩ": 5027,
    "Ġà®ªà®¾à®²à®¿à®©": 5028,
    "Ġà®µà¯Īà®¤à¯įà®¤à®¤à¯ģ": 5029,
    "Ġà®µà¯Ģà®°": 5030,
    "Ġà®¨à®¿à®²à®µà®°": 5031,
    "Ġà®Ĩà®ķà®¿à®¯à¯ĭà®°à¯į": 5032,
    "Ġà®¤à®²à¯Īà®µà®°à¯į": 5033,
    "Ġà®¨à¯ģà®Łà¯įà®ªà®¤à¯į": 5034,
    "Ġà®ļà¯ĩà®°à¯įà®¨à¯įà®¤à®µà¯Īà®¯à®¾à®ķ": 5035,
    "Ġà®µà®¿à®³à¯Īà®¯à®¾à®Łà¯įà®Łà¯ģà®ªà¯į": 5036,
    "Ġà®ªà¯ĩà®°à¯į": 5037,
    "à¯Ģà®Łà¯ģ": 5038,
    "Ġà®Łà¯Ĩ": 5039,
    "Ġà®¨à®ķà®°à¯įà®ªà¯į": 5040,
    "Ġà®Ĵà®©à¯įà®±à®¿à®¯à®ªà¯į": 5041,
    "Ġà®ķà®¾à®²à®¤à¯įà®¤à®¿à®±à¯įà®ķà¯ģ": 5042,
    "Ġà®¨à¯Ģà®Łà®¿à®¤à¯įà®¤à®¿à®°à¯ģà®¨à¯įà®¤à®¤à¯ģ": 5043,
    "Ġà®®à®©à®¿à®¤à®°à¯įà®ķà®³à¯į": 5044,
    "Ġà®¨à®¾à®Łà®¾à®³à¯ģà®®à®©à¯įà®±à®¤à¯įà®¤à®¿à®©à¯į": 5045,
    "Ġà®Łà®¿à®°": 5046,
    "Ġà®ķà®Łà®±à¯įà®ķà®°à¯Īà®ķà®³à¯į": 5047,
    "Ġà®¤à®®à®¿à®´à¯į": 5048,
    "Ġà®ıà®±à¯įà®±à¯ģà®®à®¤à®¿à®¯à®¿à®²à¯į": 5049,
    "Ġà®ıà®±à¯įà®±à¯ģà®®à®¤à®¿": 5050,
    "à®ĩà®¨à¯įà®¤à®¿à®¯à®¾à®µà®¿à®©à¯į": 5051,
    "Ġà®ªà®¿à®°à®¤à®®à®°à¯į": 5052,
    "Ġà®ķà®°à¯ģà®¤à®ªà¯įà®ªà®Łà¯ģà®ķà®¿à®±à®¤à¯ģ": 5053,
    "Ġà®ķà®°à¯ģà®¤à¯ģà®ķà®¿à®©à¯įà®±à®©à®°à¯į": 5054,
    "Ġà®Ĵà®Łà¯įà®Łà¯ģ": 5055,
    "Ġà®ªà®£à¯įà®Łà¯Īà®ķà¯į": 5056,
    "Ġà®ªà®£à¯įà®ªà®¾à®Łà¯įà®Łà®¿à®²à¯į": 5057,
    "Ġà®ļà¯Ĩà®¯à¯įà®¤à®¤à¯ģ": 5058,
    "Ġà®ªà¯Ĭà®°à¯ģà®Łà¯įà®ķà®³à®¾à®ķ": 5059,
    "Ġà®Ĩà®Łà¯įà®ļà®¿à®¯à®¾à®³": 5060,
    "Ġà®µà®°à®²à®¾à®±à¯įà®±à¯ģ": 5061,
    "Ġà®ļà¯Ģà®©à®¾": 5062,
    "Ġà®¨à®¿à®°à¯įà®µà®¾à®ķ": 5063,
    "Ġà®ĩà®¨à¯įà®¤à®¿à®¯à®¾à®µà¯ģà®ķà¯įà®ķà¯ģà®³à¯į": 5064,
    "Ġà®īà®³à¯įà®³à¯Ĥà®°à¯į": 5065,
    "à¯ģà®Łà®©à®¾à®©": 5066,
    "à¯ģà®Łà®©à¯ģà®®à¯į": 5067,
    "Ġà®ļà¯Ĥà®´": 5068,
    "Ġà®ªà¯Ĩà®£à¯įà®ķà®³à¯į": 5069,
    "Ġà®ĩà®¤à®±à¯įà®ķà¯ģà®ªà¯į": 5070,
    "à®ĩà®²à®¿à®°à¯ģà®¨à¯įà®¤à¯ģ": 5071,
    "Ġà®¤à¯Ĭà®Łà®°à¯įà®ļà¯įà®ļà®¿": 5072,
    "à®ķà¯įà®ķà®Ļà¯įà®ķà®³à¯į": 5073,
    "à¯įà®ķà¯įà®ķà®ªà¯įà®ªà®Łà¯ģà®ķà®¿à®±à®¤à¯ģ": 5074,
    "Ġà®¤à¯Ĩà®±à¯įà®ķà®¾à®ļà®¿à®¯": 5075,
    "Ġà®ħà®°à®ļà®¾à®Ļà¯įà®ķà®®à¯į": 5076,
    "Ġà®ªà¯Ĩà®£à¯įà®ķà®³à¯ģà®ķà¯įà®ķà¯ģ": 5077,
    "Ġà®Ĳà®°à¯ĭà®µ": 5078,
    "Ġà®®à®±à¯Īà®ªà¯įà®ªà¯ģ": 5079,
    "à®ªà¯ģà®¤à¯įà®¤à®¿à®°": 5080,
    "Ġà®®à¯ģà®¤à¯įà®¤à®¿à®°": 5081,
    "Ġà®®à®±à¯įà®±à¯ģà®®": 5082,
    "Ġà®®à¯ģà®¨à¯įà®¤à¯Īà®¯": 5083,
    "Ġà®ªà®Ļà¯įà®ķà¯Ĩà®Łà¯ģà®¤à¯įà®¤": 5084,
    "Ġà®ħà®Łà¯Īà®¯à®¾à®³": 5085,
    "Ġà®ķà®Ļà¯įà®ķà¯Ī": 5086,
    "Ġà®¤à¯Ĩà®©à¯įà®©à®¿à®¨à¯įà®¤à®¿à®¯à®¾à®µà®¿à®²à¯į": 5087,
    "Ġà®µà®£à®¿à®ķà®®à¯į": 5088,
    "Ġà®ķà¯ģà®Łà¯ģà®®à¯įà®ªà®Ļà¯įà®ķà®³à¯į": 5089,
    "Ġà®µà®°à¯ģà®®à®¾à®©à®®à®¾à®©à®¤à¯ģ": 5090,
    "à®°à¯ģà®³à®¾à®¤à®¾à®°": 5091,
    "Ġà®®à¯ģà®±à¯Īà®¯à¯ĩ": 5092,
    "Ġà®¤à®Łà¯įà®Łà®¾à®©à®¤à¯ģ": 5093,
    "Ġà®ªà®ŀà¯įà®ļà®¾à®ªà¯į": 5094,
    "Ġà®Ĳà®°à¯ĭà®ªà¯įà®ªà®¿à®¯": 5095,
    "à¯Ĭà®ªà¯įà®ªà®®": 5096,
    "Ġà®¤à®¾à®°à¯įà®ªà¯į": 5097,
    "Ġà®¨à®¾à®ķà®°": 5098,
    "Ġà®¨à¯Ģà®¤à®¿à®®à®©à¯įà®±": 5099,
    "Ġà®ªà®°à®¿à®®à®¾à®±": 5100,
    "à¯ģà®²à®¾à®®à®¿à®¯": 5101,
    "à®ķà®¿à®´à®ķà¯įà®ķà¯ģ": 5102,
    "Ġà®ĩà®±à¯Īà®¯à®¾à®£à¯įà®®": 5103,
    "Ġà®Ĩà®ªà¯įà®ªà®¿à®°à®¿à®ķà¯įà®ķà®¾à®µà®¿à®²à¯į": 5104,
    "Ġà®ħà®²à¯ģà®µ": 5105,
    "Ġà®ļà¯Ģà®ķà¯įà®ķà®¿à®¯": 5106,
    "Ġà®¨à¯ĩà®°à¯ģà®µ": 5107,
    "Ġà®ħà®®à¯Īà®¤": 5108,
    "Ġà®Ĩà®°à®®à¯įà®ª": 5109,
    "Ġà®®à®Łà¯įà®Łà¯ģà®®à¯ĩ": 5110,
    "Ġà®ħà®ªà¯įà®ªà¯ĭà®¤à¯ģ": 5111,
    "Ġà®¤à®¯à®¾à®°": 5112,
    "Ġà®ķà¯ģà®Łà®¿à®¯à®¿à®°à¯ģà®ªà¯įà®ª": 5113,
    "Ġà®ªà®¾à®±à¯Ī": 5114,
    "Ġà®µà®°à¯Īà®¯à®±": 5115,
    "Ġà®ħà®Łà¯ģà®¤à¯įà®¤à¯ģ": 5116,
    "Ġà®īà®°à®¿à®®": 5117,
    "Ġà®īà®±à¯ģà®¤à®¿à®ªà¯įà®ªà®Łà¯ģà®¤à¯įà®¤": 5118,
    "Ġà®ªà¯Ĥà®°à¯įà®µà¯Ģ": 5119,
    "Ġà®İà®£à¯įà®£à¯Ĩà®¯à¯į": 5120,
    "Ġà®¤à®ķà®µà®²à¯į": 5121,
    "Ġà®¤à®µà®¿à®°à¯įà®¤à¯įà®¤à¯ģ": 5122,
    "Ġà®ĩà®¨à¯įà®¨à®¿à®²": 5123,
    "Ġà®¨à®¿à®²à®ªà¯įà®ªà®°à®ªà¯įà®ªà®¿à®²à¯į": 5124,
    "Ġà®¨à¯Ĩà®°à¯ģà®ķà¯įà®ķà®®à®¾à®©": 5125,
    "Ġà®ķà¯ģà®ļà®°à®¾à®¤à¯įà®¤à®¿à®©à¯į": 5126,
    "Ġà®ªà®¾à®²à¯Ĥà®Łà¯įà®Ł": 5127,
    "à®¿à®³à®°à¯įà®ļ": 5128,
    "Ġà®ĩà®ªà¯įà®ªà¯ĭà®Łà¯įà®Ł": 5129,
    "Ġà®ķà®¿à®²": 5130,
    "à®¤à¯įà®¤à¯Ģà®µ": 5131,
    "Ġà®®à®°à¯ģà®¤à¯įà®¤à¯ģà®µ": 5132,
    "Ġà®®à®£à¯įà®Łà®²": 5133,
    "Ġà®µà®¿à®µà®ļà®¾à®¯": 5134,
    "Ġà®Ĭà®Łà¯ģà®°à¯ģà®µ": 5135,
    "Ġà®ªà®©à¯įà®©à®¾à®Łà¯įà®Łà¯ģ": 5136,
    "Ġà®®à®ķà®³à®¿à®°à¯į": 5137,
    "Ġà®ªà®Łà®¿à®ªà¯įà®ªà®Łà®¿à®¯à®¾à®ķ": 5138,
    "Ġà®ħà®¤à®¿à®ķà®¾à®°à®ªà¯įà®ªà¯Ĥà®°à¯įà®µ": 5139,
    "Ġà®ļà¯ĩà®µà¯Īà®¯à®¾à®±à¯įà®±": 5140,
    "Ġà®¤à¯Ĭà®Łà®°à¯įà®ļà¯įà®ļà®¿à®¯à®¾à®©": 5141,
    "Ġà®ĩà®£à¯Īà®¯à®¤à¯įà®¤à®³à®®à¯į": 5142,
    "Ġà®Ĵà®¤à¯įà®¤à¯ģà®´": 5143,
    "Ġà®®à®Łà®Ļà¯įà®ķ": 5144,
    "à®¿à®¯à®¾à®³à®°à®¾à®ķà®µà¯ģà®®à¯į": 5145,
    "Ġà®Ĩà®ķà¯įà®ķà®¿à®°à®®": 5146,
    "Ġà®İà®¤à®¿à®°à¯įà®ªà®¾à®°": 5147,
    "Ġà®īà®°à¯ģà®ļ": 5148,
    "Ġà®ķà®¿à®±à®¿à®¤à¯įà®¤": 5149,
    "Ġà®ļà¯Ĩà®´à®¿à®ªà¯įà®ª": 5150,
    "Ġà®ķà¯Īà®µà®¿à®©": 5151,
    "Ġà®®à¯Ģà®¤à®¾à®©": 5152,
    "Ġà®¤à¯ĩà®°à¯įà®¨à¯įà®¤à¯Ĩà®Łà¯ģà®ķà¯įà®ķà®ªà¯įà®ªà®Ł": 5153,
    "Ġà®ĩà®©à¯įà®©à¯ģà®®à¯į": 5154,
    "Ġà®¤à¯Ĭà®²à¯Īà®¤à¯Ĥà®°": 5155,
    "Ġà®¤à®¿à®°à®¾à®µà®¿à®Ł": 5156,
    "Ġà®¤à¯Ĭà®´à®¿à®²à¯įà®¨à¯ģà®Łà¯įà®ª": 5157,
    "Ġà®®à¯Įà®°à®¿à®¯": 5158,
    "Ġà®ķà®¾à®¨à¯įà®¤à®¿": 5159,
    "Ġà®ķà¯ģà®±à®¿à®ķà¯įà®ķà®ªà¯į": 5160,
    "Ġà®ļà¯ĭà®¤à®©": 5161,
    "Ġà®¨à®¿à®²à®µà®°à®ªà¯į": 5162,
    "Ġà®Łà®¿à®°à®¿à®²à¯įà®²à®¿à®¯à®©à¯į": 5163,
    "Ġà®®à®±à¯įà®±à¯ģà®®à¯Ĭà®°à¯ģ": 5164,
    "à®ªà¯Ĭà®°à¯ģà®³à®¾à®¤à®¾à®°": 5165,
    "Ġà®ķà¯Īà®¯à¯Ĭà®ªà¯įà®ªà®®": 5166,
    "Ġà®ĩà®ªà¯įà®ªà¯ĭà®Łà¯įà®Łà®¿à®¯à¯Ī": 5167,
    "Ġà®ķà®¿à®²à¯ĭà®®": 5168,
    "Ġà®ķà®¿à®²à¯ĭà®®à¯Ģà®Łà¯įà®Ł": 5169,
    "Ġà®ķà®¿à®²à¯ĭà®®à¯Ģà®Łà¯įà®Łà®°à¯įà®ķà®³à¯į": 5170,
    "à¯ĭà®¤": 5171,
    "à¯ĭà®²": 5172,
    "Ġà®ķà®¿à®Ł": 5173,
    "Ġà®µà®Łà®ķà¯įà®ķ": 5174,
    "Ġà®®à¯ģà®¤à®²": 5175,
    "Ġà®ĩà®µà¯įà®µà®¾à®±": 5176,
    "à®¿à®¨": 5177,
    "à®ľ": 5178,
    "à¯įà®Łà¯ģ": 5179,
    "\",": 5180,
    "ile": 5181,
    "ĠFact": 5182,
    "ĠFactbo": 5183,
    "ĠFactbook": 5184,
    "yp": 5185,
    "back": 5186,
    "can": 5187,
    "Ġsup": 5188,
    "ĠAf": 5189,
    "ah": 5190,
    "Ġta": 5191,
    "Ġbl": 5192,
    "ales": 5193,
    "isl": 5194,
    "ĠBi": 5195,
    "tle": 5196,
    "Ġz": 5197,
    "á¹": 5198,
    "Ġob": 5199,
    "redi": 5200,
    "ded": 5201,
    "bar": 5202,
    "Ġwin": 5203,
    "Ġindi": 5204,
    "Ġsa": 5205,
    "Ġmen": 5206,
    "ices": 5207,
    "iss": 5208,
    "ising": 5209,
    "Ġsing": 5210,
    "ingly": 5211,
    "Ġcur": 5212,
    "Ġren": 5213,
    "Ġgar": 5214,
    "Ġeth": 5215,
    "ool": 5216,
    "ĠAra": 5217,
    "ĠBra": 5218,
    "ros": 5219,
    "Ġfast": 5220,
    "Ġnow": 5221,
    "Ġmem": 5222,
    "Ġste": 5223,
    "Ġstr": 5224,
    "Ġwest": 5225,
    "Ġdist": 5226,
    "ather": 5227,
    "Ġann": 5228,
    "Ġold": 5229,
    "ouse": 5230,
    "ays": 5231,
    "ders": 5232,
    "Ġfive": 5233,
    "ility": 5234,
    "ality": 5235,
    "eak": 5236,
    "Ġmak": 5237,
    "Ġalong": 5238,
    "bers": 5239,
    "Ġvast": 5240,
    "Ġvill": 5241,
    "mary": 5242,
    "anted": 5243,
    "Ġsch": 5244,
    "oss": 5245,
    "Ġchar": 5246,
    "Ġprot": 5247,
    "Ġfour": 5248,
    "ortant": 5249,
    "Ġformed": 5250,
    "ĠRaj": 5251,
    "Ġplain": 5252,
    "Ġkn": 5253,
    "ĠKas": 5254,
    "Ġaff": 5255,
    "Ġconduc": 5256,
    "Ġcomple": 5257,
    "Ġresp": 5258,
    "ĠBhar": 5259,
    "Ġempire": 5260,
    "epend": 5261,
    "Ġconsid": 5262,
    "Ġaround": 5263,
    "Ġpolic": 5264,
    "Ġheld": 5265,
    "Ġtraditions": 5266,
    "Ġtraditional": 5267,
    "Ġcaus": 5268,
    "ĠUnion": 5269,
    "lief": 5270,
    "ĠBuddhist": 5271,
    "loy": 5272,
    "Ġglo": 5273,
    "Ġterm": 5274,
    "Ġchanges": 5275,
    "Ġthree": 5276,
    "Ġrecord": 5277,
    "Ġtrib": 5278,
    "Ġvari": 5279,
    "Ġtimes": 5280,
    "gency": 5281,
    "Ġendang": 5282,
    "Ġdomin": 5283,
    "ards": 5284,
    "Ġfamil": 5285,
    "Ġdeveloped": 5286,
    "Ġrise": 5287,
    "ĠThis": 5288,
    "Ġcourts": 5289,
    "Ġcourt": 5290,
    "Ġtex": 5291,
    "Ġthought": 5292,
    "Ġleading": 5293,
    "Ġestim": 5294,
    "Ġuntil": 5295,
    "eograph": 5296,
    "Ġworn": 5297,
    "Ġspread": 5298,
    "Ġtemp": 5299,
    "Ġcivil": 5300,
    "Ġhowever": 5301,
    "Ġofficial": 5302,
    "ĠJanu": 5303,
    "Ġsurv": 5304,
    "Ġevery": 5305,
    "Ġmiddle": 5306,
    "Ġcoalition": 5307,
    "Ġdances": 5308,
    "Ġterritories": 5309,
    "Ġinfluenced": 5310,
    "ĠIslam": 5311,
    "ĠAccording": 5312,
    "Ġfigures": 5313,
    "Ġdiffer": 5314,
    "Ġindustry": 5315,
    "Ġsculpture": 5316,
    "Ġbirth": 5317,
    "Ġestabl": 5318,
    "ĠJainism": 5319,
    "Ġleft": 5320,
    "Ġgroup": 5321,
    "ĠGDP": 5322,
    "Ġkingd": 5323,
    "ĠPersian": 5324,
    "Ġfurther": 5325,
    "Ġearliest": 5326,
    "ĠSoutheast": 5327,
    "Ġrock": 5328,
    "Ġtechnology": 5329,
    "Ġsignificant": 5330,
    "Ġpeninsular": 5331,
    "Ġexecutive": 5332,
    "Ġsubsequent": 5333,
    "Ġlegisl": 5334,
    "ĠBrahm": 5335,
    "ross": 5336,
    "ĠKashm": 5337,
    "Ġindepend": 5338,
    "Ġemploy": 5339,
    "Ġendangered": 5340,
    "Ġfamilies": 5341,
    "ĠJanuary": 5342,
    "Ġkingdoms": 5343,
    "sc": 5344,
    "inc": 5345,
    "ale": 5346,
    "dra": 5347,
    "ĠSe": 5348,
    "though": 5349,
    "Ġfl": 5350,
    "Ġdef": 5351,
    "val": 5352,
    "ined": 5353,
    "ani": 5354,
    "pl": 5355,
    "ĠDes": 5356,
    "erial": 5357,
    "25": 5358,
    "81": 5359,
    "Ġ68": 5360,
    "48": 5361,
    "Ġ%": 5362,
    "à¤ħ": 5363,
    "à¤ĩ": 5364,
    "à¤Ŀ": 5365,
    "Ġà¤¢": 5366,
    "Ġà¤Ĳ": 5367,
    "à¥įà¤ŀ": 5368,
    "à¤¨à¤¤": 5369,
    "à¤¤à¤¨": 5370,
    "¶à¤¨": 5371,
    "Ġà¤¹à¤°": 5372,
    "à¤Ĥà¤¸": 5373,
    "à¤®à¥Ģ": 5374,
    "à¤²à¤¾": 5375,
    "à¥ĩà¤²": 5376,
    "à¤¹à¤¾à¤°": 5377,
    "à¤¦à¤¾à¤°": 5378,
    "à¤¦à¤¾": 5379,
    "à¤¤à¥įà¤¤": 5380,
    "à¤µà¤¨": 5381,
    "Ġà¤¤à¥ĭ": 5382,
    "Ġà¤ªà¥įà¤°à¤¸": 5383,
    "à¥ģà¤ģ": 5384,
    "à¥ģà¤Ĩ": 5385,
    "Ġà¤Ĩà¤µ": 5386,
    "Ġà¤Ĩà¤¸": 5387,
    "Ġà¥¬": 5388,
    "à¥įà¤·à¤°": 5389,
    "à¥ĭà¤§": 5390,
    "Ġà¤ªà¤°à¥įà¤¯": 5391,
    "à¤¬à¤°": 5392,
    "à¤¬à¥Ģ": 5393,
    "à¤°à¤¾à¤¤": 5394,
    "Ġà¤īà¤Ń": 5395,
    "à¤¤à¥įà¤°à¤¿à¤ķ": 5396,
    "à¤¾à¤¸à¥įà¤¤": 5397,
    "à¤ľà¥Ģ": 5398,
    "à¤ľà¤¨": 5399,
    "Ġà¤ļà¥ģ": 5400,
    "à¥įà¤¯à¤¾à¤¦": 5401,
    "à¤¨à¥ĩà¤ķ": 5402,
    "à¤Łà¤¨": 5403,
    "Ġà¤¤à¤Ł": 5404,
    "Ġà¤ªà¥įà¤°à¤ļ": 5405,
    "à¤¿à¤¸à¥Ģ": 5406,
    "Ġà¤¹à¤¿à¤¸": 5407,
    "à¤¾à¤·à¤¾": 5408,
    "Ġà¤²à¤¡à¤¼": 5409,
    "«à¥¦": 5410,
    "à¤¾à¤¯à¤ķ": 5411,
    "à¤¿à¤¯à¤¾à¤Ĥ": 5412,
    "à¤¤à¤¾à¤Ĥ": 5413,
    "Ġà¥§à¥®": 5414,
    "Ġà¤Ńà¥Ģà¤²": 5415,
    "Ġà¤¬à¤Ĥà¤Ĺ": 5416,
    "Ġà¤¨à¤¿à¤®": 5417,
    "²à¤¿à¤®": 5418,
    "Ġà¤®à¥Į": 5419,
    "Ġà¤¬à¥Į": 5420,
    "à¤¹à¤¾à¤ģ": 5421,
    "Ġà¤ķà¥ĭà¤Ī": 5422,
    "Ġà¤®à¤Ĥà¤¤à¥įà¤°": 5423,
    "Ġà¤ľà¤¨à¤¤à¤¾": 5424,
    "Ġà¤µà¥Ģà¤Ĥ": 5425,
    "Ġà¤ħà¤¨à¥įà¤¤à¤°": 5426,
    "Ġà¤¬à¤¨à¤¾à¤Ī": 5427,
    "Ġà¤°à¤¹à¥Ģ": 5428,
    "Ġà¤¸à¤°à¤ķà¤¾à¤°à¥ĩà¤Ĥ": 5429,
    "à¤¿à¤°à¤¾": 5430,
    "Ġà¤¸à¤¾à¤®à¤¾à¤ľ": 5431,
    "Ġà¥¨à¥¦": 5432,
    "Ġà¤ľà¤¿à¤¸à¤ķà¤¾": 5433,
    "Ġà¤«à¥įà¤°": 5434,
    "à¤¾à¤¤à¥įà¤®": 5435,
    "Ġà¤¨à¤¿à¤µ": 5436,
    "Ġà¤ªà¥Ĥà¤°à¥įà¤µà¥Ģ": 5437,
    "Ġà¤¨à¤¿à¤°à¥įà¤": 5438,
    "Ġà¤°à¤¾à¤ľà¤§à¤¾à¤¨": 5439,
    "à¤¦à¤¾à¤°à¥Ģ": 5440,
    "Ġà¤Ľà¥ĭà¤¡à¤¼": 5441,
    "à¤¿à¤¬à¤Ĥà¤§": 5442,
    "Ġà¤¬à¤¢à¤¼à¤ķà¤°": 5443,
    "Ġà¤ķà¤¿à¤¯à¥ĩ": 5444,
    "Ġà¤ľà¥Ģà¤¤": 5445,
    "à¥ģà¤¡à¤¼": 5446,
    "à¤°à¥įà¤¤à¤Ĺ": 5447,
    "Ġà¤µà¤°à¥įà¤¤": 5448,
    "Ġà¤¦à¥ĩà¤ĸà¤¾": 5449,
    "Ġà¤¸à¤Ĥà¤ĺà¤°à¥įà¤·": 5450,
    "Ġà¤®à¤¾à¤¨à¤¸": 5451,
    "Ġà¤ľà¥Ĥà¤¨": 5452,
    "Ġà¤Ĩà¤§à¤¾à¤°": 5453,
    "Ġà¤ªà¥įà¤°à¤¶à¤¾à¤¸": 5454,
    "à¤Ĥà¤¬à¥ĩ": 5455,
    "Ġà¤°à¤¾à¤ľà¤¨": 5456,
    "Ġà¤īà¤ļà¥įà¤ļ": 5457,
    "Ġà¤µà¤¿à¤¸à¥įà¤¤à¤¾à¤°": 5458,
    "Ġà¤ĺà¤¾à¤Ł": 5459,
    "Ġà¤ªà¤Ĥà¤ľ": 5460,
    "à¤ªà¥Ĥà¤°à¥įà¤£": 5461,
    "Ġà¤ªà¤°à¥įà¤µà¤¤": 5462,
    "à¤µà¤¿à¤ľ": 5463,
    "Ġà¤¸à¤Ĥà¤Ĺà¥Ģà¤¤": 5464,
    "Ġà¤²à¥ĭà¤Ĺà¥ĭà¤Ĥ": 5465,
    "Ġà¤Ńà¤¾à¤·à¤¾à¤ıà¤ģ": 5466,
    "Ġà¤ħà¤®à¥ĩà¤°": 5467,
    "Ġà¤ķà¤¹à¤¤à¥ĩ": 5468,
    "Ġà¤¨à¤¦à¤¿à¤¯à¤¾à¤ģ": 5469,
    "Ġà¤®à¥Ĥà¤²": 5470,
    "Ġà¤°à¥Ĥà¤¸": 5471,
    "à¥ĭà¤Łà¥ĩ": 5472,
    "Ġà¤ħà¤²à¤¾à¤µà¤¾": 5473,
    "Ġà¤ĩà¤Ĥà¤¡à¤¿à¤¯à¤¾": 5474,
    "Ġà¤µà¥įà¤¯à¤¾à¤ªà¤¾à¤°": 5475,
    "Ġà¤¸à¤¿à¤Ĥà¤¹": 5476,
    "Ġà¤®à¤¿à¤²à¤¿à¤¯à¤¨": 5477,
    "Ġà¤īà¤¸à¤ķà¥ĩ": 5478,
    "Ġà¤¸à¤¿à¤¨à¥ĩ": 5479,
    "à¤¿à¤·à¥įà¤ł": 5480,
    "Ġà¤®à¤¾à¤§": 5481,
    "Ġà¤īà¤ªà¤®à¤¹": 5482,
    "à¤ªà¥ĩà¤ķà¥įà¤·": 5483,
    "Ġà¤ªà¥įà¤°à¥Į": 5484,
    "Ġà¤ħà¤Ńà¤¿à¤¯à¤¾à¤¨": 5485,
    "Ġà¤µà¤¿à¤ķà¤¸à¤¿à¤¤": 5486,
    "Ġà¤¦à¤¿à¤²à¥įà¤²": 5487,
    "Ġà¤ľà¤¨à¤µà¤°à¥Ģ": 5488,
    "Ġà¤¬à¤¾à¤¹à¤°à¥Ģ": 5489,
    "Ġà¤Ĩà¤¨à¥įà¤¦à¥ĭà¤²à¤¨": 5490,
    "Ġà¤¦à¥ĥà¤·à¥įà¤Łà¤¿": 5491,
    "Ġà¤ĩà¤¤à¤¿à¤¹à¤¾à¤¸": 5492,
    "Ġà¤¸à¤²": 5493,
    "Ġà¤ªà¤¹à¥ģà¤ģ": 5494,
    "Ġà¤¶à¥ģà¤°à¥ģà¤Ĩ": 5495,
    "Ġà¤ªà¥įà¤°à¤ļà¤²": 5496,
    "Ġà¤¹à¤¿à¤¸à¥įà¤¸": 5497,
    "à¤¤à¤¾à¤Ĥà¤¤à¥įà¤°à¤¿à¤ķ": 5498,
    "à¤¸à¥įà¤²à¤¿à¤®": 5499,
    "Ġà¤¬à¥Įà¤¦à¥įà¤§": 5500,
    "Ġà¤ľà¤¹à¤¾à¤ģ": 5501,
    "Ġà¤¸à¤¾à¤®à¤¾à¤ľà¤¿à¤ķ": 5502,
    "Ġà¤°à¤¾à¤ľà¤§à¤¾à¤¨à¥Ģ": 5503,
    "Ġà¤ªà¥ģà¤°à¥įà¤¤à¤Ĺ": 5504,
    "Ġà¤µà¤°à¥įà¤¤à¤®à¤¾à¤¨": 5505,
    "Ġà¤®à¤¾à¤¨à¤¸à¥Ĥà¤¨": 5506,
    "Ġà¤ªà¥įà¤°à¤¶à¤¾à¤¸à¤¨": 5507,
    "Ġà¤°à¤¾à¤ľà¤¨à¥Ī": 5508,
    "Ġà¤ªà¤Ĥà¤ľà¤¾à¤¬": 5509,
    "Ġà¤ħà¤®à¥ĩà¤°à¤¿à¤ķà¤¾": 5510,
    "Ġà¤®à¤¾à¤§à¥įà¤¯à¤®": 5511,
    "Ġà¤īà¤ªà¤®à¤¹à¤¾à¤¦à¥įà¤µà¥Ģà¤ª": 5512,
    "Ġà¤ªà¥įà¤°à¥Įà¤¦à¥įà¤¯à¥ĭà¤Ĺ": 5513,
    "Ġà¤¦à¤¿à¤²à¥įà¤²à¥Ģ": 5514,
    "Ġà¤¸à¤²à¥įà¤¤": 5515,
    "Ġà¤°à¤¾à¤ľà¤¨à¥Īà¤¤à¤¿à¤ķ": 5516,
    "Ġà¤ªà¥įà¤°à¥Įà¤¦à¥įà¤¯à¥ĭà¤Ĺà¤¿à¤ķà¥Ģ": 5517,
    "Ġà¤¸à¤²à¥įà¤¤à¤¨à¤¤": 5518,
    "ĠâĢ": 5519,
    "ËĪ": 5520,
    "aË": 5521,
    "====": 5522,
    "Ġ27": 5523,
    "Ġ192": 5524,
    "100": 5525,
    "Ġ====": 5526,
    "Ġ41": 5527,
    "ĠâĤ¹": 5528,
    "ĠÂ°": 5529,
    "Ġ1858": 5530,
    "aËĲ": 5531,
    "Ġ46": 5532,
    "BC": 5533,
    "Ġ2004": 5534,
    "Ġ1956": 5535,
    "Ġ82": 5536,
    "Ġ1975": 5537,
    "422": 5538,
    "Ġ1857": 5539,
    "517": 5540,
    "ĠBBC": 5541,
    "ey": 5542,
    "eb": 5543,
    "400": 5544,
    "ime": 5545,
    "Ġ1935": 5546,
    "93": 5547,
    "Ġ75": 5548,
    "Ġ1000": 5549,
    "Ġ121": 5550,
    "Ġ2021": 5551,
    "Ġ1930": 5552,
    "epublic": 5553,
    "à°¿à°Ĥ": 5554,
    "à°Ĩ": 5555,
    "Ġ=": 5556,
    "à°¾à°·": 5557,
    "à°¨à°¾à°": 5558,
    "à°¦à±ĩà°¶à°Ĥà°²à±ĭ": 5559,
    "à°¦à±įà°°": 5560,
    "à±Ģà°²à±ģ": 5561,
    "Ġà°ĩà°¤": 5562,
    "à°¿à°¸à±įà°¤à°¾à°¨": 5563,
    "59": 5564,
    "Ġà°ĵ": 5565,
    "Ġà°¥": 5566,
    "Ġà°§": 5567,
    "à°¾à°«": 5568,
    "à°Ĥà°ľ": 5569,
    "à°²à±ĩ": 5570,
    "à±įà°°à±ĭ": 5571,
    "à°ķà°²": 5572,
    "à±ĩà°®": 5573,
    "à±ĩà°ļ": 5574,
    "Ġà°ªà°µ": 5575,
    "Ńà°µ": 5576,
    "Ġà°¸à°¿à°ķ": 5577,
    "à±Ĩà°¡": 5578,
    "Ġà°ªà°²à±ģ": 5579,
    "Ġà°ķà°²à±ģ": 5580,
    "à°¿à°ķà°²à±ģ": 5581,
    "à°ķà±Ĥ": 5582,
    "à±Ĥà°®": 5583,
    "¥à°¾à°²à±ģ": 5584,
    "à°Łà°¾": 5585,
    "®à°¾à°¨": 5586,
    "à°¾à°¨à±Ģ": 5587,
    "à°°à±įà°¶": 5588,
    "à°°à±įà°ļ": 5589,
    "à±Ĩà°¨à±įà°¨": 5590,
    "à°¨à±įà°¨à±Ģ": 5591,
    "à°Ĥà°¦à°¿à°Ĥà°¦à°¿": 5592,
    "Ġà°µà°¾à°¯": 5593,
    "Ġà°ľà±ĭ": 5594,
    "Ġà°ľà°²": 5595,
    "à°¾à°¤à°Ĥ": 5596,
    "à°¦à±ĩà°¶à°¾à°²à±ģ": 5597,
    "à°¿à°Ĥà°Ĺ": 5598,
    "Ġà°¨à±ĩ": 5599,
    "ĠCI": 5600,
    "Ġà°ļà°µ": 5601,
    "à°¾à°¯à°Ĥà°²à±ĭ": 5602,
    "Ġà°ĩà°Ł": 5603,
    "Ġà°ĩà°Ĥà°¦": 5604,
    "à°°à°²à±ĭ": 5605,
    "à±Ģà°²à±ĭ": 5606,
    "à°¨à±įà°²": 5607,
    "Ġà°ªà±įà°²": 5608,
    "à±įà°²à°²à±ĭ": 5609,
    "Ġà°ķà°¨à±ģ": 5610,
    "à°µà°¹": 5611,
    "à°¹à±įà°°": 5612,
    "à°®à°¹": 5613,
    "à°²à°¸": 5614,
    "à°ķà±ģà°²à±ģ": 5615,
    "Ġà°Ĩà°¸": 5616,
    "Ġà°Ĩà°¨": 5617,
    "Ġà°Ĩà°µ": 5618,
    "Ġà°Ĩà°Ĺ": 5619,
    "Ġà°¤à±Ĥ": 5620,
    "Ġà°ħà°£": 5621,
    "à°¦à±ģà°²à±ģ": 5622,
    "à°¿à°¤à±įà°µ": 5623,
    "Ġà°°à°ļ": 5624,
    "Ġà°Ĺà°¤": 5625,
    "Ġà°¬à°¡": 5626,
    "à±ģà°¤à±Ĥ": 5627,
    "à°¾à°¯à±ģà°¤": 5628,
    "Ġà°µà°¿à°²": 5629,
    "à°¡à±Īà°¨": 5630,
    "Ġà°İà°¡": 5631,
    "à°µà°Ĥà°¤": 5632,
    "à°®à°¾à°°à±ģ": 5633,
    "à±Ģà°ķà±įà°·": 5634,
    "à°¾à°Ĥà°¬": 5635,
    "à°¨à±įâĢĮ": 5636,
    "à°¿à°ķà±įâĢĮ": 5637,
    "Ġà°Ńà°¾à°°à°¤à±įâĢĮ": 5638,
    "à°¾à°¦à°Ĥ": 5639,
    "à°¿à°ªà±ĭ": 5640,
    "à°¾à°®à±ģ": 5641,
    "à°¨à°¦à°¿": 5642,
    "Ġà°ķà±Ĥà°¡à°¿": 5643,
    "¢à°¾à°ķ": 5644,
    "Ġà°¹à°¾à°ķ": 5645,
    "à°¾à°°à±įà°¤": 5646,
    "à±ģà°²à°¨à±ģ": 5647,
    "Ġà°¨à°¿à°²": 5648,
    "Ġà°¶à°¿à°²": 5649,
    "Ġà°ķà±ĥ": 5650,
    "Ġà°ľà°¾à°¤à±ģà°²à±ģ": 5651,
    "Ġà°ľà°¾à°¤à°¿": 5652,
    "à°ľà°¿à°¤": 5653,
    "à°®à°¤à°¿": 5654,
    "Ġà°²à°ķà±ģ": 5655,
    "Ġà°²à±Ĩ": 5656,
    "Ġà°¸à±įà°¤": 5657,
    "Ġà°ªà°ķà±įà°ķ": 5658,
    "Ġà°ĩà°ķà±įà°ķ": 5659,
    "à°ķà±įà°ķà°¨à±ģ": 5660,
    "à°Ĺà±ģà°µ": 5661,
    "Ġà°ķà°³": 5662,
    "Ġà°ľà°¨à°¤": 5663,
    "à±Įà°°": 5664,
    "Ġà°¬à±Į": 5665,
    "à±įà°ªà°Ĥ": 5666,
    "à±ģà°¸à±įà°¤": 5667,
    "Ġ83": 5668,
    "Ġà°¦à°¾à°Ł": 5669,
    "Ġà°µà°¾à°Ł": 5670,
    "à°¾à°Łà°ķ": 5671,
    "Ġà°¦à±ĩà°¶à°ªà±ģ": 5672,
    "Ġà°ıà°ķ": 5673,
    "Ġà°¶à°¾à°¸": 5674,
    "à°¾à°Ĥà°¤à°°": 5675,
    "à°¦à±įà°§à°Ĥ": 5676,
    "à°¡à°¾à°¨à°¿à°ķà°¿": 5677,
    "à±ģà°²à°¤à±ĭ": 5678,
    "Ġà°ªà°¾à°°à±įà°²": 5679,
    "Ġà°¨à°¿à°µ": 5680,
    "à°¦à°¾à°µ": 5681,
    "Ġà°ļà±Ĩà°¨à±įà°¨": 5682,
    "Ġà°ħà°§à°¿à°ķà°¾à°°à°Ĥ": 5683,
    "Ġà°Ĵà°ķà°Łà°¿": 5684,
    "Ġà°¤à°°à±įà°µ": 5685,
    "Ġà°ªà°°à±įà°µ": 5686,
    "Ġà°ªà±įà°°à°¾à°Ĥà°¤à±Ģà°¯": 5687,
    "à°Ĥà°Łà±ģà°¨à±įà°¨": 5688,
    "à°°à°¾à°ľ": 5689,
    "à±ĭà°°à±į": 5690,
    "Ġà°µà±Ĩà°²": 5691,
    "Ġà°¨à±Ĩà°²": 5692,
    "Ġà°ħà°µà°¿": 5693,
    "Ġà°ķà°¬à°¡": 5694,
    "Ġà°°à°¾à°ľà±įà°¯à°Ĥà°Ĺà°¾": 5695,
    "Ġà°µà±įà°¯à°µà°¸à±įà°¥à°ķà±ģ": 5696,
    "Ġà°Īà°¶": 5697,
    "Ġà°¦à±Ģà°¨": 5698,
    "Ġà°¸à°®à°¾à°ľ": 5699,
    "ķà°°à°£": 5700,
    "Ġà°ªà±įà°°à°ľà°¾à°¦": 5701,
    "Ġà°ªà±įà°°à°ľà°²à±ģ": 5702,
    "Ġà°Ńà°¾à°·à°¾": 5703,
    "Ġà°®à±Ĭà°¦à°Ł": 5704,
    "Ġà°ħà°ªà±įà°ª": 5705,
    "Ġà°ļà±Ĩà°ªà±įà°ª": 5706,
    "Ġà°ĩà°¤à°°à°¦à±ĩà°¶": 5707,
    "Ġà°¹à°¿à°Ĥà°¦à±Ĥà°¸à±įà°¤": 5708,
    "Ġà°¤à°¤à±įà°µ": 5709,
    "à°¤à±įà°µà°Ĥà°²à±ĭ": 5710,
    "Ġà°°à°¿à°Ł": 5711,
    "Ġà°ļà±Ĥà°¡": 5712,
    "à±Ĩà°¸à±į": 5713,
    "Ġà°¸à°Ńà±įà°¯": 5714,
    "Ġà°¸à°Ńà°¨à±ģ": 5715,
    "Ġà°ħà°¤à°¿à°ª": 5716,
    "Ġà°¸à±įà°¥à°¾à°¨à°Ĥ": 5717,
    "Ġà°İà°¨à±įà°¨à±ģà°ķà±ĭ": 5718,
    "Ġà°°à±Ĩà°Ĥà°¡à±ĭ": 5719,
    "Ġà°°à±Ĩà°Ĥà°¡à°µ": 5720,
    "Ġà°ķà°¾à°ª": 5721,
    "à°¾à°¹à°¾à°°": 5722,
    "à°²à°¾à°¹": 5723,
    "Ġà°µà°¾à°¹": 5724,
    "à°¿à°ļà±ĩ": 5725,
    "à°¿à°ļà±įà°ļ": 5726,
    "Ġà°ĩà°Ĥà°¡à±ĭ": 5727,
    "Ġà°ķà±įà°°à±Ģà°¡à°¾": 5728,
    "Ġà°ħà°¯à°¿à°¨à°¾": 5729,
    "Ġà°ľà°°à°¿à°Ĺà±ĩ": 5730,
    "à°¿à°¶à±įà°°": 5731,
    "Ġà°ªà°¾à°²à°¿à°Ĥà°ļ": 5732,
    "à°¦à±ģà°Ĺà°¾": 5733,
    "Ġà°ªà±įà°°à°¤à±įà°¯": 5734,
    "Ġà°¸à±įà°¥à°¾à°µ": 5735,
    "à°µà°°à±įà°¤": 5736,
    "Ġà°¸à±įà°¥à°¾à°¨à°¾à°²à°¨à±ģ": 5737,
    "Ġà°¸à°¾à°®à°¾à°ľ": 5738,
    "Ġà°¸à°¾à°®à°°à±įà°": 5739,
    "Ġà°²à±Įà°ķ": 5740,
    "Ġà°¸à°¾à°§à°¿à°Ĥà°ļà°¿à°¨": 5741,
    "Ġà°ªà±įà°°à°Ńà±ģà°¤à±įà°µà°¾à°¨à±įà°¨à°¿": 5742,
    "Ġà°ķà°¾à°Ĥà°Ĺà±įà°°à±Ĩà°¸à±į": 5743,
    "Ġà°®à±ģà°ĸà±įà°¯à°Ĥà°Ĺà°¾": 5744,
    "Ġà°ķà±ĭà°Łà±įà°²": 5745,
    "Ġà°®à°¾à°Ł": 5746,
    "à°Ĥà°ķà±Ĩà°²à±ģ": 5747,
    "Ġà°ľà°¨à°µ": 5748,
    "Ġà°®à°°à±ĭ": 5749,
    "Ġà°®à°¾à°¤à±įà°°à°®": 5750,
    "Ġà°°à°Ĥà°Ĺà°¾à°²": 5751,
    "Ġà°ķà±įà°°à±Ģà°¡à°²à°²à±ĭ": 5752,
    "Ġà°®à°¹à°¿à°³": 5753,
    "Ġà°Ńà°¾à°Ĺà°¾à°¨à±įà°¨à°¿": 5754,
    "Ġà°īà°¤à±įà°¤à°°à°¾à°¨": 5755,
    "ĠCountry": 5756,
    "Ġà°®à°²": 5757,
    "Ġà°ªà°°à±įà°¯à°¾à°¯": 5758,
    "Ġà°ªà°¤à°¾à°ķ": 5759,
    "Ġà°°à°ķà°¾à°²à±ģ": 5760,
    "à±įâĢĮà°¸à°Ń": 5761,
    "Ġà°¸à°¿à°Ĥà°§à±Ĥ": 5762,
    "Ġà°µà°²à°¨": 5763,
    "Ġà°µà°²à°¸": 5764,
    "Ġà°®à°¨à°¦à±ĩà°¶à°Ĥ": 5765,
    "Ġà°ªà±Ĥà°°à±įà°µ": 5766,
    "Ġà°ªà±Ĥà°°à±įà°¤": 5767,
    "Ġà°®à±Ĭà°Ĺà°²à±ģ": 5768,
    "Ġà°Ńà°¾à°·à°²à°¨à±ģ": 5769,
    "à°¾à°¬à°¾à°¦à±ģ": 5770,
    "à°¿à°Ĥà°ļà±ģà°ķà±ĭà°µ": 5771,
    "à°¢à°¿à°²à±įà°²à±Ģ": 5772,
    "Ġà°¸à±Įà°ķà°°à±įà°¯à°¾à°²à±ģ": 5773,
    "Ġà°¸à±Įà°ķà°°à±įà°¯à°¾à°²à°²à±ĭ": 5774,
    "Ġà°¸à°°à°¿à°¹à°¦à±įà°¦à±ģà°Ĺà°¾": 5775,
    "Ġà°ĸà°¨": 5776,
    "Ġà°Ĳà°ķ": 5777,
    "Ġà°¨à°¿à°¡": 5778,
    "à°Ńà°°à°¤": 5779,
    "Ġà°Ńà°ķà±įà°¤": 5780,
    "Ġà°¶à°ķà±įà°¤": 5781,
    "Ġà°µà°¿à°¶à±įà°µ": 5782,
    "Ġà°ļà±Īà°¨à°¾": 5783,
    "Ġà°ļà±Īà°¨à°¾à°¨": 5784,
    "Ġà°®à°¹à°¾à°¸": 5785,
    "Ġà°ªà°¦à±įà°§à°¤à°¿": 5786,
    "Ġà°ªà±įà°°à°ªà°Ĥà°ļà°Ĥà°²à±ĭà°¨à°¿": 5787,
    "à°¾à°¡à±ģà°ķà±ģà°Ĥà°Ł": 5788,
    "Ġà°İà°¨à±įà°¨à±ģà°ķà±ģà°Ĥà°Ł": 5789,
    "Ġà°ªà±įà°°à°¾à°Ĥà°¤à°¾à°²à±įà°²à±ĭ": 5790,
    "Ġà°ķà±ĭà°°à±įà°Łà±ģ": 5791,
    "Ġà°ķà±ĭà°°à±įà°Łà±ģà°²à±ģ": 5792,
    "Ġà°¸à°¿à°¦à±įà°§": 5793,
    "à°²à°ķ": 5794,
    "Ġà°¸à°®à°°à°Ĥ": 5795,
    "Ġà°µà±ĩà°¦": 5796,
    "Ġà°¸à°¾à°°à°¸à±įà°": 5797,
    "Ġà°¸à±ģà°ª": 5798,
    "Ġà°¨à°Ĺà°°": 5799,
    "Ġà°ªà°²à±įà°²": 5800,
    "Ġà°ķà°¨à±ģà°ķ": 5801,
    "Ġà°µà°¿à°¦à±ĩà°¶": 5802,
    "Ġà°¸à±įà°µà°¾à°¤à°Ĥà°¤à±įà°°à±įà°¯à°Ĥ": 5803,
    "Ġà°°à±Īà°²à±įà°µà±ĩà°¶": 5804,
    "Ġà°¨à°¿à°°à±įà°µà°¹à°¿à°Ĥà°ļà°¿à°Ĥà°¦à°¿": 5805,
    "Ġà°¸à°¾à°Ĥà°ķ": 5806,
    "à°¤à±įà°°à°¿": 5807,
    "Ġà°¸à°¾à°°à±įà°µ": 5808,
    "Ġà°ļà°¦à°°": 5809,
    "à°®à±Ĩà°Ĥà°Ł": 5810,
    "Ġà°ħà°®à±Ĩ": 5811,
    "Ġà°Ĺà±Ĩà°²à±ģ": 5812,
    "Ġà°Ńà±Ĥà°Ł": 5813,
    "à°¤à°¿à°¨à°¿": 5814,
    "Ġà°īà°ªà°¯à±ĭ": 5815,
    "Ġà°ªà±įà°°à°¯à±ĭ": 5816,
    "à°°à±įà°·à°£": 5817,
    "Ġà°¨à°¾à°¯à°ķ": 5818,
    "Ġà°ĩà°µà°¿à°ķ": 5819,
    "Ġà°¸à°Ńà±įà°¯à±ģà°²à±ģ": 5820,
    "Ġà°ķà°Ĥà°Łà±ĩ": 5821,
    "Ġà°ªà±įà°°à°ªà°Ĥà°ļà°®à±ģà°²à±ĭ": 5822,
    "Ġà°µà°¿à°¸à±įà°¤à±Ģà°°à±įà°£": 5823,
    "Ġà°²à°ķà±įà°·à°£": 5824,
    "Ġà°ľà°®à±įà°®": 5825,
    "Ġà°²à±ĭà°ķà±į": 5826,
    "Ġà°ļà±Ĩà°Ĥà°¦à°¾à°¯à°¿": 5827,
    "Ġà°ļà±Ĩà°Ĥà°¦à±ģà°¤à±ģà°¨à±įà°¨": 5828,
    "Ġà°°à°¾à°ľà±įà°¯à°¾à°²à±ģà°Ĺà°¾": 5829,
    "Ġà°ªà±ĩà°°à±įà°²à±ģ": 5830,
    "Ġà°¨à±įà°¯à°¾à°¯à°µ": 5831,
    "Ġà°¬à±įà°°à°¿à°Łà°¿à°·à±ģ": 5832,
    "Ġà°¬à±įà°°à°¿à°Łà°¿à°·à±į": 5833,
    "Ġà°¸à°¾à°®à±įà°°à°¾à°ľà±įà°¯": 5834,
    "Ġà°¸à°¾à°®à±įà°°à°¾à°ľà±įà°¯à°Ĥ": 5835,
    "Ġà°ªà°¶à±įà°ļà°¿à°®à°¾à°¨": 5836,
    "Ġà°¸à°Ĥà°µà°¤à±įà°¸à°°": 5837,
    "Ġà°ħà°ķà±įà°·à°°à°¾à°¸à±įà°¯à°¤": 5838,
    "Ġà°ªà°¦à°µà°¿": 5839,
    "Ġà°®à±ģà°¡à°¿": 5840,
    "Ġà°µà°¿à°·": 5841,
    "à±įà°ķà±ģ": 5842,
    "Ġà°Īà°¸à±įà°": 5843,
    "Ġà°¬à°Ĥà°Ĺà°¾à°°à±ģ": 5844,
    "à°¿à°³à±įà°³": 5845,
    "Ġà°µà±ĩà°²": 5846,
    "à°°à±ĩà°¡": 5847,
    "Ġà°ķà°¾à°²à±ĩà°ľ": 5848,
    "Ġà°Ĺà°®à°¨": 5849,
    "Ġà°®à±Ģà°¦": 5850,
    "Ġà°Ĳà°°à±ĭ": 5851,
    "Ġà°Ĩà°§à°¾à°°à°ªà°¡": 5852,
    "Ġà°Łà±Īà°Ł": 5853,
    "à°ªà±įà°ªà°Łà°¿à°ķà°¿à°¨à±Ģ": 5854,
    "Ġà°ķà°¨à±įà°¨à°¡": 5855,
    "Ġà°ľà°¨à°¾à°Ńà°¾à°¤à±ĭ": 5856,
    "Ġà°ªà°¾à°²à°¨à°²à±ĭ": 5857,
    "Ġà°īà°Ĥà°¡à°Łà°Ĥ": 5858,
    "Ġà°¸à°¹à°¸à±įà°°": 5859,
    "Ġà°Ĩà°¹à°¾à°°à°Ĥ": 5860,
    "Ġà°Ĺà°£à°¤à°Ĥà°¤à±įà°°": 5861,
    "Ġà°¸à±Īà°¨à°¿à°ķ": 5862,
    "Ġà°¨à°¿à°ªà±ģ": 5863,
    "Ġà°¹à±Īà°¦à°°": 5864,
    "Ġà°¨à°¿à°¯à°®": 5865,
    "Ġà°ķà±ģà°²à°¾à°²à±ģ": 5866,
    "Ġà°ıà°ªà±įà°°": 5867,
    "à°µà°ļà±įà°ļà±ģ": 5868,
    "Ġà°Ńà°¾à°µà°¿à°¸à±įà°¤à°¾à°°à±ģ": 5869,
    "Ġà°¤à°¿à°°à±ģ": 5870,
    "Ġà°®à°¹à°¾à°¤à±įà°®": 5871,
    "Ġà°ķà°¿à°Ĥà°¦à°ķà±ģ": 5872,
    "Ġà°®à±Įà°°à±įà°¯": 5873,
    "Ġà°ķà±Ĥà°¡à±ģà°ķà±Ĭ": 5874,
    "Ġà°Ńà±Ĥà°Ń": 5875,
    "Ġà°ķà±ĭà°²à±įâĢĮ": 5876,
    "Ġà°ķà±Ĥà°¡à±ģà°ķà±ģà°¨à°¿": 5877,
    "Ġà°İà°¨à±įà°¨à°¿à°ķà°²à±įà°²à±ĭ": 5878,
    "Ġà°°à°¾à°ľà±įà°¯à°¾à°Ĥà°Ĺà°Ĥ": 5879,
    "Ġà°Ĵà°²à°Ĥà°ª": 5880,
    "Ġà°µà±įà°¯à°¾à°ªà°¾à°°": 5881,
    "à°µà±ģà°¤à±ģà°Ĥà°¦à°¿": 5882,
    "Ġà°ķà°¥à°ķ": 5883,
    "Ġà°ķà°¿à°²à±ĭ": 5884,
    "Ġà°ıà°°à±įà°ªà°¡à±įà°¡à°¾à°¯à°¿": 5885,
    "Ġà°ķà°²à°¿à°¸à°¿": 5886,
    "à°®à±ĩà°¨à°¨à°¿": 5887,
    "Ġà°®à±Ĭà°¦à°²à±Īà°¨à°µà°¿": 5888,
    "Ġà°¸à°®à±ģà°¦à±įà°°": 5889,
    "Ġà°ªà±įà°°à°¸": 5890,
    "Ġà°µà°¿à°¦à±įà°¯à±ģà°¤": 5891,
    "Ġà°¸à±Ĥà°ļà°¿à°Ĥà°ļà°¿à°¨": 5892,
    "Ġà°ªà±įà°°à°¤à°¿à°ªà°¾à°¦à°¨à°ķà±ģ": 5893,
    "Ġà°Ńà±Įà°Ĺà±ĭà°³": 5894,
    "Ġà°ĩà°Ĥà°Ĺà±įà°²à±Ģà°·à±ģ": 5895,
    "Ġà°ļà°¾à°°à°¿à°¤à±įà°°à°ķ": 5896,
    "Ġà°ķà°¾à°°à±įà°¯à°ķà±įà°°à°®à°¾à°²à±ģ": 5897,
    "ĠISBN": 5898,
    "Ġà°Ĩà°«à±įà°ĺà°¨": 5899,
    "Ġà°¨à±ĩà°ªà°¾à°²à±į": 5900,
    "Ġà°ªà±įà°°à°¾à°°à°Ĥà°Ńà°¿à°Ĥà°ļ": 5901,
    "Ġà°ľà°¨à°Ĺà°£à°¨": 5902,
    "Ġà°¦à°¾à°¦à°¾à°ªà±ģ": 5903,
    "Ġà°ªà°°à°¿à°ªà°¾à°²à°¨": 5904,
    "Ġà°¹à°¿à°®à°¾à°²à°¯": 5905,
    "Ġà°ľà°°à±ģà°ªà±ģà°ķà±ģà°Ĥà°Łà°¾à°°à±ģ": 5906,
    "Ġà°¶à±Ĩà°²à°µà±ģà°¦à°¿à°¨à°¾à°²à±ģ": 5907,
    "Ġà°µà±Īà°µà°¿à°§à±įà°¯": 5908,
    "Ġà°ķà°Ĥà°ªà±Ĩà°¨à±Ģ": 5909,
    "Ġà°ªà±Ģà°łà°Ń": 5910,
    "à±Ģà°ķà°°à°£": 5911,
    "Ġà°ħà°Ĥà°¤": 5912,
    "ĠProf": 5913,
    "Ġà°®à±ģà°¸à±įà°²": 5914,
    "à°Ńà°¾à°·": 5915,
    "à°¨à°¾à°¥": 5916,
    "Ġà°§à°°": 5917,
    "à°²à±ĩà°¦à±ģ": 5918,
    "à±Ĩà°Łà±įà°°à±ĭ": 5919,
    "Ġà°ªà°µà°¿à°¤à±įà°°": 5920,
    "à±Ĩà°¡à±į": 5921,
    "Ġà°µà°¿à°®à°¾à°¨": 5922,
    "Ġà°µà°¾à°¯à±ģ": 5923,
    "ĠCIA": 5924,
    "à°¾à°¦à°¾à°¯à°Ĥà°²à±ĭ": 5925,
    "Ġà°ĩà°Łà±Ģà°µ": 5926,
    "Ġà°ķà°¨à±ģà°®": 5927,
    "Ġà°¤à±Ĥà°°à±įà°ª": 5928,
    "Ġà°°à°ļà°¯": 5929,
    "Ġà°µà°¿à°²à±ģà°µ": 5930,
    "Ġà°ªà°°à±Ģà°ķà±įà°·": 5931,
    "Ġà°Ńà°¾à°°à°¤à±įâĢĮà°²à±ĭ": 5932,
    "à°¿à°ªà±ĭà°¯à°¿à°Ĥà°¦à°¿": 5933,
    "¢à°¾à°ķà°¾": 5934,
    "Ġà°ķà±ĥà°·à±įà°£": 5935,
    "Ġà°¸à±įà°¤à±įà°°à±Ģ": 5936,
    "Ġà°ªà°ķà±įà°ķà°¨": 5937,
    "Ġà°ķà°³à°²à±ģ": 5938,
    "Ġà°ľà°¨à°¤à°¾": 5939,
    "Ġà°¬à±Įà°¦à±įà°§": 5940,
    "Ġà°¶à°¾à°¸à°¨": 5941,
    "Ġà°°à±Ĥà°ªà°¾à°Ĥà°¤à°°": 5942,
    "Ġà°Ĺà±ĭà°¦à°¾à°µ": 5943,
    "Ġà°ļà±Ĩà°¨à±įà°¨à±Ī": 5944,
    "Ġà°¤à°°à±įà°µà°¾à°¤": 5945,
    "Ġà°µà±Ĩà°²à±įà°²": 5946,
    "Ġà°¨à±Ĩà°²à°ķ": 5947,
    "Ġà°ķà°¬à°¡à±įà°¡": 5948,
    "Ġà°Īà°¶à°¾à°¨": 5949,
    "Ġà°¸à°Ĥà°¸à±įà°ķà°°à°£": 5950,
    "Ġà°ªà±įà°°à°ľà°¾à°¦à°°à°£": 5951,
    "Ġà°ļà±Ĥà°¡à°Ĥà°¡à°¿": 5952,
    "Ġà°ħà°¤à°¿à°ªà±Ĩà°¦à±įà°¦": 5953,
    "Ġà°İà°¨à±įà°¨à±ģà°ķà±ĭà°¬à°¡": 5954,
    "Ġà°ªà°¾à°²à°¿à°Ĥà°ļà°¾à°°à±ģ": 5955,
    "Ġà°¸à±įà°¥à°¾à°µà°°à°¾à°²à±ģ": 5956,
    "Ġà°¸à°¾à°®à°¾à°ľà°¿à°ķ": 5957,
    "Ġà°¸à°¾à°®à°°à±įà°¥": 5958,
    "Ġà°²à±Įà°ķà°¿à°ķ": 5959,
    "Ġà°®à°¾à°Łà±įà°²": 5960,
    "Ġà°ľà°¨à°µà°°à°¿": 5961,
    "Ġà°®à°¾à°¤à±įà°°à°®à±ĩ": 5962,
    "Ġà°®à°²à°¯": 5963,
    "Ġà°ªà°°à±įà°¯à°¾à°¯à°¾à°²à±ģ": 5964,
    "Ġà°²à±ĭà°ķà±įâĢĮà°¸à°Ń": 5965,
    "Ġà°ªà±Ĥà°°à±įà°¤à°¿à°Ĺà°¾": 5966,
    "Ġà°ĸà°¨à°¿à°ľ": 5967,
    "Ġà°Ĳà°ķà±įà°¯": 5968,
    "Ġà°¨à°¿à°¡à°¿à°µ": 5969,
    "Ġà°ļà±Īà°¨à°¾à°¨à±ģ": 5970,
    "Ġà°®à°¹à°¾à°¸à°®à±ģà°¦": 5971,
    "Ġà°ķà°¾à°ªà°¾à°¡à±ģà°ķà±ģà°Ĥà°Ł": 5972,
    "Ġà°İà°²à°ķ": 5973,
    "Ġà°¸à°¾à°°à°¸à±įà°µà°¤": 5974,
    "Ġà°¸à±ģà°ªà±įà°°à±Ģ": 5975,
    "Ġà°µà°¿à°¦à±ĩà°¶à±Ģ": 5976,
    "Ġà°°à±Īà°²à±įà°µà±ĩà°¶à°¾à°ĸ": 5977,
    "Ġà°¸à°¾à°Ĥà°ķà±ĩà°¤": 5978,
    "Ġà°¸à°¾à°°à±įà°µà°¤à±įà°°": 5979,
    "Ġà°ļà°¦à°°à°Ĥà°Ĺ": 5980,
    "Ġà°ªà°¾à°°à±įà°²à°®à±Ĩà°Ĥà°Ł": 5981,
    "Ġà°ħà°®à±Ĩà°°à°¿à°ķ": 5982,
    "Ġà°Ĺà±Ĩà°²à±ģà°ļ": 5983,
    "Ġà°Ńà±Ĥà°Łà°¾à°¨à±į": 5984,
    "Ġà°īà°ªà°¯à±ĭà°Ĺ": 5985,
    "Ġà°ªà±įà°°à°¯à±ĭà°ľ": 5986,
    "Ġà°ľà°®à±įà°®à±Ĥ": 5987,
    "Ġà°¨à±įà°¯à°¾à°¯à°µà±įà°¯à°µà°¸à±įà°¥": 5988,
    "Ġà°µà°¿à°·à°¯à°¾à°²à±ģ": 5989,
    "Ġà°Īà°¸à±įà°Łà±į": 5990,
    "à°°à±ĩà°¡à±ģ": 5991,
    "Ġà°®à±Ģà°¦à°Ĺà°¾": 5992,
    "Ġà°Ĳà°°à±ĭà°ªà°¾": 5993,
    "Ġà°Ĩà°§à°¾à°°à°ªà°¡à°¿à°¨": 5994,
    "Ġà°¸à°¹à°¸à±įà°°à°¾à°¬à±įà°¦": 5995,
    "Ġà°¨à°¿à°ªà±ģà°£": 5996,
    "Ġà°¨à°¿à°¯à°®à°¿à°Ĥà°ļà°¬à°¡": 5997,
    "Ġà°ıà°ªà±įà°°à°¿à°²à±į": 5998,
    "Ġà°¤à°¿à°°à±ģà°Ĺà±ģ": 5999,
    "Ġà°®à°¹à°¾à°¤à±įà°®à°¾": 6000,
    "Ġà°Ńà±Ĥà°Ńà°¾à°Ĺà°Ĥ": 6001,
    "Ġà°ķà±ĭà°²à±įâĢĮà°ķ": 6002,
    "Ġà°ķà°¿à°²à±ĭà°®à±Ģ": 6003,
    "Ġà°¸à°®à±ģà°¦à±įà°°à°¤": 6004,
    "Ġà°ªà±įà°°à°¸à°¿à°¦à±įà°§à°¿": 6005,
    "Ġà°µà°¿à°¦à±įà°¯à±ģà°¤à±į": 6006,
    "Ġà°¸à±Ĥà°ļà°¿à°Ĥà°ļà°¿à°¨à°Łà±įà°²à±ģ": 6007,
    "Ġà°Ńà±Įà°Ĺà±ĭà°³à°¿à°ķ": 6008,
    "Ġà°ªà±Ģà°łà°Ńà±Ĥà°®": 6009,
    "Ġà°ħà°Ĥà°¤à°°à±įà°ľ": 6010,
    "ĠProfile": 6011,
    "Ġà°®à±ģà°¸à±įà°²à°¿à°Ĥ": 6012,
    "Ġà°ķà°¨à±ģà°®à°²à±ģ": 6013,
    "Ġà°°à°ļà°¯à°¿à°¤": 6014,
    "Ġà°¸à±įà°¤à±įà°°à±Ģà°²à±ģ": 6015,
    "Ġà°¨à±Ĩà°²à°ķà±Ĭ": 6016,
    "Ġà°Īà°¶à°¾à°¨à±įà°¯": 6017,
    "Ġà°İà°¨à±įà°¨à±ģà°ķà±ĭà°¬à°¡à°¤": 6018,
    "Ġà°¸à°¾à°®à°°à±įà°¥à±įà°¯à°Ĥ": 6019,
    "Ġà°®à°¾à°Łà±įà°²à°¾à°¡": 6020,
    "Ġà°®à°²à°¯à°¾à°³": 6021,
    "Ġà°ĸà°¨à°¿à°ľà°¾à°²à±ģ": 6022,
    "Ġà°®à°¹à°¾à°¸à°®à±ģà°¦à±įà°°à°Ĥ": 6023,
    "Ġà°ķà°¾à°ªà°¾à°¡à±ģà°ķà±ģà°Ĥà°Łà±Ĥ": 6024,
    "Ġà°İà°²à°ķà±įà°Ł": 6025,
    "Ġà°¸à°¾à°°à°¸à±įà°µà°¤à°Ĥ": 6026,
    "Ġà°¸à±ģà°ªà±įà°°à±Ģà°Ĥ": 6027,
    "Ġà°¸à°¾à°Ĥà°ķà±ĩà°¤à°¿à°ķ": 6028,
    "Ġà°¸à°¾à°°à±įà°µà°¤à±įà°°à°¿à°ķ": 6029,
    "Ġà°ħà°®à±Ĩà°°à°¿à°ķà°¾": 6030,
    "Ġà°Ĺà±Ĩà°²à±ģà°ļà±ģà°ķà±ĭà°µ": 6031,
    "Ġà°¨à°¿à°ªà±ģà°£à±ģà°²à±ģ": 6032,
    "Ġà°¤à°¿à°°à±ģà°Ĺà±ģà°¬": 6033,
    "Ġà°ķà±ĭà°²à±įâĢĮà°ķà°¾à°¤": 6034,
    "Ġà°ķà°¿à°²à±ĭà°®à±Ģà°Łà°°à±įà°²": 6035,
    "Ġà°¸à°®à±ģà°¦à±įà°°à°¤à±Ģ": 6036,
    "Ġà°ħà°Ĥà°¤à°°à±įà°ľà°¾à°¤à±Ģà°¯": 6037,
    "Ġà°İà°¨à±įà°¨à±ģà°ķà±ĭà°¬à°¡à°¤à°¾à°°à±ģ": 6038,
    "Ġà°®à°¾à°Łà±įà°²à°¾à°¡à±ĩ": 6039,
    "Ġà°®à°²à°¯à°¾à°³à°Ĥ": 6040,
    "Ġà°İà°²à°ķà±įà°Łà±ĭà°°": 6041,
    "Ġà°Ĺà±Ĩà°²à±ģà°ļà±ģà°ķà±ĭà°µà°¡à°Ĥ": 6042,
    "Ġà°¤à°¿à°°à±ģà°Ĺà±ģà°¬à°¾à°Łà±ģ": 6043,
    "Ġà°ķà±ĭà°²à±įâĢĮà°ķà°¾à°¤à°¾": 6044,
    "Ġà°ķà°¿à°²à±ĭà°®à±Ģà°Łà°°à±įà°²à°ķà±ģ": 6045,
    "Ġà°İà°²à°ķà±įà°Łà±ĭà°°à°²à±į": 6046,
    "à±ĭà°¤": 6047,
    "à±ĩà°ķ": 6048,
    "à°¾à°°à°¾à°²": 6049,
    "à°²à±Ģ": 6050,
    "Ġà°ķà°°": 6051,
    "Ġà°®à±ĩ": 6052,
    "à°µà°¾à°°": 6053,
    "à°¿à°ķà±į": 6054,
    "à°ªà°°": 6055,
    "à°ªà±Ī": 6056,
    "à°°à±įà°Ĺ": 6057,
    "Ġà°ħà°¨à±įà°¨": 6058,
    "Ġà°īà°¤": 6059,
    "à±įà°²à±ģ": 6060,
    "à±ģà°¨à±ģ": 6061,
    "à°Ĥà°¡à°¾": 6062,
    "à°²à°ķà±ģ": 6063,
    "à°µà±ģà°²à±ģ": 6064,
    "Ġà°Ĺà°Ĥà°Ĺ": 6065,
    "âĢĮà°µ": 6066,
    "à°¿à°¨à°¦à°¿": 6067,
    "à°¾à°°à±įà°ķ": 6068,
    "à°¬à°¡à°¿à°¨": 6069,
    "à°¬à°¡à°¿à°Ĥà°¦à°¿": 6070,
    "à°¾à°°à°¿à°Ĺà°¾": 6071,
    "Ġà°¸à±ģ": 6072,
    "à°ĺ": 6073,
    "à±ģà°Ĺ": 6074,
    "Ġà°ħà°§": 6075,
    "\".": 6076,
    "anguages": 6077,
    "Ġreport": 6078,
    "ayback": 6079,
    "ie": 6080,
    "adi": 6081,
    "tic": 6082,
    "has": 6083,
    "ds": 6084,
    "Ġlo": 6085,
    "gu": 6086,
    "here": 6087,
    "ks": 6088,
    "dis": 6089,
    "div": 6090,
    "erv": 6091,
    "Ġfam": 6092,
    "ained": 6093,
    "Ġacc": 6094,
    "ĠY": 6095,
    "uj": 6096,
    "era": 6097,
    "erc": 6098,
    "Ġcan": 6099,
    "Ġche": 6100,
    "ones": 6101,
    "ues": 6102,
    "Ġmon": 6103,
    "ering": 6104,
    "tou": 6105,
    "Ġhis": 6106,
    "Ġder": 6107,
    "Ġret": 6108,
    "old": 6109,
    "ole": 6110,
    "rial": 6111,
    "ĠSing": 6112,
    "Ġve": 6113,
    "aist": 6114,
    "astri": 6115,
    "olid": 6116,
    "ĠTheir": 6117,
    "ĠPar": 6118,
    "Ġwithin": 6119,
    "aries": 6120,
    "orter": 6121,
    "otion": 6122,
    "ortion": 6123,
    "ots": 6124,
    "Ġexc": 6125,
    "ĠDec": 6126,
    "ably": 6127,
    "Ġsum": 6128,
    "Ġlay": 6129,
    "ĠGup": 6130,
    "ured": 6131,
    "ulti": 6132,
    "Ġwrit": 6133,
    "oci": 6134,
    "lied": 6135,
    "iving": 6136,
    "elf": 6137,
    "chab": 6138,
    "Ġexch": 6139,
    "Ġwear": 6140,
    "Ġnear": 6141,
    "ĠWar": 6142,
    "ĠAss": 6143,
    "ously": 6144,
    "Ġprov": 6145,
    "Ġintro": 6146,
    "dually": 6147,
    "aving": 6148,
    "Ġflow": 6149,
    "Ġbelow": 6150,
    "liance": 6151,
    "ĠMany": 6152,
    "Ġplate": 6153,
    "reme": 6154,
    "Ġtook": 6155,
    "olence": 6156,
    "line": 6157,
    "Ġqu": 6158,
    "Ġequ": 6159,
    "equ": 6160,
    "Ġagain": 6161,
    "Ġcreat": 6162,
    "ĠHindust": 6163,
    "Ġshow": 6164,
    "ĠAsian": 6165,
    "bian": 6166,
    "Ġresult": 6167,
    "itect": 6168,
    "Ġupp": 6169,
    "Ġmeat": 6170,
    "Ġpoll": 6171,
    "Ġhead": 6172,
    "Ġtraditionally": 6173,
    "Ġserv": 6174,
    "Ġscri": 6175,
    "Ġgrowing": 6176,
    "hedul": 6177,
    "ĠNuclear": 6178,
    "Ġpublic": 6179,
    "ĠConstit": 6180,
    "ĠGree": 6181,
    "Ġrelations": 6182,
    "Ġsari": 6183,
    "Ġjust": 6184,
    "Ġforeign": 6185,
    "Ġpartition": 6186,
    "ratic": 6187,
    "Ġenac": 6188,
    "aksh": 6189,
    "Ġsecular": 6190,
    "Ġextant": 6191,
    "Ġextens": 6192,
    "Ġabout": 6193,
    "Ġplace": 6194,
    "Ġphar": 6195,
    "Ġinfluence": 6196,
    "ĠAll": 6197,
    "Ġdevelopment": 6198,
    "ĠAncient": 6199,
    "Ġwork": 6200,
    "vention": 6201,
    "Ġhistory": 6202,
    "Ġappro": 6203,
    "life": 6204,
    "Ġleader": 6205,
    "Ġwhen": 6206,
    "Ġreform": 6207,
    "ĠMaur": 6208,
    "ĠMah": 6209,
    "ified": 6210,
    "Ġwild": 6211,
    "Ġexports": 6212,
    "Ġcrust": 6213,
    "ĠCivil": 6214,
    "Ġreduced": 6215,
    "ĠHowever": 6216,
    "ĠGh": 6217,
    "operation": 6218,
    "Ġdisput": 6219,
    "Ġcooked": 6220,
    "Ġcooking": 6221,
    "Ġgreater": 6222,
    "Ġagriculture": 6223,
    "Ġinvol": 6224,
    "ĠPlateau": 6225,
    "Ġdiverse": 6226,
    "Ġdemoc": 6227,
    "Ġbefore": 6228,
    "Ġcapit": 6229,
    "Ġprocess": 6230,
    "Ġdirectly": 6231,
    "Ġelites": 6232,
    "Ġdecades": 6233,
    "vided": 6234,
    "Ġfund": 6235,
    "Ġrights": 6236,
    "Ġagricultural": 6237,
    "etwork": 6238,
    "ĠEuropean": 6239,
    "Ġmathematics": 6240,
    "odiversity": 6241,
    "urned": 6242,
    "ropical": 6243,
    "Ġcomposed": 6244,
    "Ġcontinu": 6245,
    "Ġpract": 6246,
    "Ġcommerc": 6247,
    "Ġcalled": 6248,
    "Ġsmall": 6249,
    "iety": 6250,
    "Ġbody": 6251,
    "Ġfeatures": 6252,
    "Ġcommonly": 6253,
    "Ġexternal": 6254,
    "ĠValley": 6255,
    "ĠDra": 6256,
    "ĠAfric": 6257,
    "Ġtax": 6258,
    "Ġindigen": 6259,
    "miss": 6260,
    "Ġsingle": 6261,
    "Ġcurren": 6262,
    "Ġrenew": 6263,
    "Ġmember": 6264,
    "Ġoldest": 6265,
    "Ġnumbers": 6266,
    "Ġschool": 6267,
    "Ġimportant": 6268,
    "Ġknown": 6269,
    "Ġconducted": 6270,
    "ĠBharat": 6271,
    "Ġglobal": 6272,
    "Ġrecorded": 6273,
    "Ġestimated": 6274,
    "Ġdifferent": 6275,
    "Ġestablished": 6276,
    "ĠKashmir": 6277,
    "dram": 6278,
    "ĠSea": 6279,
    "ĠAlthough": 6280,
    "ĠGuj": 6281,
    "Ġera": 6282,
    "ĠSingh": 6283,
    "Ġwaist": 6284,
    "Ġconsolid": 6285,
    "touchab": 6286,
    "Ġresulting": 6287,
    "Ġarchitect": 6288,
    "Ġupper": 6289,
    "Ġenacted": 6290,
    "Ġpharm": 6291,
    "Ġapprox": 6292,
    "ĠGhats": 6293,
    "Ġfundament": 6294,
    "Ġcontinued": 6295,
    "Ġcommercial": 6296,
    "ĠDravi": 6297,
    "ĠAfrica": 6298,
    "Ġindigenous": 6299,
    "dramas": 6300,
    "Ġpharmace": 6301,
    "Ġapproxim": 6302,
    "Ġfundamental": 6303,
    "ĠDravidian": 6304,
    "Ġpharmaceut": 6305,
    "Ġapproximately": 6306,
    "Ġpharmaceutical": 6307,
    "gy": 6308,
    "ergy": 6309,
    "ining": 6310,
    "ash": 6311,
    "ail": 6312,
    "ets": 6313,
    "ture": 6314,
    "Ġcult": 6315,
    "Ġproduc": 6316,
    "ĠWest": 6317,
    "mb": 6318,
    "ara": 6319,
    "Ġman": 6320,
    "Ġnat": 6321,
    "ali": 6322,
    "ely": 6323,
    "Ġso": 6324,
    "Ġpr": 6325,
    "ti": 6326,
    "te": 6327,
    "ĠArch": 6328,
    "ĠArchived": 6329,
    "à®ĵ": 6330,
    "Ġà®ļà®¿à®": 6331,
    "Ġà®µà¯Ģ": 6332,
    "à¯ģà®±à¯Ī": 6333,
    "à®£à¯įà®ª": 6334,
    "à¯įà®ļà¯įà®ļ": 6335,
    "à®²à®ķ": 6336,
    "à®µà®²": 6337,
    "Ġà®ħà®³": 6338,
    "à¯įà®ªà¯ĭ": 6339,
    "à¯Īà®¯à®¾à®ķà¯ģà®®à¯į": 6340,
    "à¯įà®ķà¯įà®ķà®": 6341,
    "à®®à®°": 6342,
    "à®°à¯ģà®ªà¯įà®ª": 6343,
    "Ġà®ķà®¾à®²à®¤à¯įà®¤": 6344,
    "à¯ĩà®ķ": 6345,
    "à®Ļà¯įà®ķà®³à®¾à®©": 6346,
    "Ġà®µà®°à¯ģà®ķ": 6347,
    "à¯ģà®ªà¯įà®ªà®¾à®Łà¯įà®Ł": 6348,
    "Ġà®īà®²à®ķà®": 6349,
    "à¯Īà®ķà¯įà®ķà®ªà¯įà®ªà®Ł": 6350,
    "Ġà®µà®©": 6351,
    "à®±à¯įà®±à®¤à¯ģ": 6352,
    "à¯ģà®ķà¯įà®ķà®³": 6353,
    "à®¿à®°à®¾": 6354,
    "Ġà®ķà¯ĩ": 6355,
    "à®³à¯įà®ķ": 6356,
    "à®¿à®¯à®³": 6357,
    "à®¤à®®à¯į": 6358,
    "à®ķà®¾à®°": 6359,
    "à®ķà¯įà®ķà®³à¯į": 6360,
    "à¯ģà®¤à¯įà®¤à®¿": 6361,
    "à®°à¯ģà®¤à¯įà®¤": 6362,
    "à®¿à®¤à¯įà®¤à®©": 6363,
    "à¯įà®²à®¾à®": 6364,
    "à®®à®¿à®Ł": 6365,
    "Ġà®ķà¯Ĭà®£à¯įà®Łà¯ģà®³à¯įà®³": 6366,
    "à®¿à®ķà®³à¯Īà®ķà¯į": 6367,
    "à¯Īà®¯à¯Īà®ªà¯į": 6368,
    "à¯Īà®¤à¯įà®¤à¯ģ": 6369,
    "à®±à¯įà®ķà¯ģà®ķà¯į": 6370,
    "Ġà®®à¯ģà®±à¯Īà®ķà®³": 6371,
    "Ġà®¨à®¿à®±à¯ģà®µà®ªà¯įà®ªà®Łà¯įà®Ł": 6372,
    "Ġà®ļà®¿à®±à®ªà¯įà®ª": 6373,
    "Ġà®ħà®µà®°à¯įà®ķà®³": 6374,
    "Ġà®¤à®Łà¯ģà®ªà¯įà®ª": 6375,
    "à¯įà®·": 6376,
    "à¯Īà®ŀ": 6377,
    "Ġà®ķà®³": 6378,
    "Ġà®ªà®©": 6379,
    "Ġà®µà®¿à®¯": 6380,
    "Ġà®ħà®¤à¯ģ": 6381,
    "à®£à®¿": 6382,
    "Ġà®ļà®µ": 6383,
    "Ġà®īà®¤à¯įà®¤": 6384,
    "à®¤à¯įà®¤à®¿à®°": 6385,
    "à®ļà®¿": 6386,
    "à®¯à®¿à®²à¯į": 6387,
    "Ġà®ħà®¯": 6388,
    "à¯įà®ķà®²à¯į": 6389,
    "à¯įà®ķà®±": 6390,
    "à®Łà¯įà®Łà®®à¯į": 6391,
    "à®¾à®©à®®à¯į": 6392,
    "à®µà®®à¯į": 6393,
    "à¯įà®ļà¯Ī": 6394,
    "à¯įà®ļà¯ģ": 6395,
    "Ġà®ķà®¾à®µ": 6396,
    "à®¾à®µà¯į": 6397,
    "Ġà®ªà®¾à®Ł": 6398,
    "Ġà®ķà®´": 6399,
    "à®¿à®ķà®¾": 6400,
    "à®¿à®¯à®°à¯į": 6401,
    "à®¿à®¤à®¾à®©": 6402,
    "à®¿à®ķà¯ģà®Ł": 6403,
    "Ġà®Ĵà®³": 6404,
    "Ġà®İà®°": 6405,
    "Ġà®ªà¯ģà®³à¯įà®³": 6406,
    "à®¨à¯įà®¤à®¾": 6407,
    "Ġà®īà®¨à¯įà®¤": 6408,
    "à¯ģà®ķà¯įà®ķà®³à¯į": 6409,
    "à®¾à®ķà¯įà®ķà®³à¯į": 6410,
    "°à¯įà®ķà®³à¯į": 6411,
    "Ġà®ĩà®¨à¯įà®¤à®¿à®¯à®¾à®µà®¾à®©à®¤à¯ģ": 6412,
    "à¯įà®µà¯Ī": 6413,
    "à¯Īà®¯à®¾à®¤": 6414,
    "Ġà®¨à®¾à®£": 6415,
    "Ġà®ªà¯ĭà®¯": 6416,
    "à®¿à®Łà¯ģà®®à¯į": 6417,
    "à®¾à®Łà¯įà®Łà®®à¯į": 6418,
    "à®¿à®ªà¯įà®ªà®¾à®©à®¤à¯ģ": 6419,
    "Ġà®®à®Ļà¯įà®ķ": 6420,
    "Ġà®ħà®Ļà¯įà®ķ": 6421,
    "à¯Īà®¨à¯įà®¤à¯ģ": 6422,
    "à®µà®¾à®²à¯į": 6423,
    "Ġà®ħà®¤à¯ĩ": 6424,
    "Ġà®Ĩà®ª": 6425,
    "Ġà®īà®ª": 6426,
    "à¯ģà®ķà®³à¯Īà®ķà¯į": 6427,
    "Ġà®ĩà®°à¯ģà®ª": 6428,
    "à®³à®¿à®µ": 6429,
    "Ġà®ķà¯ĩà®°": 6430,
    "Ġà®ķà®¾à®²à®®à¯į": 6431,
    "à®ĩà®ļ": 6432,
    "Ġà®ĩà®¤à®©": 6433,
    "Ġà®ĩà®°à¯ģà®ķà¯įà®ķà¯ģ": 6434,
    "à®Ļà¯įà®ķà®ªà¯įà®ªà®Łà¯įà®Ł": 6435,
    "Ġà®¨à®Łà®¨à¯įà®¤": 6436,
    "Ġà®¨à®Łà¯ģà®ķà¯įà®ķ": 6437,
    "Ġà®µà¯ĩà®Łà¯įà®Ł": 6438,
    "Ġà®µà®°à®¤": 6439,
    "à®£à®Ļà¯įà®ķà®³à¯į": 6440,
    "Ġà®ªà®²à¯įà®²": 6441,
    "Ġà®ļà¯Ĩà®²à¯įà®²": 6442,
    "Ġà®ķà¯Ĭà®Łà¯ģà®¤à¯įà®¤": 6443,
    "à®¿à®¯à¯Īà®ªà¯į": 6444,
    "à¯įà®ķà®¿à®±à®¤à¯ģ": 6445,
    "à®°à¯įà®ķà®³à¯ģà®®à¯į": 6446,
    "Ġà®¤à¯Ĩà®²": 6447,
    "Ġà®¤à¯Ĩà®°": 6448,
    "à®¾à®ķà¯įà®ķà¯ģà®®à¯į": 6449,
    "Ġà®ķà¯ĭà®¤": 6450,
    "Ġà®ķà®²à®ķà¯įà®ķ": 6451,
    "Ġà®µà®¾à®ļ": 6452,
    "Ġà®ªà®¾à®ļ": 6453,
    "à¯Īà®¤à¯įà®¤à®©": 6454,
    "Ġà®¨à®¾à®Łà®ķ": 6455,
    "Ġà®¨à®¾à®Łà®¾à®ķà¯ģà®®à¯į": 6456,
    "Ġ2002": 6457,
    "à®¿à®®à¯įà®ª": 6458,
    "à®¿à®®à¯Ī": 6459,
    "Ġà®µà®¿à®´": 6460,
    "à®¾à®Łà¯įà®ļà®¿à®¯": 6461,
    "à®°à¯ģà®Ļà¯įà®ķ": 6462,
    "Ġà®Ĭà®Łà¯įà®Ł": 6463,
    "à®µà¯Īà®¯à®¾à®©à®¤à¯ģ": 6464,
    "à®¿à®ķà¯įà®ķà¯ģà®ķà¯į": 6465,
    "à®ķà¯įà®ķà¯ģà®ķà¯į": 6466,
    "à¯Īà®¯à¯Īà®¤à¯į": 6467,
    "Ġà®¤à¯ģà®²": 6468,
    "Ġà®¨à®®à¯įà®ª": 6469,
    "Ġà®µà®°à¯ģà®ķà®¿à®©à¯įà®±à®©": 6470,
    "à®Ļà¯įà®ķà®³à¯Īà®¯à¯ģà®®à¯į": 6471,
    "à¯ģà®ķà®³à¯Īà®¯à¯ģà®®à¯į": 6472,
    "à¯Īà®¯à¯Īà®¯à¯ģà®®à¯į": 6473,
    "à®¾à®Łà¯ģà®ķà®³à¯į": 6474,
    "Ġà®ħà®²à¯įà®²à®¾à®¤": 6475,
    "Ġà®ħà®¤à®±à¯įà®ķà¯ģ": 6476,
    "Ġà®ħà®®à¯Īà®ªà¯įà®ªà¯ģà®ķà®³à¯į": 6477,
    "Ġà®ħà®®à¯Īà®ªà¯įà®ªà®¿à®²à¯į": 6478,
    "Ġà®ªà®¾à®£à¯įà®Ł": 6479,
    "à®¿à®¨à¯įà®¤à¯ģà®": 6480,
    "Ġà®īà®³à¯įà®³à®¾à®°à¯į": 6481,
    "à®¿à®ļà®¾à®°à¯į": 6482,
    "Ġà®¤à®³à®°": 6483,
    "à¯įà®¨à¯įà®¤à¯ģà®³à¯įà®³à®¤à¯ģ": 6484,
    "Ġà®ĵà®Ł": 6485,
    "Ġà®ħà®¤à®¿à®ķà®°à®¿à®ªà¯įà®ª": 6486,
    "Ġà®ªà¯Ĭà®°à¯ģà®³à®¾à®¤à®¾à®°à®®à¯į": 6487,
    "Ġà®ªà¯Ĭà®°à¯ģà®³à®¾à®¤à®¾à®°à®ķà¯į": 6488,
    "Ġà®¨à¯Ģà®ķ": 6489,
    "Ġà®ĩà®Łà®¤à¯įà®¤à®¿à®²à¯į": 6490,
    "Ġà®ķà¯ģà®°": 6491,
    "Ġà®ļà¯ģà®°": 6492,
    "à¯ģà®°à®¿": 6493,
    "Ġà®¤à®©à®¿à®¯": 6494,
    "à®ķà®°à®ªà¯į": 6495,
    "Ġà®ĩà®²à®Ļà¯įà®ķ": 6496,
    "à®¿à®¯à¯Īà®ļà¯į": 6497,
    "à®ķà®Ļà¯įà®ķ": 6498,
    "à®¨à®¾à®¤": 6499,
    "Ġà®ķà®²à¯Īà®¯à®¾à®©à®¤à¯ģ": 6500,
    "Ġà®¨à®¿à®²à¯Īà®¯à®¾à®©à®¤à¯ģ": 6501,
    "à®ķà¯įà®ķà®µ": 6502,
    "Ġà®ķà®Łà¯įà®Łà®¾à®¯": 6503,
    "Ġà®ªà®£à®¿à®¯": 6504,
    "Ġà®¨à®¿à®²à¯Īà®ķà®³à¯į": 6505,
    "Ġà®µà®´à®¿à®¯à®¾à®ķ": 6506,
    "Ġà®¨à®¾à®Łà¯įà®Łà¯ģ": 6507,
    "Ġà®ĩà®°à¯ģà®¨à¯įà®¤à®©à®°à¯į": 6508,
    "à¯ģà®³à¯įà®³à®©à®°à¯į": 6509,
    "Ġà®ªà¯Ĩà®±à¯įà®±à®©": 6510,
    "Ġà®¤à¯Ĭà®ķà¯Īà®¯à®¿à®²à¯į": 6511,
    "Ġà®ħà®±à®¿à®®": 6512,
    "Ġà®®à¯ģà®©à¯įà®©à®£": 6513,
    "Ġà®µà®ķà¯Īà®ķà®³": 6514,
    "Ġà®µà®ķà¯Īà®¯à®¿à®²à¯į": 6515,
    "Ġà®®à¯Ĭà®´à®¿à®ķà®³à¯į": 6516,
    "Ġà®®à®¿à®¯à®¾à®©": 6517,
    "à¯įà®ļà®¿à®ªà¯į": 6518,
    "Ġà®ĩà®£à¯Īà®ªà¯įà®ª": 6519,
    "Ġà®¨à®Łà¯Īà®®": 6520,
    "à®ķà®³à®¿à®²à¯į": 6521,
    "Ġà®ĩà®±à®ªà¯įà®ª": 6522,
    "Ġà®ķà®¾à®°à®£à®®": 6523,
    "Ġà®¨à®¿à®±à¯ģà®µà®¿à®©": 6524,
    "Ġà®µà®Łà®¿à®µà®®à¯į": 6525,
    "Ġà®µà®Łà®¿à®µà®®à®¾à®©à®¤à¯ģ": 6526,
    "à®¤à¯įà®¤à®¿à®±à¯įà®ķà®¾à®©": 6527,
    "Ġà®µà¯Ģà®´": 6528,
    "à¯ģà®¤à®²à¯Ī": 6529,
    "Ġà®İà®£à¯įà®£à®ªà¯įà®ªà®Łà¯ģà®ķà®¿à®±à®¤à¯ģ": 6530,
    "Ġà®ķà®²à¯Īà®¯à®¿à®©à¯į": 6531,
    "Ġà®¤à¯Ĥà®°": 6532,
    "Ġà®¤à¯ĭà®±": 6533,
    "Ġà®¤à¯ĭà®±à¯įà®±": 6534,
    "Ġà®ľà®©": 6535,
    "Ġà®ªà®¤à®¿à®²": 6536,
    "Ġà®ĩà®¯à®²": 6537,
    "Ġà®ĩà®¯à®ķà¯įà®ķ": 6538,
    "Ġà®ĩà®¯à®±à¯įà®ķ": 6539,
    "Ġà®¤à¯ĩà®µ": 6540,
    "Ġà®ªà¯ģà®¤à¯ģà®®": 6541,
    "Ġà®®à¯ģà®Łà®¿à®ķ": 6542,
    "Ġà®®à¯ģà®Łà®¿à®¨à¯įà®¤": 6543,
    "Ġà®ħà®³à®µà®¿à®²à¯į": 6544,
    "Ġà®µà®©à¯įà®®": 6545,
    "Ġà®¤à¯Ĭà®©à¯įà®®": 6546,
    "Ġà®īà®¯à®¿à®°à¯į": 6547,
    "Ġà®µà®¾à®´à¯įà®¨à¯įà®¤à¯ģ": 6548,
    "Ġà®µà®¾à®´à¯ģà®®à¯į": 6549,
    "Ġà®īà®¯à®¿à®°à®¿à®¤à¯į": 6550,
    "Ġà®µà¯Ĩà®³à®¿à®ķà¯į": 6551,
    "Ġà®¤à®¿à®°à¯Īà®¤à¯į": 6552,
    "Ġà®¨à®Łà®¤à¯įà®¤à®µ": 6553,
    "Ġà®ªà¯ĩà®°à®°à®ļà®¿à®©à¯į": 6554,
    "Ġà®ªà®ķà¯ģà®¤à®¿à®ķà®³à¯Ī": 6555,
    "Ġà®ļà®Łà¯įà®Łà®Ļà¯įà®ķà®³à¯į": 6556,
    "Ġà®ĩà®£à¯Īà®ķà¯įà®ķà®ªà¯įà®ªà®Łà¯įà®Ł": 6557,
    "à®®à®¾à®ķà®µà¯ģà®®à¯į": 6558,
    "Ġà®ĩà®ķà¯įà®ķà¯Ĭ": 6559,
    "Ġà®¤à¯Ĭà®Łà®Ļà¯įà®ķà®¿": 6560,
    "à®¿à®°à¯ģà®¨à¯įà®¤à®©à®°à¯į": 6561,
    "à®¿à®°à¯ģà®¨à¯įà®¤à®©": 6562,
    "à¯ģà®ķà®ªà¯įà®ª": 6563,
    "Ġà®īà®£à®µà¯ģà®ķà®³à¯į": 6564,
    "Ġà®īà®£à®µà®¿à®©à¯į": 6565,
    "Ġà®īà®£à®µà¯ģ": 6566,
    "Ġà®īà®£à®µà¯ģà®ªà¯į": 6567,
    "Ġà®ħà®ļà¯įà®ļ": 6568,
    "Ġà®ªà®¿à®°à®ļà¯įà®ļ": 6569,
    "à¯ģà®Łà¯įà®ªà®Łà¯įà®Ł": 6570,
    "Ġà®ħà®©à¯ģà®®à®¤": 6571,
    "Ġà®ħà®´à®¿à®µ": 6572,
    "Ġà®µà¯Ģà®¤à®®à®¾à®©à®¤à¯ģ": 6573,
    "Ġà®ķà®¾à®ªà¯įà®ª": 6574,
    "Ġà®Ĩà®±à¯įà®±à¯ģ": 6575,
    "à®¤à¯ģà®ļ": 6576,
    "Ġà®®à¯ĩà®±à¯įà®ķà¯ģà®¤à¯į": 6577,
    "Ġà®Ĩà®¤à®¾à®°": 6578,
    "Ġà®Ĩà®¤à®¿à®ķà¯įà®ķ": 6579,
    "Ġà®Ĩà®¤à®¿à®ķ": 6580,
    "Ġà®ªà¯ģà®µà®¿à®¤à¯įà®¤": 6581,
    "Ġà®İà®¤à®¿à®°à¯įà®¤à¯įà®¤": 6582,
    "Ġà®İà®¤à®¿à®°à®¾à®©": 6583,
    "Ġà®Ĩà®ļà®¿à®¯à®¾": 6584,
    "Ġà®ĩà®°à®¾à®£à¯ģà®µà®ļà¯į": 6585,
    "Ġà®ªà®Ļà¯įà®ķà¯Ī": 6586,
    "Ġà®īà®°à¯ģà®µà®¾à®ķà¯įà®ķà¯ģà®®à¯į": 6587,
    "Ġà®ķà®£à¯įà®Łà®¤à¯ģ": 6588,
    "Ġà®ªà®¾à®¤à¯ģà®ķà®¾à®ķ": 6589,
    "Ġà®ļà¯Ĩà®¯à¯įà®¯à¯ģà®®à¯į": 6590,
    "Ġà®īà®±à¯įà®ªà®¤à¯įà®¤à®¿à®¯à®¾à®©à®¤à¯ģ": 6591,
    "Ġà®īà®±à¯įà®ªà®¤à¯įà®¤à®¿à®ªà¯į": 6592,
    "Ġà®ļà®®à¯Ĥà®ķà®ķà¯į": 6593,
    "Ġà®®à®ķà¯įà®ķà®³à®¿à®²à¯į": 6594,
    "Ġà®¨à®¿à®±à¯ģà®µà®©à®Ļà¯įà®ķà®³à¯į": 6595,
    "Ġà®¨à®¿à®±à¯ģà®µà®©à®®à®¾à®©à®¤à¯ģ": 6596,
    "Ġà®¨à®¿à®±à¯ģà®µà®©à®¤à¯įà®¤à®¿à®©à¯į": 6597,
    "Ġà®ķà®¾à®£à®ªà¯įà®ªà®Łà¯ģà®®à¯į": 6598,
    "Ġà®ħà®©à¯Īà®¤à¯įà®¤à¯ģà®ªà¯į": 6599,
    "Ġà®īà®Łà®©": 6600,
    "Ġà®ļà¯Ĩà®¯à¯įà®¯à®ªà¯įà®ªà®Łà¯įà®Łà®©": 6601,
    "Ġà®µà®ķà¯ģà®ªà¯įà®ªà®¿à®©": 6602,
    "Ġà®ķà®¾à®£à®ªà¯įà®ªà®Łà¯ģà®ķà®¿à®©à¯įà®±à®©": 6603,
    "Ġà®¨à®Łà®¤à¯įà®¤à®ªà¯įà®ªà®Łà¯ģà®ķà®¿à®©à¯įà®±à®©": 6604,
    "Ġà®¤à¯Ĭà®ķà¯Īà®¯à¯ģà®Łà¯Īà®¯": 6605,
    "à®Ļà¯įà®ķà®³à¯Īà®¯à¯ģà®Łà¯Īà®¯": 6606,
    "Ġà®ªà¯ĭà®¤à¯ģà®®à¯į": 6607,
    "Ġà®¨à¯ĩà®°à®Ļà¯įà®ķà®³à®¿à®²à¯į": 6608,
    "Ġà®ķà¯ĭà®Łà®¿à®¯à®¾à®ķ": 6609,
    "Ġà®°à¯Ģà®¤à®¿à®¯à®¿à®²à¯į": 6610,
    "Ġà®ķà®Łà¯Īà®ļ": 6611,
    "Ġà®µà®°à¯ģà®µ": 6612,
    "à®Ĳà®ķà¯į": 6613,
    "Ġà®ļà®¿à®ķà¯įà®ķà®": 6614,
    "Ġà®ļà¯ĭà®´": 6615,
    "Ġà®ļà¯ĭà®µà®¿à®¯": 6616,
    "Ġà®ļà¯ĭà®±": 6617,
    "Ġà®ķà¯ģà®±à¯Īà®¨à¯įà®¤à®¤à¯ģ": 6618,
    "Ġà®ªà®ķà¯ģà®¤à®¿à®¯à®¿à®©à¯į": 6619,
    "Ġà®ªà®ķà¯ģà®¤à®¿à®¯à¯Ī": 6620,
    "Ġà®®à®¾à®±à¯įà®±à®¿à®¯à®¤à¯ģ": 6621,
    "Ġà®ħà®°à®ª": 6622,
    "Ġà®µà®¾à®´à¯įà®ķà¯įà®ķ": 6623,
    "à®¤à¯įà®¤à®¿à®±à¯įà®ķà¯ģà®³à¯į": 6624,
    "Ġà®ĩà®°à®£à¯įà®Łà¯ģà®®à¯ĩ": 6625,
    "Ġà®ķà®¾à®Łà¯įà®Łà¯ģà®ķà®¿à®©à¯įà®±à®©": 6626,
    "Ġà®®à¯ģà®®à¯įà®ª": 6627,
    "µà®¿à®²à¯įà®²à¯Ī": 6628,
    "Ġà®ķà¯Ĥà®Łà¯įà®Łà®£à®¿à®¯à®¾à®©à®¤à¯ģ": 6629,
    "à¯Īà®¯à®¾à®²à¯ģà®®à¯į": 6630,
    "Ġà®ªà®¿à®°à®¿à®µà®¾à®©à®¤à¯ģ": 6631,
    "Ġà®īà®±à¯ģà®ªà¯įà®ªà®¿à®©à®°à¯į": 6632,
    "Ġà®ªà¯Ĩà®£à¯įà®ķà®³": 6633,
    "Ġà®µà¯Īà®ķà¯įà®ķà®": 6634,
    "Ġà®µà¯ĩà®¤à®¿à®ªà¯į": 6635,
    "Ġà®µà¯Ĩà®±à¯įà®±à®¿à®ķà®": 6636,
    "Ġà®ĩà®²à®ķà¯įà®ķà®¿à®¯à®®à®¾à®©à®¤à¯ģ": 6637,
    "Ġà®İà®£à¯įà®£à®¿à®ķà¯įà®ķà¯Īà®¯à®¿à®²à¯į": 6638,
    "Ġà®µà®¿à®°à®¿à®µà®Łà¯Īà®¯": 6639,
    "Ġà®ªà®¿à®°à®¤à®¿à®ª": 6640,
    "Ġà®®à¯ģà®©à¯įà®©à¯ĩà®±": 6641,
    "Ġà®¤à®¾à®©à¯į": 6642,
    "Ġà®ªà¯Ģà®Ł": 6643,
    "Ġà®ĩà®®à¯įà®®": 6644,
    "Ġà®µà¯ĩà®£à¯įà®Łà¯ģà®®à¯į": 6645,
    "Ġà®ķà®¾à®Łà¯ģà®ķà®³à®¿à®©à¯į": 6646,
    "Ġà®ħà®´à®¿à®¨à¯įà®¤à¯ģ": 6647,
    "Ġà®Ĩà®ķà®¿à®¯à®µà¯Īà®¯à®¾à®ķà¯ģà®®à¯į": 6648,
    "Ġà®ħà®®à¯Īà®ªà¯įà®ªà¯ģà®ķà®³à®¾à®©à®µà¯Ī": 6649,
    "Ġà®ıà®±à¯įà®ªà®Łà¯įà®Łà®¤à¯ģ": 6650,
    "Ġà®īà®³à¯įà®³à®Łà®ķà¯įà®ķà®¿à®¯à®¤à®¾à®ķ": 6651,
    "Ġà®ķà®Łà®±à¯įà®ķà®°à¯Īà®ķà®³à®¿à®²à¯į": 6652,
    "Ġà®®à®¾à®±à®¾à®ķ": 6653,
    "Ġà®¨à¯Ĥà®²à¯įà®ķà®³": 6654,
    "Ġà®¤à¯ĩà®°à¯įà®¤à®²à¯įà®ķà®³": 6655,
    "Ġà®¤à®®à®¿à®´à¯įà®¨": 6656,
    "Ġà®¤à®®à®¿à®´à®¿à®²à¯į": 6657,
    "à®¿à®¯à®±à¯į": 6658,
    "Ġà®µà®¿à®²à¯Ī": 6659,
    "Ġà®¤à¯Ĭà®²à¯Īà®¤à¯į": 6660,
    "Ġà®µà®¿à®µà®°": 6661,
    "Ġà®µà®¿à®Łà¯įà®Łà¯ģ": 6662,
    "à®¿à®ķà¯įà®ķà®ªà¯įà®ªà®Łà¯ģà®®à¯į": 6663,
    "Ġà®ħà®°à®ļà®¾à®Ļà¯įà®ķà®¤à¯įà®¤à®¿à®©à¯į": 6664,
    "Ġà®ħà®°à®ļà®¾à®Ļà¯įà®ķà®¤à¯įà®¤à¯Ī": 6665,
    "Ġà®īà®¯à®¿à®°à®¿à®©à®Ļà¯įà®ķà®³à¯į": 6666,
    "Ġà®īà®¯à®¿à®°à®¿à®©à®ªà¯į": 6667,
    "Ġà®®à®¤à®¿à®ªà¯įà®ªà®¿à®Ł": 6668,
    "Ġà®®à¯ģà®ļà¯ģà®²à®¿à®®": 6669,
    "Ġà®ªà®£à¯įà®Łà¯Īà®ķà¯įà®ķ": 6670,
    "Ġà®īà®²à®ķà®ªà¯į": 6671,
    "Ġà®ļà®®à¯Ĥà®ķà®ªà¯į": 6672,
    "Ġà®ķà®Łà¯įà®Łà¯ģà®ªà¯įà®ªà®¾à®Łà¯įà®Łà®¿à®²à¯į": 6673,
    "Ġà®ħà®¤à®¿à®ķà®°à®¿à®ķà¯įà®ķà¯ģà®®à¯į": 6674,
    "Ġà®¤à®¾à®ķà¯įà®ķà¯ģà®¤à®²à¯į": 6675,
    "Ġà®ªà¯Ĩà®¯à®°à®³à®µà¯ģ": 6676,
    "Ġà®ªà¯Ĭà®±": 6677,
    "Ġà®īà®°à¯ģà®µà®¾à®ķà¯įà®ķà®ªà¯įà®ªà®Łà¯įà®Łà®¤à¯ģ": 6678,
    "Ġà®ªà¯Ĭà®°à¯ģà®Łà¯įà®ķà®³à®¿à®©à¯į": 6679,
    "Ġà®Ĩà®Łà¯įà®ļà®¿à®¯à®¿à®©à¯į": 6680,
    "Ġà®µà®°à®²à®¾à®±à¯įà®±à®¾à®³à®°à¯įà®ķà®³à¯į": 6681,
    "Ġà®µà®¿à®°à®¿à®µà®Łà¯Īà®¨à¯įà®¤": 6682,
    "à®ªà¯įà®ªà®Łà¯ģà®µà®¤à®±à¯įà®ķà¯ģ": 6683,
    "Ġà®¨à®¿à®°à¯įà®µà®ķ": 6684,
    "Ġà®ķà®£à®ķà¯įà®ķà¯Ĩà®Łà¯ģà®ªà¯įà®ªà®¿à®²à¯į": 6685,
    "Ġà®ħà®°à®ļà®¿à®¯à®²à®®à¯Īà®ªà¯įà®ªà¯ģ": 6686,
    "Ġà®¤à®ļà®¾à®ªà¯įà®¤à®Ļà¯įà®ķà®³à®¿à®©à¯į": 6687,
    "à¯įà®ķà®Łà®¿à®ķà¯įà®ķà®ªà¯įà®ªà®Łà¯įà®Ł": 6688,
    "Ġà®ķà¯ģà®Łà®¿à®¯à®¿à®©à®°": 6689,
    "Ġà®ħà®¤à®¿à®ķà®®à®¾à®ķ": 6690,
    "¸à¯įà®¤à®¿à®°": 6691,
    "Ġà®ķà®ªà¯įà®ª": 6692,
    "Ġà®ķà¯ģà®±à®¿à®ªà¯įà®ªà®¿à®Łà®ªà¯įà®ªà®Łà¯įà®Łà¯ģà®³à¯įà®³à®¤à¯ģ": 6693,
    "Ġà®µà¯Ģà®¤à®Ļà¯įà®ķà®³à®¾à®©à®µà¯Ī": 6694,
    "Ġà®µà®¿à®³à¯Īà®µà®¾à®ķ": 6695,
    "Ġà®ļà®°à®¾à®ļà®°à®¿à®¯": 6696,
    "à®©à®¨à®¾à®¯à®ķà®ķà¯į": 6697,
    "Ġà®¤à®²à¯Īà®µà®°à®¾à®ķ": 6698,
    "Ġà®®à®£à®®": 6699,
    "Ġà®®à®£à®¿à®ªà¯įà®ª": 6700,
    "à®¾à®ķà®µà¯ĭ": 6701,
    "Ġà®¨à®¾à®Łà¯ģà®ķà®³à¯ģà®Łà®©à¯į": 6702,
    "Ġà®¨à¯ĩà®°à®Łà®¿à®¯à®¾à®ķ": 6703,
    "Ġà®ļà®¤à¯įà®°": 6704,
    "Ġà®Ĵà®µà¯įà®µ": 6705,
    "Ġà®ķà®Ļà¯įà®ķà¯Īà®ļà¯į": 6706,
    "Ġà®¤à®©à¯įà®®à¯Ī": 6707,
    "Ġà®ļà®®à®¯à®¤à¯įà®¤à¯Īà®ļà¯į": 6708,
    "Ġà®İà®©à¯įà®ªà®¤à¯Ī": 6709,
    "Ġà®ļà¯Ĩà®¯à®²à¯įà®ªà®¾à®Ł": 6710,
    "Ġà®ªà®¿à®°à®¾à®¨à¯įà®¤à®¿à®¯à®ķà¯į": 6711,
    "Ġà®ļà¯Īà®©à®®à¯į": 6712,
    "Ġà®ļà¯ģà®²à¯įà®¤à®¾à®©à®ķà®®à¯į": 6713,
    "Ġà®ļà¯ģà®²à¯įà®¤à®¾à®©à®ķ": 6714,
    "Ġà®īà®²à®ķà®¿à®²à¯ĩà®¯à¯ĩ": 6715,
    "Ġà®ķà¯ģà®±à¯Īà®ª": 6716,
    "à¯Īà®ªà¯įà®ªà®Łà¯ģà®¤à¯įà®¤à®ªà¯įà®ªà®Łà¯įà®Ł": 6717,
    "Ġà®ļà®¿à®±à®ªà¯įà®ªà®®": 6718,
    "Ġà®¤à®¾à®°à®¾à®³": 6719,
    "à®ķà®Ļà¯įà®ķà®³": 6720,
    "Ġà®ķà®Łà¯ģà®®à¯Īà®¯à®¾à®©": 6721,
    "à¯įà®µà®¾à®¯à¯įà®ķà®³à¯į": 6722,
    "à®¾à®³à®°à¯įà®ķà®³à¯Īà®ķà¯į": 6723,
    "à¯Ģà®¤à®¿à®®à®©à¯įà®±": 6724,
    "Ġà®ªà®°à®¿à®®à®¾à®±à¯įà®±": 6725,
    "Ġà®ķà®Łà¯įà®ļà®¿à®¯à®¾à®ķ": 6726,
    "Ġà®ħà®±à®¿à®ķà¯įà®ķà¯Īà®¯à®¾à®©à®¤à¯ģ": 6727,
    "Ġà®ħà®±à®¿à®ķà¯įà®ķà¯Īà®¯à®¿à®©à¯į": 6728,
    "Ġà®µà¯Ĩà®³à®¿à®¯à®¿à®Ł": 6729,
    "Ġà®ªà¯ĩà®ļà¯ģà®ķà®¿à®©à¯įà®±à®©à®°à¯į": 6730,
    "Ġà®ĩà®°à®¾à®ļà¯įà®ļà®¿à®¯à®Ļà¯įà®ķà®³à¯į": 6731,
    "Ġà®¤à®¿à®°à¯ģà®®à®£à®Ļà¯įà®ķà®³à¯į": 6732,
    "Ġà®¤à¯ĩà®°à¯įà®¨à¯įà®¤à¯Ĩà®Łà¯ģà®ķà¯įà®ķà®ªà¯įà®ªà®Łà¯įà®Ł": 6733,
    "Ġà®ħà®®à¯Īà®ļà¯įà®ļà®°": 6734,
    "Ġà®¨à®¿à®¯à®®": 6735,
    "Ġà®ļà®ķà®¾à®ªà¯įà®¤": 6736,
    "Ġà®®à¯ģà®©à¯įà®©à®°à¯ĩ": 6737,
    "Ġà®ħà®©à¯įà®±à®¿à®²à®¿à®°à¯ģà®¨à¯įà®¤à¯ģ": 6738,
    "Ġà®ħà®®à¯Ĩà®°à®¿à®ķà¯įà®ķà®¾à®µà¯ģà®ķà¯įà®ķà¯ģ": 6739,
    "Ġà®ļà®¤à¯ģà®ªà¯įà®ªà¯ģ": 6740,
    "Ġà®ķà®¾à®±à¯įà®±à¯ģà®ķà®³à¯Ī": 6741,
    "Ġà®µà®¿à®ļà®¯": 6742,
    "Ġà®ħà®£à®¿à®¯à®ªà¯įà®ªà®Łà¯ģà®®à¯į": 6743,
    "Ġà®ĩà®¯à®ķà¯įà®ķà®®à¯į": 6744,
    "Ġà®°à¯Ģà®¤à®¿à®¯à®¿à®²à®¾à®©": 6745,
    "Ġà®ªà¯Ĭà®¤à¯ģà®µà®¾à®©à®µà¯Īà®¯à®¾à®ķ": 6746,
    "Ġà®ħà®´à¯Īà®ķà¯įà®ķà®ªà¯įà®ªà®Łà¯ģà®®à¯į": 6747,
    "Ġà®Ĩà®Ļà¯įà®ķà®¿à®²à®®à¯į": 6748,
    "Ġà®ļà®©à®¨à®¾à®¯à®ķ": 6749,
    "Ġà®ļà®©à®¨à®¾à®¯à®ķà®ķà¯į": 6750,
    "Ġà®ªà®²à¯įà®µà®ķà¯Īà®®à¯Ī": 6751,
    "Ġà®µà®°à¯įà®ķà¯įà®ķà®¤à¯įà®¤à®¿à®©à®°": 6752,
    "Ġà®¤à¯Ĩà®©à¯įà®ķà®¿à®´": 6753,
    "Ġà®¤à¯Ĩà®©à¯įà®ķà®¿à®´à®ķà¯įà®ķà¯ģ": 6754,
    "Ġà®ªà®¿à®°à®¤à¯ĩà®ļ": 6755,
    "à®¤à¯ĩà®ļ": 6756,
    "Ġà®ħà®Łà®¿à®ķà¯įà®ķà®": 6757,
    "Ġà®ªà®ķà¯įà®¤à®¿": 6758,
    "Ġà®ħà®ļà®¾à®®": 6759,
    "Ġà®ķà¯Ĭà®³à¯įà®µà®©": 6760,
    "Ġà®ķà®Łà¯įà®Łà¯ģà®ªà¯įà®ªà®¾à®Łà¯įà®Łà¯Ī": 6761,
    "Ġà®¤à®¿à®°à¯Īà®ªà¯įà®ªà®Ł": 6762,
    "Ġà®µà¯Ĩà®Łà¯įà®Łà®ªà¯įà®ªà®Łà¯įà®Ł": 6763,
    "Ġà®¤à®¿à®ļà¯Īà®¯à®¿à®²à¯į": 6764,
    "Ġà®īà®£à¯įà®®à¯Īà®¯à®¿à®²à¯į": 6765,
    "à®Ĩà®ķà®µà¯ģà®®à¯į": 6766,
    "Ġà®¤à¯Ģà®µà¯ģà®ķà®³à¯į": 6767,
    "Ġà®¤à®¿à®±à®©à®¿à®²à¯į": 6768,
    "Ġà®¨à®ķà®°à®®à®¯à®®à®¾à®ķ": 6769,
    "Ġà®ıà®±à¯įà®ªà®Łà¯ģà®¤à¯įà®¤à®¿à®¯à®¤à¯ģ": 6770,
    "Ġà®¤à®ķà¯įà®ķà®¾à®£à®ªà¯į": 6771,
    "Ġà®®à¯ģà®ķà¯įà®ķà®¿à®¯à®¤à¯įà®¤à¯ģà®µà®®à¯į": 6772,
    "Ġà®ħà®£à¯įà®Łà¯Ī": 6773,
    "Ġà®¨à®¿à®¤à®¿à®¯": 6774,
    "Ġà®¤à®±à¯įà®ķà®¾à®ªà¯įà®ª": 6775,
    "à¯ģà®Ļà¯įà®ķà¯ģ": 6776,
    "Ġà®ľà®µà¯ģà®³": 6777,
    "Ġà®ļà¯Ĩà®²à®µà¯Ģà®©à®®à®¾à®©à®¤à¯ģ": 6778,
    "Ġà®Ĵà®¤à¯ģà®ķà¯įà®ķà®ªà¯įà®ªà®Łà¯įà®Ł": 6779,
    "Ġà®ļà¯Ģà®°à¯įà®¤à®¿à®°à¯ģà®¤à¯įà®¤à®®à¯į": 6780,
    "Ġà®ķà®®à¯Ģ": 6781,
    "Ġà®ļà®²à¯įà®µ": 6782,
    "à®©à¯ĩà®ļà®¿à®¯": 6783,
    "Ġà®ļà®®à®¨à®¿à®²": 6784,
    "Ġà®ķà¯Ĥà®Łà¯įà®Łà®®à¯Īà®ªà¯įà®ªà¯ģ": 6785,
    "Ġà®ķà¯Ĭà®£à¯įà®Łà®¿à®°à¯ģà®ķà¯įà®ķ": 6786,
    "Ġà®®à¯Ĩà®¤à¯ģà®µ": 6787,
    "à®¿à®ķà®¿à®©à¯įà®±à®©à®°à¯į": 6788,
    "Ġà®ļà¯ģà®¯": 6789,
    "à®¤à®¾à®°à¯ĭ": 6790,
    "à®ªà¯Ĥà®®": 6791,
    "Ġà®ªà¯Ĭà®´à¯ģà®¤": 6792,
    "Ġà®¨à®¿à®ķà¯įà®ķ": 6793,
    "Ġà®īà®°à¯ģà®µà®¾à®¯à®¿à®©": 6794,
    "Ġà®ķà¯ĭà®Łà®¿à®¯à®¿à®²à®¿à®°à¯ģà®¨à¯įà®¤à¯ģ": 6795,
    "à®ªà¯įà®ªà®Łà¯ģà®µà®¤à®¿à®²à¯įà®²à¯Ī": 6796,
    "Ġà®ļà®±à¯įà®±à¯ģ": 6797,
    "Ġà®ķà®©à¯įà®©": 6798,
    "Ġà®µà®¿à®ķà®¿à®¤": 6799,
    "Ġà®ļà¯ģà®µà¯Īà®¯à¯ģà®Łà¯Īà®¯": 6800,
    "à®ķà®Łà¯įà®Ł": 6801,
    "Ġà®İà®´à¯ģà®¤à¯įà®¤": 6802,
    "Ġà®Ĩà®ķà¯įà®ķà®¿à®¯à¯ģà®³à¯įà®³à®¤à¯ģ": 6803,
    "à®ķà¯įà®ķà®²à¯Ī": 6804,
    "Ġà®ªà®¾à®¤à®¿à®ķà¯įà®ķà®ªà¯įà®ªà®Łà¯įà®Łà¯ģà®³à¯įà®³à®¤à¯ģ": 6805,
    "Ġà®Ĩà®Łà¯įà®ļà®¿à®ķà¯įà®ķà¯ģ": 6806,
    "Ġà®¤à®¾à®Ļà¯įà®ķà®ªà¯įà®ªà®Łà¯įà®Ł": 6807,
    "Ġà®ĩà®°à®£à¯įà®Łà®¿à®²à¯ģà®®à¯ĩ": 6808,
    "Ġà®ªà®Ļà¯įà®ķà¯Ĩà®Łà¯ģà®¤à¯įà®¤à¯ģà®³à¯įà®³à®¤à¯ģ": 6809,
    "Ġà®µà®Łà®ķà®¿à®´à®ķà¯įà®ķà¯ģ": 6810,
    "Ġà®ħà®²à¯ģà®µà®²à¯į": 6811,
    "Ġà®ļà¯Ģà®ķà¯įà®ķà®¿à®¯à®®à¯į": 6812,
    "Ġà®Ĩà®°à®®à¯įà®ªà®¿à®¤à¯įà®¤à®¤à¯ģ": 6813,
    "Ġà®µà®¿à®µà®ļà®¾à®¯à®¿à®ķà®³à¯į": 6814,
    "Ġà®®à®Łà®Ļà¯įà®ķà®¾à®ķ": 6815,
    "Ġà®Ĩà®ķà¯įà®ķà®¿à®°à®®à®¿à®¤à¯įà®¤à¯ģà®³à¯įà®³à®¤à¯ģ": 6816,
    "Ġà®İà®¤à®¿à®°à¯įà®ªà®¾à®°à¯įà®ķà¯įà®ķà®ªà¯įà®ªà®Łà¯ģà®ķà®¿à®±à®¤à¯ģ": 6817,
    "Ġà®¤à¯ĩà®°à¯įà®¨à¯įà®¤à¯Ĩà®Łà¯ģà®ķà¯įà®ķà®ªà¯įà®ªà®Łà¯ģà®ķà®¿à®©à¯įà®±à®©à®°à¯į": 6818,
    "à®ªà¯Ĭà®°à¯ģà®³à®¾à®¤à®¾à®°à®ļà¯į": 6819,
    "à¯ĭà®²à®¿à®¯": 6820,
    "Ġà®ļà®¿à®Ļ": 6821,
    "Ġà®ªà¯ģà®°à®µà®²": 6822,
    "Ġà®ªà®°à¯ģà®ªà¯įà®ª": 6823,
    "Ġà®°à¯ĩà®ķ": 6824,
    "Ġà®¤à¯ģà®Ł": 6825,
    "Ġà®īà®²à®ķà®ķ": 6826,
    "Ġà®¨à®Łà¯Īà®ªà¯Ĩà®±à¯įà®±à®¤à¯ģ": 6827,
    "Ġà®µà®¿à®µà®ķà®¾à®°": 6828,
    "à®®à®ķà¯įà®ķà®³à¯į": 6829,
    "Ġà®ªà¯Ĭà®°à¯ģà®¤à¯įà®¤": 6830,
    "Ġà®¤à®¾à®¯à¯įà®²à®¾à®": 6831,
    "à¯Īà®ŀà®°à¯įà®ķà®³à¯į": 6832,
    "Ġà®ļà®µà®¾à®²": 6833,
    "Ġà®µà®¿à®°à®¿à®ķà¯ģà®Ł": 6834,
    "Ġà®¨à®¾à®£à®¯": 6835,
    "Ġà®¤à¯Ĩà®³à®¿à®µ": 6836,
    "Ġà®µà®°à®¤à®Łà¯įà®ļ": 6837,
    "Ġà®ķà®²à®ķà¯įà®ķà®¿à®©à¯įà®±à®©": 6838,
    "Ġà®Ĭà®Łà¯įà®Łà®ļà¯įà®ļ": 6839,
    "Ġà®¤à¯ģà®²à¯įà®²": 6840,
    "Ġà®¹à®¿à®¨à¯įà®¤à¯ģà®": 6841,
    "à®ķà®Ļà¯įà®ķà¯Īà®ļà¯į": 6842,
    "Ġà®®à®¿à®¯à®¾à®©à¯įà®®": 6843,
    "Ġà®ĩà®£à¯Īà®ªà¯įà®ªà¯ģà®ķà®³à¯į": 6844,
    "Ġà®ľà®©à®¤": 6845,
    "Ġà®ªà®¤à®¿à®²à¯ģà®ķà¯įà®ķà¯ģ": 6846,
    "Ġà®µà®©à¯įà®®à¯ģà®±": 6847,
    "Ġà®¨à®Łà®¤à¯įà®¤à®µà¯ģà®³à¯įà®³à®¤à¯ģ": 6848,
    "Ġà®ĩà®ķà¯įà®ķà¯Ĭà®³à¯įà®ķ": 6849,
    "Ġà®ªà®¿à®°à®ļà¯įà®ļà®¿à®©": 6850,
    "Ġà®ħà®©à¯ģà®®à®¤à®¿à®¯à®³": 6851,
    "Ġà®Ĩà®¤à®¿à®ķà¯įà®ķà®®à¯į": 6852,
    "Ġà®ªà®¾à®¤à¯ģà®ķà®¾à®ķà¯įà®ķà®ªà¯įà®ªà®Łà¯įà®Ł": 6853,
    "Ġà®ķà®Łà¯Īà®ļà®¿": 6854,
    "Ġà®µà®°à¯ģà®µà®¾à®¯": 6855,
    "Ġà®ļà¯ĭà®µà®¿à®¯à®¤à¯į": 6856,
    "Ġà®µà®¾à®´à¯įà®ķà¯įà®ķà¯Ī": 6857,
    "Ġà®®à¯ģà®®à¯įà®ªà¯Ī": 6858,
    "Ġà®µà¯Ĩà®±à¯įà®±à®¿à®ķà®°": 6859,
    "Ġà®ªà®¿à®°à®¤à®¿à®ªà®²": 6860,
    "Ġà®®à¯ģà®©à¯įà®©à¯ĩà®±à®¿à®¯": 6861,
    "Ġà®ªà®£à¯įà®Łà¯Īà®ķà¯įà®ķà®¾à®²": 6862,
    "Ġà®ªà¯Ĭà®±à®¿à®¯à®¿à®¯à®²à¯į": 6863,
    "Ġà®¤à¯ĭà®±à¯įà®ķà®Łà®¿à®ķà¯įà®ķà®ªà¯įà®ªà®Łà¯įà®Ł": 6864,
    "Ġà®ļà®¾à®¸à¯įà®¤à®¿à®°": 6865,
    "Ġà®ķà®ªà¯įà®ªà®²à¯įà®ķà®³à¯į": 6866,
    "Ġà®ľà®©à®¨à®¾à®¯à®ķà®ķà¯į": 6867,
    "Ġà®Ĵà®µà¯įà®µà¯Ĭà®°à¯ģ": 6868,
    "Ġà®ļà®¿à®±à®ªà¯įà®ªà®®à¯įà®ļ": 6869,
    "Ġà®¤à¯Ĩà®©à¯įà®ķà®¿à®´à®ķà¯įà®ķ": 6870,
    "Ġà®ħà®Łà®¿à®ķà¯įà®ķà®Łà®¿": 6871,
    "Ġà®ķà¯Ĭà®³à¯įà®µà®©à®µà¯ģ": 6872,
    "Ġà®¨à®ķà®°à®®à®¯à®®à®¾à®ķà¯įà®ķà®²": 6873,
    "Ġà®¤à®±à¯įà®ķà®¾à®ªà¯įà®ªà¯ģ": 6874,
    "Ġà®ĩà®¨à¯įà®¤à¯ĭà®©à¯ĩà®ļà®¿à®¯": 6875,
    "Ġà®ªà¯Ģà®Łà®ªà¯Ĥà®®": 6876,
    "Ġà®ªà¯Ĭà®´à¯ģà®¤à¯ģ": 6877,
    "Ġà®¨à®¿à®ķà¯įà®ķà¯ĭà®ª": 6878,
    "Ġà®ļà®¿à®Ļà¯į": 6879,
    "Ġà®¤à¯ģà®Łà¯ģà®ªà¯įà®ªà®¾à®Łà¯įà®Ł": 6880,
    "Ġà®īà®²à®ķà®ķà¯įà®ķ": 6881,
    "Ġà®¤à®¾à®¯à¯įà®²à®¾à®¨à¯įà®¤à¯ģ": 6882,
    "Ġà®¤à¯ģà®²à¯įà®²à®¿à®¯": 6883,
    "Ġà®®à®¿à®¯à®¾à®©à¯įà®®à®°à¯į": 6884,
    "Ġà®ľà®©à®¤à®¾": 6885,
    "Ġà®µà®°à¯ģà®µà®¾à®¯à¯įà®ķà®³à¯Ī": 6886,
    "Ġà®¨à®¿à®ķà¯įà®ķà¯ĭà®ªà®¾à®°à¯į": 6887,
    "à®¿à®¯à®¿à®©": 6888,
    "à¯įà®ķà®µ": 6889,
    "Ġà®ªà®¿à®²": 6890,
    "à¯ģà®®à¯Ī": 6891,
    "Ġà®ķà®Łà¯įà®Łà®Ł": 6892,
    "Ġà®®à¯Ĥà®²": 6893,
    "Ġà®īà®±à®µ": 6894,
    "Ġà®Ĵà®©à¯įà®±à®¿à®¯": 6895,
    "Ġà®ħà®µà®°": 6896,
    "à®¿à®ķà¯įà®ķà®ªà¯įà®ªà®Łà¯įà®Łà®¤à¯ģ": 6897,
    "Ġà®ªà®£à¯įà®ªà®¾à®Łà¯įà®Ł": 6898,
    "à®©à¯Ī": 6899,
    "Ġà®µà®³": 6900,
    "à¯ģà®©": 6901,
    "à®¤à®©à¯į": 6902,
    "soon": 6903,
    "Ġà¤Ŀ": 6904,
    "à¤¾à¤¡": 6905,
    "à¤¾à¤«": 6906,
    "à¥įà¤Ľ": 6907,
    "Ġà¤®à¥Ģ": 6908,
    "Ġà¤®à¤¾à¤°": 6909,
    "Ġà¤ªà¥Ģ": 6910,
    "à¥ģà¤¤": 6911,
    "Ġà¤Ńà¤°": 6912,
    "à¤Ĥà¤¥": 6913,
    "à¤¯à¥ĩ": 6914,
    "Ġà¤ħà¤¹": 6915,
    "Ġà¤¨à¥Ģ": 6916,
    "Ġà¤¨à¤®": 6917,
    "à¤°à¥įà¤Ĺ": 6918,
    "à¤°à¥įà¤ļ": 6919,
    "Ġà¤¦à¥Ģ": 6920,
    "à¤¿à¤¯à¤°": 6921,
    "à¥įà¤°à¤¿à¤¯": 6922,
    "à¤¿à¤¯à¤¤": 6923,
    "Ġà¤°à¤¤": 6924,
    "à¥Ĥà¤¤": 6925,
    "à¤°à¤¾à¤¨": 6926,
    "Ġà¤¸à¤¶": 6927,
    "Ġà¤ħà¤¶": 6928,
    "Ġà¤¤à¤¨": 6929,
    "Ġà¤ªà¥įà¤°à¤ķ": 6930,
    "à¥ģà¤Ł": 6931,
    "Ġà¤ľà¤¼": 6932,
    "Ġà¤Ĺà¥ĭ": 6933,
    "Ġà¤Ĩà¤®": 6934,
    "Ġà¥®": 6935,
    "Ġà¥ª": 6936,
    "Ġà¥©": 6937,
    "Ġà¤ħà¤§": 6938,
    "Ġà¤¶à¤¹": 6939,
    "à¥įà¤¯à¤¾à¤¤": 6940,
    "Ġà¤ıà¤¨": 6941,
    "Ġà¤µà¤¿à¤§": 6942,
    "Ġà¤ļà¥Ģ": 6943,
    "à¤ķà¥įà¤Ł": 6944,
    "Ġà¤¸à¥įà¤Ł": 6945,
    "à¤Łà¥Ģ": 6946,
    "Ġà¤ķà¤Ł": 6947,
    "Ġà¤¬à¤ľ": 6948,
    "Ġà¤ªà¤°à¥Ģ": 6949,
    "Ġà¤ĩà¤¸à¥ĩ": 6950,
    "à¤ļà¤¨à¤¾": 6951,
    "Ġà¥§à¥«": 6952,
    "Ġà¤¹à¥ĭà¤¨à¤¾": 6953,
    "Ġà¤īà¤¸à¥ĩ": 6954,
    "à¥ĥà¤¤à¥įà¤¯": 6955,
    "Ġà¤ľà¤¾à¤¤à¤¿": 6956,
    "Ġà¤īà¤·": 6957,
    "Ġà¤¤à¥Ģà¤¨": 6958,
    "ĠĠĠ": 6959,
    "à¤Ĥà¤¤à¥įà¤°à¤£": 6960,
    "Ġà¤ķà¤°à¤¤à¥ĩ": 6961,
    "Ġà¤īà¤¤à¥įà¤¤": 6962,
    "Ġà¤¯à¤¹à¤¾à¤ģ": 6963,
    "Ġà¤ħà¤ªà¤¨à¤¾": 6964,
    "à¤¿à¤¨à¥įà¤¦à¥Ģ": 6965,
    "Ġà¤¶à¤ķà¥įà¤¤": 6966,
    "Ġà¤ĩà¤¸à¤ķà¤¾": 6967,
    "Ġà¤Ĺà¤¤à¤¿": 6968,
    "Ġà¤ĩà¤¸à¥įà¤²": 6969,
    "Ġà¤ķà¤¿à¤ı": 6970,
    "Ġà¤ķà¤°à¤¤à¥Ģ": 6971,
    "Ġà¤¹à¥ī": 6972,
    "Ġà¥¨à¥ª": 6973,
    "Ġà¤ªà¥Ĥà¤°à¥ĩ": 6974,
    "Ġà¤®à¤¿à¤¶": 6975,
    "Ġà¤¦à¤¿à¤µ": 6976,
    "Ġà¤ªà¥Ĥà¤°à¤¾": 6977,
    "Ġà¤¹à¤¸à¥įà¤¤": 6978,
    "Ġà¤ĩà¤¸à¤®à¥ĩà¤Ĥ": 6979,
    "Ġà¤¤à¥ģà¤²": 6980,
    "Ġà¤ªà¥įà¤°à¤¦à¤¾à¤¨": 6981,
    "Ġà¤ªà¥įà¤°à¤£": 6982,
    "à¤¶à¤¾à¤²à¥Ģ": 6983,
    "Ġà¤µà¤¾à¤²à¥Ģ": 6984,
    "à¤¾à¤Ĥà¤¸à¥įà¤ķà¥ĥà¤¤": 6985,
    "Ġà¤¡à¤¾à¤²": 6986,
    "Ġà¤īà¤¨à¤ķà¥ĩ": 6987,
    "Ġà¤īà¤¨à¤ķà¥Ģ": 6988,
    "Ġà¤¸à¤¾à¤®à¤°à¤¿à¤ķ": 6989,
    "Ġà¤¸à¤Ĥà¤ĺà¥Ģà¤¯": 6990,
    "Ġà¤ľà¤¿à¤¨à¤®à¥ĩà¤Ĥ": 6991,
    "Ġà¤ªà¤¾à¤¯à¤¾": 6992,
    "à¥Ĥà¤°à¥įà¤£": 6993,
    "à¤µà¤°à¥įà¤·": 6994,
    "Ġà¤¸à¤Ĥà¤¬à¤Ĥà¤§à¥ĭà¤Ĥ": 6995,
    "Ġà¤ªà¤¶à¥įà¤ļà¤¿à¤®à¥Ģ": 6996,
    "Ġà¤®à¥Īà¤¦à¤¾à¤¨à¥Ģ": 6997,
    "Ġà¤ķà¥įà¤°à¤®": 6998,
    "à¤Ĥà¤¬à¤°": 6999,
    "Ġà¤¨à¥ĩà¤¹à¤°": 7000,
    "Ġà¤¶à¤¹à¤°": 7001,
    "Ġà¤µà¤¿à¤Ńà¤¾à¤ľ": 7002,
    "à¥§à¥ª": 7003,
    "Ġà¤īà¤ªà¤¯à¥ĭà¤Ĺ": 7004,
    "Ġà¤ķà¤¾à¤°à¥įà¤¯à¤ķà¤¾à¤²": 7005,
    "à¤¾à¤ĩà¤¨": 7006,
    "à¤¶à¥Ģà¤²": 7007,
    "Ġà¤²à¥ĭà¤ķà¤ªà¥įà¤°": 7008,
    "à¤ªà¥Ĥà¤°à¥įà¤µ": 7009,
    "Ġà¤µà¤¿à¤¶à¥ĩà¤·": 7010,
    "Ġà¤ħà¤µà¤¶": 7011,
    "Ġà¤¸à¤¿à¤Ĥà¤§": 7012,
    "Ġà¤ľà¤®à¤¾": 7013,
    "à¥ģà¤·à¥įà¤ķ": 7014,
    "Ġà¤¶à¤ķà¥įà¤¤à¤¿": 7015,
    "Ġà¤Ĩà¤¯à¤¾à¤¤": 7016,
    "à¥Įà¤°à¥įà¤¯": 7017,
    "Ġà¤Ńà¤¾à¤Ĺà¥Ģ": 7018,
    "Ġà¤ªà¥ģà¤°à¥ģà¤·": 7019,
    "Ġà¤Ńà¤¾à¤·à¤¾à¤ıà¤Ĥ": 7020,
    "Ġà¤īà¤¨à¥įà¤¹à¥ĩà¤Ĥ": 7021,
    "Ġà¤ľà¤¿à¤¨à¥įà¤¹à¥ĩà¤Ĥ": 7022,
    "Ġà¤¸à¤¦à¤¸à¥įà¤¯": 7023,
    "Ġà¤¸à¤¦à¤¸à¥įà¤¯à¥ĭà¤Ĥ": 7024,
    "Ġà¤Ĺà¥ģà¤ľ": 7025,
    "Ġà¤¨à¤¾à¤Ĺà¤°à¤¿à¤ķ": 7026,
    "Ġà¥¨à¥¦à¥¦à¥ª": 7027,
    "Ġà¤ķà¤¶": 7028,
    "Ġà¤°à¤¾à¤ľà¤µ": 7029,
    "Ġà¤Ĩà¤Ĺà¤®à¤¨": 7030,
    "Ġà¤¸à¤Ńà¥įà¤¯à¤¤à¤¾": 7031,
    "Ġà¤¨à¥Į": 7032,
    "à¥Ģà¤ķà¤°à¤£": 7033,
    "Ġà¤«à¥Īà¤²à¥Ģ": 7034,
    "Ġà¤Łà¥ĩà¤²à¥Ģ": 7035,
    "Ġà¤¸à¤®à¥ĥà¤¦à¥įà¤§": 7036,
    "Ġà¤Ĭà¤ģà¤ļà¥Ģ": 7037,
    "à¤¾à¤§à¤¿à¤ķà¤¾à¤°": 7038,
    "Ġà¤°à¤¾à¤ľà¥įà¤¯à¤¸à¤Ńà¤¾": 7039,
    "Ġà¤ķà¤¾à¤°à¥įà¤¯à¤ªà¤¾à¤²à¤¿à¤ķà¤¾": 7040,
    "Ġà¤ľà¥Īà¤¸à¥ĩ": 7041,
    "Ġà¤¤à¤°à¤¹": 7042,
    "Ġà¤²à¥ĩà¤ķà¤°": 7043,
    "Ġà¤¶à¤¿à¤ķà¥įà¤·": 7044,
    "Ġà¤ªà¤°à¤¿à¤£": 7045,
    "Ġà¤µà¤¿à¤ľà¤¯": 7046,
    "Ġà¤ĺà¥ĭà¤·à¤£à¤¾": 7047,
    "Ġà¤¶à¤¾à¤Ĥà¤¤à¤¿": 7048,
    "Ġà¤¸à¤«à¤²": 7049,
    "Ġà¤¶à¥įà¤°à¥Ģà¤²": 7050,
    "Ġà¤ªà¥įà¤°à¤¤à¥įà¤¯à¥ĩà¤ķ": 7051,
    "Ġà¤ħà¤®à¤°à¥Ģà¤ķà¥Ģ": 7052,
    "Ġà¤Ĺà¥ģà¤ªà¥įà¤¤": 7053,
    "Ġà¤ķà¥ĥà¤·à¤¿": 7054,
    "Ġà¤ĭà¤¤à¥ģ": 7055,
    "Ġà¤ªà¤°à¤Ĥà¤ªà¤°à¤¾à¤Ĺ": 7056,
    "Ġà¤¸à¤®à¤Ŀ": 7057,
    "à¥įà¤ŀà¤¾à¤¨": 7058,
    "à¤¿à¤Ĥà¤¸": 7059,
    "à¥Įà¤¹à¤¾à¤°": 7060,
    "Ġà¤ľà¥Ģà¤µà¤¨": 7061,
    "Ġà¤µà¤¾à¤¸à¥įà¤¤": 7062,
    "Ġà¤ħà¤¨à¥ĩà¤ķ": 7063,
    "Ġà¤ªà¤°à¥įà¤¯à¤Łà¤¨": 7064,
    "Ġà¤ķà¤¿à¤¸à¥Ģ": 7065,
    "à¤Ńà¤¾à¤·à¤¾": 7066,
    "Ġà¤¸à¤¹à¤¾à¤¯à¤ķ": 7067,
    "Ġà¤¨à¤¿à¤®à¥įà¤¨": 7068,
    "Ġà¤®à¤Ĥà¤¤à¥įà¤°à¤¿à¤®": 7069,
    "Ġà¤ĩà¤Ĥà¤¦": 7070,
    "Ġà¤«à¥įà¤°à¤¾à¤Ĥà¤¸": 7071,
    "à¤¿à¤¬à¤Ĥà¤§à¥Ģà¤¯": 7072,
    "Ġà¤²à¤Ĥà¤¬à¥ĩ": 7073,
    "Ġà¤Ľà¥ĭà¤Łà¥ĩ": 7074,
    "Ġà¤ªà¤¹à¥ģà¤ģà¤ļ": 7075,
    "Ġà¤¶à¥ģà¤°à¥ģà¤Ĩà¤¤": 7076,
    "Ġà¤®à¥ģà¤¸à¥įà¤²à¤¿à¤®": 7077,
    "à¤ļà¥įà¤Ľ": 7078,
    "Ġà¤¸à¤ķà¥įà¤°à¤¿à¤¯": 7079,
    "Ġà¤¸à¥ĭà¤µ": 7080,
    "Ġà¤¤à¤¨à¤¾à¤µ": 7081,
    "Ġà¤¶à¤¹à¤°à¥Ģ": 7082,
    "Ġà¤¬à¤ľà¤Ł": 7083,
    "Ġà¤ªà¤°à¥Ģà¤ķà¥įà¤·": 7084,
    "Ġà¤īà¤·à¥įà¤£": 7085,
    "Ġà¤īà¤¤à¥įà¤¤à¤°à¥Ģ": 7086,
    "à¤¹à¤¿à¤¨à¥įà¤¦à¥Ģ": 7087,
    "Ġà¤ĩà¤¸à¥įà¤²à¤¾à¤®": 7088,
    "Ġà¤¹à¥īà¤ķà¥Ģ": 7089,
    "Ġà¤ªà¥įà¤°à¤£à¤¾à¤²à¥Ģ": 7090,
    "à¤¾à¤Ĥà¤¸à¥įà¤ķà¥ĥà¤¤à¤¿à¤ķ": 7091,
    "Ġà¤¡à¤¾à¤²à¤°": 7092,
    "Ġà¤²à¥ĭà¤ķà¤ªà¥įà¤°à¤¿à¤¯": 7093,
    "Ġà¤ħà¤µà¤¶à¥ĩà¤·": 7094,
    "Ġà¤¸à¤¿à¤Ĥà¤§à¥ģ": 7095,
    "Ġà¤Ĺà¥ģà¤ľà¤°à¤¾à¤¤": 7096,
    "Ġà¤ķà¤¶à¥įà¤®": 7097,
    "Ġà¤°à¤¾à¤ľà¤µà¤Ĥà¤¶": 7098,
    "Ġà¤¨à¥Įà¤¸à¥ĩà¤¨à¤¾": 7099,
    "Ġà¤Łà¥ĩà¤²à¥Ģà¤µà¤¿à¤ľ": 7100,
    "Ġà¤ªà¤°à¤¿à¤£à¤¾à¤®": 7101,
    "Ġà¤¶à¥įà¤°à¥Ģà¤²à¤Ĥ": 7102,
    "Ġà¤ªà¤°à¤Ĥà¤ªà¤°à¤¾à¤Ĺà¤¤": 7103,
    "Ġà¤µà¤¾à¤¸à¥įà¤¤à¤µ": 7104,
    "Ġà¤®à¤Ĥà¤¤à¥įà¤°à¤¿à¤®à¤£à¥įà¤¡": 7105,
    "Ġà¤ĩà¤Ĥà¤¦à¤¿à¤°à¤¾": 7106,
    "Ġà¤¸à¥ĭà¤µà¤¿à¤¯à¤¤": 7107,
    "Ġà¤ªà¤°à¥Ģà¤ķà¥įà¤·à¤£": 7108,
    "Ġà¤ķà¤¶à¥įà¤®à¥Ģà¤°": 7109,
    "Ġà¤ªà¤°à¤¿à¤£à¤¾à¤®à¤¸à¥įà¤µ": 7110,
    "Ġà¤¶à¥įà¤°à¥Ģà¤²à¤Ĥà¤ķà¤¾": 7111,
    "Ġà¤®à¤Ĥà¤¤à¥įà¤°à¤¿à¤®à¤£à¥įà¤¡à¤²": 7112,
    "Ġà¤ªà¤°à¤¿à¤£à¤¾à¤®à¤¸à¥įà¤µà¤°à¥Ĥà¤ª": 7113,
    "85": 7114,
    "Î¯": 7115,
    "Ġlist": 7116,
    "Ġ39": 7117,
    "Ġ35": 7118,
    "Ġ43": 7119,
    "Ġ44": 7120,
    "Ġ1957": 7121,
    "Ġ1995": 7122,
    "Ġ600": 7123,
    "Ġ65": 7124,
    "Ġ1981": 7125,
    "Ġ1988": 7126,
    "Ġ120": 7127,
    "Ġ1972": 7128,
    "Ġ93": 7129,
    "Ġ1500": 7130,
    "2009": 7131,
    "2001": 7132,
    "1991": 7133,
    "Ġ1848": 7134,
    "29": 7135,
    "13": 7136,
    "83": 7137,
    "07": 7138,
    "Ġ2005": 7139,
    "Ġ81": 7140,
    "Ġ142": 7141,
    "900": 7142,
    "Ġ(\"": 7143,
    "Ġ53": 7144,
    "Ġ34": 7145,
    "Ġ1964": 7146,
    "Ġ63": 7147,
    "ĠNew": 7148,
    "Ġweb": 7149,
    "fficial": 7150,
    "ĠInternational": 7151,
    "nd": 7152,
    "22": 7153,
    "Ġ'": 7154,
    "Ġ2019": 7155,
    "Ġ45": 7156,
    "Ġ1966": 7157,
    "Ġ1989": 7158,
    "199": 7159,
    "Ġ140": 7160,
    "47": 7161,
    "Ġ32": 7162,
    "Ġ7000": 7163,
    "2004": 7164,
    "...": 7165,
    "ĠMach": 7166,
    "ĠLanguages": 7167,
    "ĠWayback": 7168,
    "ĠMachine": 7169,
    "no": 7170,
    "af": 7171,
    "han": 7172,
    "reg": 7173,
    "Ġli": 7174,
    "Ġmin": 7175,
    "rig": 7176,
    "eri": 7177,
    "ran": 7178,
    "ger": 7179,
    "ĠDem": 7180,
    "jo": 7181,
    "van": 7182,
    "die": 7183,
    "des": 7184,
    "ict": 7185,
    "get": 7186,
    "Ġhig": 7187,
    "ĠEur": 7188,
    "PA": 7189,
    "gth": 7190,
    "ĠCl": 7191,
    "resent": 7192,
    "Ġunit": 7193,
    "form": 7194,
    "resident": 7195,
    "kn": 7196,
    "DA": 7197,
    "ii": 7198,
    "HO": 7199,
    "uk": 7200,
    "Ġthen": 7201,
    "ken": 7202,
    "reen": 7203,
    "alw": 7204,
    "Ġcal": 7205,
    "ened": 7206,
    "dar": 7207,
    "Ġinit": 7208,
    "oral": 7209,
    "Ġbor": 7210,
    "Ġband": 7211,
    "Ġpat": 7212,
    "esc": 7213,
    "ese": 7214,
    "Ġmer": 7215,
    "ico": 7216,
    "aic": 7217,
    "uis": 7218,
    "isen": 7219,
    "ises": 7220,
    "anding": 7221,
    "ings": 7222,
    "Ġwent": 7223,
    "omic": 7224,
    "Ġtot": 7225,
    "ily": 7226,
    "arly": 7227,
    "Ġhy": 7228,
    "pur": 7229,
    "Ġgas": 7230,
    "Ġsil": 7231,
    "ilw": 7232,
    "ĠAk": 7233,
    "olit": 7234,
    "oli": 7235,
    "ries": 7236,
    "Ġdri": 7237,
    "Ġbri": 7238,
    "ĠBh": 7239,
    "Ġfra": 7240,
    "ĠIndira": 7241,
    "ams": 7242,
    "nam": 7243,
    "Ġbro": 7244,
    "ĠShe": 7245,
    "ĠSri": 7246,
    "ble": 7247,
    "Ġcle": 7248,
    "ute": 7249,
    "cean": 7250,
    "orce": 7251,
    "Ġisol": 7252,
    "eter": 7253,
    "set": 7254,
    "Ġpet": 7255,
    "Ġlim": 7256,
    "Ġsim": 7257,
    "ush": 7258,
    "ada": 7259,
    "Ġmig": 7260,
    "Ġage": 7261,
    "idly": 7262,
    "une": 7263,
    "ung": 7264,
    "ĠMe": 7265,
    "ĠMal": 7266,
    "diment": 7267,
    "irt": 7268,
    "Ġir": 7269,
    "Ġbeing": 7270,
    "Ġconce": 7271,
    "ption": 7272,
    "Ġfem": 7273,
    "Ġmoist": 7274,
    "ĠEx": 7275,
    "long": 7276,
    "pts": 7277,
    "aced": 7278,
    "acter": 7279,
    "Ġreac": 7280,
    "Ġtest": 7281,
    "omest": 7282,
    "Ġdiv": 7283,
    "anged": 7284,
    "ĠDal": 7285,
    "ither": 7286,
    "onial": 7287,
    "Ġrich": 7288,
    "abh": 7289,
    "Ġhab": 7290,
    "abad": 7291,
    "ense": 7292,
    "Ġthese": 7293,
    "pay": 7294,
    "ĠBay": 7295,
    "ayed": 7296,
    "ĠNon": 7297,
    "Ġarts": 7298,
    "itud": 7299,
    "ubs": 7300,
    "Ġarea": 7301,
    "Ġparts": 7302,
    "Ġcrit": 7303,
    "Ġtak": 7304,
    "ivity": 7305,
    "Ġpers": 7306,
    "mend": 7307,
    "pend": 7308,
    "Ġvi": 7309,
    "Ġvis": 7310,
    "oted": 7311,
    "anch": 7312,
    "Ġcos": 7313,
    "Ary": 7314,
    "ods": 7315,
    "Ġatt": 7316,
    "anism": 7317,
    "ott": 7318,
    "Ġanot": 7319,
    "ogn": 7320,
    "uous": 7321,
    "Ġchos": 7322,
    "Ġprop": 7323,
    "Ġcontain": 7324,
    "after": 7325,
    "itions": 7326,
    "ĠEconom": 7327,
    "anta": 7328,
    "pass": 7329,
    "Ġname": 7330,
    "Ġcame": 7331,
    "Ġaver": 7332,
    "Ġsav": 7333,
    "lows": 7334,
    "Ġslow": 7335,
    "oming": 7336,
    "Ġpartic": 7337,
    "ressed": 7338,
    "Ġformal": 7339,
    "ĠFor": 7340,
    "Ġadop": 7341,
    "Ġsep": 7342,
    "ĠJan": 7343,
    "Ġclim": 7344,
    "Ġkame": 7345,
    "ources": 7346,
    "medi": 7347,
    "ĠAsh": 7348,
    "ĠVa": 7349,
    "ĠKal": 7350,
    "Ġgovernments": 7351,
    "Ġpopulous": 7352,
    "Ġeff": 7353,
    "Ġgave": 7354,
    "Ġthreat": 7355,
    "reath": 7356,
    "ĠTreat": 7357,
    "Ġcompan": 7358,
    "Ġfall": 7359,
    "ĠPall": 7360,
    "Ġaddition": 7361,
    "Ġopp": 7362,
    "urred": 7363,
    "Ġpred": 7364,
    "Ġmuch": 7365,
    "Ġsho": 7366,
    "Ġexport": 7367,
    "Ġexpans": 7368,
    "Ġexpress": 7369,
    "Ġinstitution": 7370,
    "Ġorgan": 7371,
    "Ġsect": 7372,
    "ject": 7373,
    "ĠThar": 7374,
    "Ġconsum": 7375,
    "Ġreligion": 7376,
    "round": 7377,
    "Ġlatter": 7378,
    "Ġrivers": 7379,
    "Ġclasses": 7380,
    "Ġministers": 7381,
    "Ġpover": 7382,
    "Ġsover": 7383,
    "Ġextin": 7384,
    "ĠNorth": 7385,
    "Ġlevel": 7386,
    "Ġlik": 7387,
    "aren": 7388,
    "Ġthose": 7389,
    "ĠBuddha": 7390,
    "Ġurbanisation": 7391,
    "Ġfolk": 7392,
    "ellion": 7393,
    "Ġrecent": 7394,
    "Ġsuppl": 7395,
    "Ġback": 7396,
    "Ġseals": 7397,
    "Ġappear": 7398,
    "Ġdecade": 7399,
    "Ġimpro": 7400,
    "sha": 7401,
    "racy": 7402,
    "Ġlaw": 7403,
    "Ġmargin": 7404,
    "Ġnomin": 7405,
    "Ġoffice": 7406,
    "Ġcomprom": 7407,
    "ĠModern": 7408,
    "Ġcontains": 7409,
    "Ġplains": 7410,
    "Ġelected": 7411,
    "Ġfact": 7412,
    "Ġdefe": 7413,
    "ricket": 7414,
    "ĠFron": 7415,
    "Ġsetting": 7416,
    "Ġgood": 7417,
    "Ġconstitutional": 7418,
    "uropean": 7419,
    "Ġbasin": 7420,
    "Ġrefer": 7421,
    "Ġlib": 7422,
    "Ġcruc": 7423,
    "Ġresident": 7424,
    "ĠTemp": 7425,
    "Ġstyle": 7426,
    "Ġmaint": 7427,
    "Ġwould": 7428,
    "oulder": 7429,
    "Ġcould": 7430,
    "Ġothers": 7431,
    "Ġsigned": 7432,
    "Ġforests": 7433,
    "ĠHimalayan": 7434,
    "Ġrange": 7435,
    "Ġchur": 7436,
    "ĠLank": 7437,
    "Ġdishes": 7438,
    "Ġvarn": 7439,
    "Ġvery": 7440,
    "Ġcoll": 7441,
    "uscri": 7442,
    "Ġexamp": 7443,
    "ĠMid": 7444,
    "Ġkil": 7445,
    "Ġsomet": 7446,
    "Ġuse": 7447,
    "Ġtoday": 7448,
    "Ġinfluences": 7449,
    "ĠSikhism": 7450,
    "ĠIslands": 7451,
    "Ġshare": 7452,
    "Ġconsists": 7453,
    "ĠDemoc": 7454,
    "Ġmarriages": 7455,
    "Ġmarked": 7456,
    "Ġsites": 7457,
    "Ġenter": 7458,
    "Ġdrain": 7459,
    "ĠBang": 7460,
    "Ġarmies": 7461,
    "Ġright": 7462,
    "Ġcultural": 7463,
    "Ġanimals": 7464,
    "Ġsupported": 7465,
    "Ġmathematical": 7466,
    "Ġremaining": 7467,
    "Ġcontributions": 7468,
    "Ġoriginally": 7469,
    "Ġnorthwest": 7470,
    "Ġtransmit": 7471,
    "struc": 7472,
    "Ġweap": 7473,
    "crimin": 7474,
    "Ġtown": 7475,
    "Ġsix": 7476,
    "Ġadministration": 7477,
    "ĠMyan": 7478,
    "Ġassert": 7479,
    "nings": 7480,
    "Ġmamm": 7481,
    "Ġstatus": 7482,
    "Ġendemic": 7483,
    "Ġeight": 7484,
    "Ġtrade": 7485,
    "Ġheredi": 7486,
    "Ġadded": 7487,
    "Ġsafe": 7488,
    "Ġincreasingly": 7489,
    "Ġstrong": 7490,
    "Ġrather": 7491,
    "Ġspeak": 7492,
    "Ġmakes": 7493,
    "Ġvillage": 7494,
    "Ġprimary": 7495,
    "Ġloss": 7496,
    "Ġprotected": 7497,
    "Ġconsider": 7498,
    "Ġpolicies": 7499,
    "Ġcause": 7500,
    "Ġbelief": 7501,
    "Ġtribal": 7502,
    "wards": 7503,
    "Ġtexts": 7504,
    "Ġacross": 7505,
    "Ġindependence": 7506,
    "Ġemployed": 7507,
    "Ġdispl": 7508,
    "ĠDesert": 7509,
    "Ġloose": 7510,
    "guard": 7511,
    "ĠIndones": 7512,
    "Ġreven": 7513,
    "Ġdevotion": 7514,
    "ĠDeccan": 7515,
    "Ġsummer": 7516,
    "ĠGupta": 7517,
    "Ġmulti": 7518,
    "Ġwritten": 7519,
    "Ġassoci": 7520,
    "Ġexchange": 7521,
    "ĠAssem": 7522,
    "Ġintroduced": 7523,
    "Ġgradually": 7524,
    "Ġhaving": 7525,
    "Ġinequ": 7526,
    "ĠArabian": 7527,
    "Ġscript": 7528,
    "heduled": 7529,
    "ĠConstitu": 7530,
    "ĠGreek": 7531,
    "ĠMaurya": 7532,
    "Ġwildlife": 7533,
    "ĠCivilisation": 7534,
    "Ġdisputes": 7535,
    "Ġcapita": 7536,
    "Ġprovided": 7537,
    "Ġtropical": 7538,
    "Ġpractices": 7539,
    "Ġsociety": 7540,
    "Ġcurrency": 7541,
    "Ġschools": 7542,
    "touchability": 7543,
    "Ġarchitecture": 7544,
    "Ġenergy": 7545,
    "Ġcultures": 7546,
    "Ġnatal": 7547,
    "ĠDemograph": 7548,
    "ĠMohen": 7549,
    "dieval": 7550,
    "Ġvict": 7551,
    "Ġveget": 7552,
    "ĠEuras": 7553,
    "Ġstren": 7554,
    "daro": 7555,
    "Ġmerch": 7556,
    "ĠNico": 7557,
    "Ġtotal": 7558,
    "ĠEarly": 7559,
    "Ġrailw": 7560,
    "Ġbroad": 7561,
    "Ġbelong": 7562,
    "Ġcharacter": 7563,
    "Ġreached": 7564,
    "omestic": 7565,
    "Ġhabit": 7566,
    "Aryan": 7567,
    "Ġanother": 7568,
    "Ġrecogn": 7569,
    "Ġchosen": 7570,
    "passing": 7571,
    "Ġaverage": 7572,
    "Ġbecoming": 7573,
    "ĠJanata": 7574,
    "Ġkamee": 7575,
    "mediately": 7576,
    "ĠAshok": 7577,
    "ĠTreaty": 7578,
    "Ġcompanies": 7579,
    "ĠPallav": 7580,
    "Ġpredomin": 7581,
    "Ġsector": 7582,
    "Ġpoverty": 7583,
    "Ġsovere": 7584,
    "Ġlaws": 7585,
    "Ġmargins": 7586,
    "Ġcompromise": 7587,
    "ĠFront": 7588,
    "Ġgoods": 7589,
    "European": 7590,
    "Ġliberal": 7591,
    "Ġcrucial": 7592,
    "Ġresidents": 7593,
    "Ġchurid": 7594,
    "Ġmanuscri": 7595,
    "Ġexample": 7596,
    "ĠMiddle": 7597,
    "Ġkilomet": 7598,
    "Ġsometim": 7599,
    "ĠBangl": 7600,
    "Ġtransmitted": 7601,
    "Ġweapons": 7602,
    "ĠMyanmar": 7603,
    "Ġmammals": 7604,
    "ĠIndonesia": 7605,
    "Ġrevenues": 7606,
    "ĠAssemb": 7607,
    "Ġinequality": 7608,
    "ĠConstituent": 7609,
    "ĠDemographics": 7610,
    "ĠMohenjo": 7611,
    "Ġstrength": 7612,
    "ĠNicobar": 7613,
    "Ġkameez": 7614,
    "ĠAshoka": 7615,
    "Ġsovereign": 7616,
    "Ġchuridars": 7617,
    "Ġkilometres": 7618,
    "Ġsometimes": 7619,
    "ĠBanglades": 7620,
    "ĠAssembly": 7621,
    "Ġsovereignty": 7622,
    "ĠBangladesh": 7623,
    "ann": 7624,
    "Ġop": 7625,
    "pic": 7626,
    "Ġnation": 7627,
    "reasing": 7628,
    "ections": 7629,
    "one": 7630,
    "land": 7631,
    "com": 7632,
    "Ġcoun": 7633,
    "Ġbu": 7634,
    "Ġmi": 7635,
    "ala": 7636,
    "Ġte": 7637,
    "rat": 7638,
    "the": 7639,
    "la": 7640,
    "co": 7641,
    "PI": 7642,
    "ĠSI": 7643,
    "Ġ1948": 7644,
    "ns": 7645,
    "yal": 7646,
    "mers": 7647,
    "ĠRepublic": 7648,
    "à¤ĵ": 7649,
    "à¤ĺ": 7650,
    "à¤Ľ": 7651,
    "Ġà¤ł": 7652,
    "Ńà¤°": 7653,
    "à¤¿à¤Ĺ": 7654,
    "à¥ĩà¤¨": 7655,
    "à¤¨à¤¨": 7656,
    "à¥ĭà¤¨": 7657,
    "Ġà¤®à¤¤": 7658,
    "Ġà¤®à¥ĩ": 7659,
    "à¥Ģà¤ķ": 7660,
    "Ġà¤¸à¤¾à¤°": 7661,
    "à¥ĭà¤¸": 7662,
    "à¥ģà¤ķ": 7663,
    "Ġà¥¤": 7664,
    "à¤®à¥ģ": 7665,
    "à¥įà¤°à¤®": 7666,
    "à¤°à¥įà¤¯": 7667,
    "à¤°à¤²": 7668,
    "Ġà¤®à¤²": 7669,
    "à¤Ĥà¤ļ": 7670,
    "à¥ĩà¤¯": 7671,
    "à¤¯à¤¹": 7672,
    "Ġà¤¨à¤°": 7673,
    "Ġà¤¬à¤²": 7674,
    "Ġà¤ħà¤°à¥įà¤": 7675,
    "à¤°à¥įà¤Ł": 7676,
    "Ġà¤µà¥Ī": 7677,
    "à¤ªà¥ģ": 7678,
    "à¤ªà¤¿": 7679,
    "Ġà¤ķà¤ª": 7680,
    "à¤ķà¥ĭà¤Ĥ": 7681,
    "à¤¿à¤¯à¥ĭ": 7682,
    "à¤¿à¤¯à¤¸": 7683,
    "à¤¦à¤¨": 7684,
    "Ġà¤ªà¤¦": 7685,
    "®à¤¾à¤¨": 7686,
    "Ġà¤ľà¤¾à¤¨": 7687,
    "à¤¶à¤¨": 7688,
    "à¤µà¥Ģ": 7689,
    "à¤µà¤¤": 7690,
    "à¥ĩà¤µ": 7691,
    "à¥įà¤°à¤µ": 7692,
    "à¥ģà¤£": 7693,
    "«à¤¼": 7694,
    "à¤Ĺà¥Ģ": 7695,
    "à¤²à¤Ĺ": 7696,
    "Ġà¤ªà¥įà¤°à¤Ĺ": 7697,
    "à¤Ĺà¥įà¤°": 7698,
    "Ġà¤Ĺà¤¤": 7699,
    "Ġà¤Ĺà¥Ī": 7700,
    "Ġà¥Ń": 7701,
    "Ġà¤īà¤¦": 7702,
    "Ġà¤ĩà¤²": 7703,
    "Ġà¤¤à¤¬": 7704,
    "à¥ĩà¤¡": 7705,
    "à¥ĭà¤¡": 7706,
    "à¤¾à¤°à¤£": 7707,
    "Ġà¤¯à¥ĩ": 7708,
    "Ġà¤ķà¤°à¥ĩ": 7709,
    "Ġà¤ķà¤°à¤µ": 7710,
    "à¥įà¤°à¤Ń": 7711,
    "Ġà¤®à¤¾à¤®": 7712,
    "Ġà¤ªà¤¾à¤¸": 7713,
    "à¤ľà¤¼": 7714,
    "Ġà¤ĩà¤ľ": 7715,
    "Ġà¤ļà¤°": 7716,
    "à¥ĩà¤¶à¤¿à¤¯à¤¾": 7717,
    "à¤¦à¥ĩà¤¶": 7718,
    "à¥ĭà¤Ĥà¤¨à¥ĩ": 7719,
    "Ġà¤°à¤¾à¤ľà¤¸": 7720,
    "à¥įà¤Łà¤°": 7721,
    "à¥Ĥà¤Ł": 7722,
    "à¤Łà¤²": 7723,
    "à¤ļà¤¿à¤¤": 7724,
    "Ġà¤¦à¤¿à¤¸": 7725,
    "Ġà¤¸à¤Ĥà¤ļ": 7726,
    "à¤¡à¤¼à¤¾": 7727,
    "Ġà¤¸à¤®à¥Ĥ": 7728,
    "à¤¦à¤¾à¤¯": 7729,
    "à¤¾à¤¯à¥ĩà¤Ĥ": 7730,
    "à¤¸à¤¾à¤¯": 7731,
    "Ġà¤Ńà¤¾à¤°à¤¤à¥Ģà¤¯à¥ĭà¤Ĥ": 7732,
    "Ġà¥§à¥¨": 7733,
    "Ġà¤¹à¥ĭà¤¨à¥ĩ": 7734,
    "Ġà¤¸à¤¾à¤¹": 7735,
    "à¤ķà¤¾à¤°à¥Ģ": 7736,
    "Ġà¤¶à¤¾à¤®": 7737,
    "Ġà¤²à¥Į": 7738,
    "Ġà¤ļà¥Į": 7739,
    "Ġà¤ªà¤¾à¤Ī": 7740,
    "à¤¿à¤¯à¤¾à¤Ī": 7741,
    "Ġà¤Ĩà¤¤à¥ĩ": 7742,
    "à¥ĩà¤ĸ": 7743,
    "à¤¾à¤°à¤ĸ": 7744,
    "Ġà¤¬à¤¨à¤¨à¥ĩ": 7745,
    "Ġà¤ħà¤ªà¥ĩ": 7746,
    "Ġà¤¸à¤°à¤ķà¤¾à¤°à¥ĭà¤Ĥ": 7747,
    "Ġà¤¬à¤¹à¥ģà¤": 7748,
    "Ġà¤ľà¤¿à¤¸à¤¨à¥ĩ": 7749,
    "Ġà¤ķà¥įà¤·à¥ĩà¤¤à¥įà¤°à¥ĭà¤Ĥ": 7750,
    "à¤¨à¥įà¤§": 7751,
    "¦à¥įà¤§": 7752,
    "à¤¨à¤¿à¤°": 7753,
    "Ġà¤¸à¤¾à¤®à¤¾à¤¨": 7754,
    "à¤¾à¤Ĺà¤°": 7755,
    "Ġà¤µà¤¿à¤¶à¤¾à¤²": 7756,
    "à¤¨à¤¾à¤ĵà¤Ĥ": 7757,
    "à¤Ĺà¤¢à¤¼": 7758,
    "Ġà¤ªà¥ģà¤¨": 7759,
    "Ġà¤īà¤ł": 7760,
    "Ġà¤ªà¤ł": 7761,
    "à¤łà¤¿à¤¤": 7762,
    "Ġà¤ªà¥įà¤°à¤¤à¤¿": 7763,
    "Ġà¤ħà¤¤à¤¿": 7764,
    "Ġà¤«à¤¿à¤²": 7765,
    "à¤Ĥà¤¤à¥Ģ": 7766,
    "Ġà¤ľà¤¿à¤¸à¤ķà¥Ģ": 7767,
    "à¥ĭà¤²à¥Ģ": 7768,
    "Ġà¤ļà¤²à¥Ģ": 7769,
    "Ġà¤ªà¤¹à¤²à¥Ģ": 7770,
    "Ġà¤ľà¤¨à¥įà¤®": 7771,
    "Ġà¤¸à¤®à¥įà¤®": 7772,
    "Ġà¤µà¤°à¥įà¤·à¤¾": 7773,
    "Ġà¤§à¤°à¥įà¤®à¥ĭà¤Ĥ": 7774,
    "Ġà¥¨à¥¨": 7775,
    "Ġà¤¹à¤¿à¤¨à¥įà¤¦à¥ģà¤¸": 7776,
    "Ġà¤®à¤¹à¥Ģ": 7777,
    "Ġà¤Ńà¤°à¤¾": 7778,
    "à¤¾à¤ļà¤²": 7779,
    "à¤Ĺà¥ĭà¤²": 7780,
    "Ġà¤¬à¥ĭà¤²": 7781,
    "à¤¾à¤ıà¤Ĥ": 7782,
    "à¥Īà¤¨à¤¿à¤ķ": 7783,
    "Ġà¤ľà¥Īà¤¨": 7784,
    "Ġà¤ľà¤¾à¤¨à¥ĩ": 7785,
    "Ġà¤ļà¤¾à¤¹": 7786,
    "Ġà¤¸à¤¾à¤°à¥Ģ": 7787,
    "Ġà¤ªà¥ģà¤²": 7788,
    "Ġà¤®à¤¾à¤¨à¤µ": 7789,
    "à¥«à¥¨": 7790,
    "Ġà¤Īà¤¦": 7791,
    "Ġà¤īà¤¨à¤ķà¤¾": 7792,
    "à¤¾à¤ıà¤ģ": 7793,
    "Ġà¤Ľà¤¹": 7794,
    "Ġà¤ħà¤¤à¥įà¤¯": 7795,
    "Ġà¤¹à¤¤à¥įà¤¯": 7796,
    "à¥ĩà¤°à¤¿à¤ķ": 7797,
    "Ġà¤ħà¤¨à¥ģà¤¸à¥Ĥ": 7798,
    "Ġà¤ķà¥ĩà¤Ĥà¤¦à¥įà¤°à¥Ģà¤¯": 7799,
    "Ġà¥§à¥¯à¥ª": 7800,
    "à¤Ńà¤¾à¤°à¤¤à¥Ģà¤¯": 7801,
    "Ġà¤¬à¤¢à¤¼à¤¤à¥Ģ": 7802,
    "Ġà¤¬à¤¢à¤¼à¤¨à¥ĩ": 7803,
    "à¥Īà¤¦à¤¿à¤ķ": 7804,
    "à¤ªà¤¶à¥įà¤ļà¤¿à¤®": 7805,
    "Ġà¤²à¤Ĺà¤¾à¤¤": 7806,
    "Ġà¤ľà¤¿à¤¨à¥įà¤¹": 7807,
    "Ġà¤¬à¤¨à¤¾à¤¯à¤¾": 7808,
    "Ġà¤®à¤§à¥įà¤¯à¤®": 7809,
    "Ġà¤¦à¤°à¥įà¤ľ": 7810,
    "Ġà¤®à¤¾à¤²": 7811,
    "Ġà¤¸à¤¦à¥Ģ": 7812,
    "Ġà¤Ńà¥Ĥà¤®à¤¿": 7813,
    "Ġà¤¸à¤¾à¤®à¥įà¤°à¤¾à¤ľà¥įà¤¯à¥ĭà¤Ĥ": 7814,
    "Ġà¤¸à¤ķà¤¤à¤¾": 7815,
    "Ġà¤¸à¤ķà¤¤à¥ĩ": 7816,
    "Ġà¤ķà¤Ĥà¤ª": 7817,
    "Ġà¤®à¤§à¥įà¤¯à¤ķà¤¾à¤²": 7818,
    "Ġà¤ªà¥įà¤°à¤¦à¥ĩà¤¶à¥ĭà¤Ĥ": 7819,
    "Ġà¤ªà¤¾à¤°à¥įà¤Łà¤¿à¤¯à¥ĭà¤Ĥ": 7820,
    "Ġà¤¸à¤Ĥà¤ĸà¥įà¤¯à¤¾": 7821,
    "Ġà¤ķà¥įà¤°à¤¯": 7822,
    "Ġà¤ħà¤¸à¤®": 7823,
    "Ġà¤ħà¤µà¤¸": 7824,
    "Ġà¤ħà¤µà¤§": 7825,
    "à¤§à¥Ģà¤°à¥ĩ": 7826,
    "à¥§à¥¯à¥": 7827,
    "à¤Ĺà¤Ĥà¤Ĺà¤¾": 7828,
    "Ġà¤¸à¥įà¤¥à¤¿à¤¤à¤¿": 7829,
    "Ġà¤®à¥Ģà¤²": 7830,
    "à¤¿à¤¶à¥Ģà¤²": 7831,
    "à¤Ĥà¤ľà¤¨": 7832,
    "Ġà¤ªà¤¡à¤¼à¤¾": 7833,
    "Ġà¤¸à¥įà¤¥à¤¾à¤¨à¥Ģà¤¯": 7834,
    "Ġà¤Ĩà¤Ĥà¤¤": 7835,
    "Ġà¤ļà¤²à¤¾à¤¯à¤¾": 7836,
    "Ġà¤¸à¥įà¤¥à¤¾à¤ªà¤¿à¤¤": 7837,
    "à¤¦à¥įà¤µà¥Ģà¤ª": 7838,
    "Ġà¤¸à¤Ĥà¤¸à¤¦à¥Ģà¤¯": 7839,
    "Ġà¤µà¤¾à¤¯à¥ģ": 7840,
    "Ġà¤°à¤¾à¤ľà¤¨à¥Ģà¤¤à¤¿": 7841,
    "Ġà¤®à¥ĭà¤¦à¥Ģ": 7842,
    "Ġà¤¨à¤¦à¤¿à¤¯à¥ĭà¤Ĥ": 7843,
    "Ġà¤¬à¤¹à¥ģà¤®à¥Ĥà¤²": 7844,
    "Ġà¤¦à¥Ĥà¤¸": 7845,
    "Ġà¤¸à¥ĩà¤µà¤¾à¤ĵà¤Ĥ": 7846,
    "Ġà¤¸à¥ĩà¤µà¤¾": 7847,
    "Ġà¤Ĺà¥ģà¤Ł": 7848,
    "Ġà¤ķà¤¾à¤®à¤ķ": 7849,
    "Ġà¤¨à¤¾à¤Ĺà¤¾": 7850,
    "Ġà¤Ĩà¤Ĥà¤¦": 7851,
    "Ġà¤ĺà¥ĭà¤·à¤¿à¤¤": 7852,
    "Ġà¤ĳà¤«": 7853,
    "Ġà¤ªà¥įà¤°à¤¾à¤ļà¥Ģà¤¨à¤¤à¤®": 7854,
    "Ġà¤µà¤Ĥà¤¶": 7855,
    "Ġà¤µà¤¿à¤¦à¥įà¤°": 7856,
    "Ġà¤®à¤¨à¤®": 7857,
    "Ġà¤ĳà¤ªà¤°": 7858,
    "Ġà¤Ĭà¤ªà¤°": 7859,
    "Ġà¤¨à¤Ĺà¤°": 7860,
    "Ġà¤Ĩà¤ķà¤°à¥įà¤®": 7861,
    "Ġà¤Ĩà¤Ĺà¥ĩ": 7862,
    "Ġà¤¸à¤Ńà¥Ģ": 7863,
    "Ġà¤¤à¥ĩà¤ľ": 7864,
    "à¤µà¤¾à¤¦à¥Ģ": 7865,
    "Ġà¤°à¤ĸà¤¾": 7866,
    "Ġà¥§à¥¯à¥®à¥ª": 7867,
    "Ġà¤µà¥ĥà¤¦à¥įà¤§": 7868,
    "Ġà¤Ĭà¤ģà¤ļ": 7869,
    "Ġà¤¤à¥Ģà¤¸à¤°à¥Ģ": 7870,
    "Ġà¤²à¥ĭà¤ķà¤¸à¤Ńà¤¾": 7871,
    "Ġà¤¨à¥įà¤¯à¤¾à¤¯à¤ªà¤¾à¤²à¤¿à¤ķà¤¾": 7872,
    "Ġà¤¸à¥Ģà¤®à¤¾": 7873,
    "Ġà¤¬à¥Īà¤ł": 7874,
    "Ġà¤¨à¤¿à¤¯à¥ģà¤ķà¥įà¤¤": 7875,
    "à¥ĩà¤Ĥà¤¦à¥įà¤°": 7876,
    "Ġà¤¸à¥ģà¤§": 7877,
    "Ġà¤ħà¤Ĺà¤¸à¥įà¤¤": 7878,
    "Ġà¤¬à¤¡à¥Ģ": 7879,
    "Ġà¤ķà¤®à¤¾à¤Ĥà¤¡": 7880,
    "Ġà¤µà¤°à¥įà¤£à¤¨": 7881,
    "Ġà¤ªà¤¾à¤ģà¤ļ": 7882,
    "Ġà¤ħà¤¨à¥įà¤¤à¤¤à¤ĥ": 7883,
    "Ġà¤ªà¤¹à¤¾à¤¡à¤¼à¥Ģ": 7884,
    "à¤°à¥įà¤¶à¤¨": 7885,
    "à¤¤à¥įà¤¤à¤¿": 7886,
    "Ġà¤Ĩà¤¸à¤ª": 7887,
    "Ġà¤¸à¤¾à¤ķ": 7888,
    "Ġà¤µà¤¿à¤°à¥ĭà¤§": 7889,
    "Ġà¤īà¤Ńà¤°à¤¾": 7890,
    "Ġà¤ļà¥ģà¤ķà¥Ģ": 7891,
    "à¥įà¤¯à¤¾à¤¦à¤¾": 7892,
    "Ġà¥§à¥¯à¥«à¥¦": 7893,
    "Ġà¤¬à¤Ĥà¤Ĺà¤¾à¤²": 7894,
    "Ġà¤¨à¤¿à¤µà¤¾à¤¸": 7895,
    "Ġà¤Ľà¥ĭà¤¡à¤¼à¤ķà¤°": 7896,
    "Ġà¤¸à¤¤": 7897,
    "Ġà¤ĺà¤¾à¤Łà¥Ģ": 7898,
    "Ġà¤¸à¤¿à¤¨à¥ĩà¤®à¤¾": 7899,
    "Ġà¤ªà¥įà¤°à¤ļà¤²à¤¿à¤¤": 7900,
    "Ġà¤¹à¤¿à¤¸à¥įà¤¸à¤¾": 7901,
    "Ġà¤²à¥ĭà¤ķà¤¤à¤¾à¤Ĥà¤¤à¥įà¤°à¤¿à¤ķ": 7902,
    "Ġà¤ªà¥ģà¤°à¥įà¤¤à¤Ĺà¤¾à¤²à¥Ģ": 7903,
    "ĠâĢĺ": 7904,
    "à¤¨à¤¾à¤¡": 7905,
    "à¤ªà¤Ĥà¤¥": 7906,
    "Ġà¤®à¥ĭà¤°à¥įà¤ļ": 7907,
    "Ġà¤°à¤¤à¥įà¤¨": 7908,
    "à¤¬à¥Ĥà¤¤": 7909,
    "Ġà¤¸à¤¶à¤¸à¥įà¤¤à¥įà¤°": 7910,
    "Ġà¤ªà¥įà¤°à¤ķà¤¾à¤¶": 7911,
    "Ġà¤«à¥ģà¤Ł": 7912,
    "Ġà¤Ĺà¥ĭà¤Ĥà¤¡": 7913,
    "Ġà¤¨à¤¿à¤°à¥įà¤¯à¤¾à¤¤": 7914,
    "Ġà¤ļà¥Ģà¤«": 7915,
    "Ġà¤ħà¤ķà¥įà¤Ł": 7916,
    "Ġà¤¸à¥įà¤Łà¤¾à¤«": 7917,
    "Ġà¤¸à¥Ĥà¤ļà¤¨à¤¾": 7918,
    "Ġà¤®à¤¿à¤¶à¥įà¤°": 7919,
    "Ġà¤¤à¥ģà¤²à¤¨à¤¾": 7920,
    "Ġà¤ªà¥įà¤°à¤Ńà¤¾à¤µà¤¶à¤¾à¤²à¥Ģ": 7921,
    "Ġà¤¸à¤®à¥įà¤ªà¥Ĥà¤°à¥įà¤£": 7922,
    "Ġà¤¨à¥ĩà¤¹à¤°à¥Ĥ": 7923,
    "Ġà¤µà¤¿à¤ķà¤¾à¤¸à¤¶à¥Ģà¤²": 7924,
    "Ġà¤¶à¥ģà¤·à¥įà¤ķ": 7925,
    "Ġà¤®à¥Įà¤°à¥įà¤¯": 7926,
    "Ġà¤Ńà¤¾à¤Ĺà¥Ģà¤¦à¤¾à¤°à¥Ģ": 7927,
    "Ġà¤ªà¥ģà¤°à¥ģà¤·à¥ĭà¤Ĥ": 7928,
    "Ġà¤¶à¤¿à¤ķà¥įà¤·à¤¾": 7929,
    "Ġà¤¸à¤®à¤Ŀà¥Į": 7930,
    "Ġà¤ħà¤¹à¤¿à¤Ĥà¤¸": 7931,
    "Ġà¤¸à¥Įà¤¹à¤¾à¤°": 7932,
    "Ġà¤°à¤¾à¤ľà¤Ńà¤¾à¤·à¤¾": 7933,
    "Ġà¤ķà¤Łà¤¿à¤¬à¤Ĥà¤§à¥Ģà¤¯": 7934,
    "Ġà¤ħà¤ļà¥įà¤Ľ": 7935,
    "Ġà¤¸à¤¾à¤Ĥà¤¸à¥įà¤ķà¥ĥà¤¤à¤¿à¤ķ": 7936,
    "Ġà¤µà¤¾à¤¸à¥įà¤¤à¤µà¤¿à¤ķ": 7937,
    "Ġà¤¨à¤¿à¤°à¥įà¤Ńà¤°": 7938,
    "à¤¦à¥įà¤¯à¤ªà¤¿": 7939,
    "Ġà¤µà¤¿à¤®à¤¾à¤¨": 7940,
    "à¤¿à¤ıà¤¶à¤¨": 7941,
    "Ġà¤Ĺà¥Īà¤°": 7942,
[...]
