{
  "version": "1.0",
  "truncation": null,
  "padding": null,
  "added_tokens": [],
  "normalizer": {
    "type": "NFKC"
  },
  "pre_tokenizer": {
    "type": "Metaspace",
    "replacement": "▁",
    "prepend_scheme": "always",
    "split": true
  },
  "post_processor": null,
  "decoder": {
    "type": "Metaspace",
    "replacement": "▁",
    "prepend_scheme": "always",
    "split": true
  },
  "model": {
    "type": "BPE",
    "dropout": null,
    "unk_token": null,
    "continuing_subword_prefix": null,
    "end_of_word_suffix": null,
    "fuse_unk": false,
    "byte_fallback": false,
    "ignore_merges": false,
    "vocab": {
      "\n": 0,
      " ": 1,
      "!": 2,
      "\"": 3,
      "#": 4,
      "$": 5,
      "%": 6,
      "&": 7,
      "'": 8,
      "(": 9,
      ")": 10,
      "*": 11,
      "+": 12,
      ",": 13,
      "-": 14,
      ".": 15,
      "/": 16,
      "0": 17,
      "1": 18,
      "2": 19,
      "3": 20,
      "4": 21,
      "5": 22,
      "6": 23,
      "7": 24,
      "8": 25,
      "9": 26,
      ":": 27,
      ";": 28,
      "<": 29,
      "=": 30,
      ">": 31,
      "?": 32,
      "A": 33,
      "B": 34,
      "C": 35,
      "D": 36,
      "E": 37,
      "F": 38,
      "G": 39,
      "H": 40,
      "I": 41,
      "J": 42,
      "K": 43,
      "L": 44,
      "M": 45,
      "N": 46,
      "O": 47,
      "P": 48,
      "Q": 49,
      "R": 50,
      "S": 51,
      "T": 52,
      "U": 53,
      "V": 54,
      "W": 55,
      "X": 56,
      "Y": 57,
      "Z": 58,
      "[": 59,
      "\\": 60,
      "]": 61,
      "^": 62,
      "_": 63,
      "`": 64,
      "a": 65,
      "b": 66,
      "c": 67,
      "d": 68,
      "e": 69,
      "f": 70,
      "g": 71,
      "h": 72,
      "i": 73,
      "j": 74,
      "k": 75,
      "l": 76,
      "m": 77,
      "n": 78,
      "o": 79,
      "p": 80,
      "q": 81,
      "r": 82,
      "s": 83,
      "t": 84,
      "u": 85,
      "v": 86,
      "w": 87,
      "x": 88,
      "y": 89,
      "z": 90,
      "{": 91,
      "|": 92,
      "}": 93,
      "~": 94,
      "°": 95,
      "·": 96,
      "Ö": 97,
      "à": 98,
      "á": 99,
      "â": 100,
      "æ": 101,
      "ç": 102,
      "è": 103,
      "é": 104,
      "í": 105,
      "î": 106,
      "ñ": 107,
      "ö": 108,
      "ü": 109,
      "ā": 110,
      "ī": 111,
      "İ": 112,
      "Ś": 113,
      "ś": 114,
      "ū": 115,
      "ș": 116,
      "ə": 117,
      "ɦ": 118,
      "ɪ": 119,
      "ɾ": 120,
      "ʊ": 121,
      "ʻ": 122,
      "ʼ": 123,
      "ˈ": 124,
      "ː": 125,
      "ί": 126,
      "α": 127,
      "δ": 128,
      "θ": 129,
      "ν": 130,
      "ο": 131,
      "π": 132,
      "ς": 133,
      "ό": 134,
      "ँ": 135,
      "ं": 136,
      "ः": 137,
      "अ": 138,
      "आ": 139,
      "इ": 140,
      "ई": 141,
      "उ": 142,
      "ऊ": 143,
      "ऋ": 144,
      "ऍ": 145,
      "ए": 146,
      "ऐ": 147,
      "ऑ": 148,
      "ओ": 149,
      "औ": 150,
      "क": 151,
      "ख": 152,
      "ग": 153,
      "घ": 154,
      "ङ": 155,
      "च": 156,
      "छ": 157,
      "ज": 158,
      "झ": 159,
      "ञ": 160,
      "ट": 161,
      "ठ": 162,
      "ड": 163,
      "ढ": 164,
      "ण": 165,
      "त": 166,
      "थ": 167,
      "द": 168,
      "ध": 169,
      "न": 170,
      "प": 171,
      "फ": 172,
      "ब": 173,
      "भ": 174,
      "म": 175,
      "य": 176,
      "र": 177,
      "ल": 178,
      "ळ": 179,
      "व": 180,
      "श": 181,
      "ष": 182,
      "स": 183,
      "ह": 184,
      "़": 185,
      "ा": 186,
      "ि": 187,
      "ी": 188,
      "ु": 189,
      "ू": 190,
      "ृ": 191,
      "े": 192,
      "ै": 193,
      "ॉ": 194,
      "ॊ": 195,
      "ो": 196,
      "ौ": 197,
      "्": 198,
      "।": 199,
      "०": 200,
      "१": 201,
      "२": 202,
      "३": 203,
      "४": 204,
      "५": 205,
      "६": 206,
      "७": 207,
      "८": 208,
      "९": 209,
      "॰": 210,
      "ஃ": 211,
      "அ": 212,
      "ஆ": 213,
      "இ": 214,
      "ஈ": 215,
      "உ": 216,
      "ஊ": 217,
      "எ": 218,
      "ஏ": 219,
      "ஐ": 220,
      "ஒ": 221,
      "ஓ": 222,
      "க": 223,
      "ங": 224,
      "ச": 225,
      "ஜ": 226,
      "ஞ": 227,
      "ட": 228,
      "ண": 229,
      "த": 230,
      "ந": 231,
      "ன": 232,
      "ப": 233,
      "ம": 234,
      "ய": 235,
      "ர": 236,
      "ற": 237,
      "ல": 238,
      "ள": 239,
      "ழ": 240,
      "வ": 241,
      "ஷ": 242,
      "ஸ": 243,
      "ஹ": 244,
      "ா": 245,
      "ி": 246,
      "ீ": 247,
      "ு": 248,
      "ூ": 249,
      "ெ": 250,
      "ே": 251,
      "ை": 252,
      "ொ": 253,
      "ோ": 254,
      "ௌ": 255,
      "்": 256,
      "ం": 257,
      "ః": 258,
      "అ": 259,
      "ఆ": 260,
      "ఇ": 261,
      "ఈ": 262,
      "ఉ": 263,
      "ఋ": 264,
      "ఎ": 265,
      "ఏ": 266,
      "ఐ": 267,
      "ఒ": 268,
      "ఓ": 269,
      "ఔ": 270,
      "క": 271,
      "ఖ": 272,
      "గ": 273,
      "ఘ": 274,
      "చ": 275,
      "ఛ": 276,
      "జ": 277,
      "ఞ": 278,
      "ట": 279,
      "ఠ": 280,
      "డ": 281,
      "ఢ": 282,
      "ణ": 283,
      "త": 284,
      "థ": 285,
      "ద": 286,
      "ధ": 287,
      "న": 288,
      "ప": 289,
      "ఫ": 290,
      "బ": 291,
      "భ": 292,
      "మ": 293,
      "య": 294,
      "ర": 295,
      "ల": 296,
      "ళ": 297,
      "వ": 298,
      "శ": 299,
      "ష": 300,
      "స": 301,
      "హ": 302,
      "ా": 303,
      "ి": 304,
      "ీ": 305,
      "ు": 306,
      "ూ": 307,
      "ృ": 308,
      "ె": 309,
      "ే": 310,
      "ై": 311,
      "ొ": 312,
      "ో": 313,
      "ౌ": 314,
      "్": 315,
      "ṅ": 316,
      "ṇ": 317,
      "Ṛ": 318,
      "ṣ": 319,
      "ṭ": 320,
      "Ἰ": 321,
      "‌": 322,
      "‍": 323,
      "‎": 324,
      "–": 325,
      "—": 326,
      "‘": 327,
      "’": 328,
      "“": 329,
      "”": 330,
      "†": 331,
      "•": 332,
      "′": 333,
      "‹": 334,
      "›": 335,
      "⁡": 336,
      "₹": 337,
      "↑": 338,
      "−": 339,
      "▁": 340,
      "﻿": 341,
      "](": 342,
      "./": 343,
      "](./": 344,
      "▁[": 345,
      "▁\"": 346,
      "nd": 347,
      "\")": 348,
      "te": 349,
      "ia": 350,
      "in": 351,
      "on": 352,
      "20": 353,
      "re": 354,
      "்த": 355,
      "ti": 356,
      "th": 357,
      "ndia": 358,
      "er": 359,
      "ிய": 360,
      "ar": 361,
      "or": 362,
      "al": 363,
      "India": 364,
      "▁|": 365,
      "an": 366,
      "ந்த": 367,
      "en": 368,
      "▁*": 369,
      "்க": 370,
      "es": 371,
      "ed": 372,
      "ci": 373,
      "of": 374,
      "ार": 375,
      "is": 376,
      "ப்": 377,
      "te_": 378,
      "இந்த": 379,
      "#ci": 380,
      "#cite_": 381,
      "ம்": 382,
      "tion": 383,
      "▁क": 384,
      "இந்திய": 385,
      "om": 386,
      "the": 387,
      "OT": 388,
      "ன்": 389,
      "▁a": 390,
      "it": 391,
      "▁(": 392,
      "201": 393,
      "▁ப": 394,
      "்ட": 395,
      "्र": 396,
      "ht": 397,
      "ou": 398,
      "//": 399,
      "oo": 400,
      "19": 401,
      "இந்தியா": 402,
      "ல்": 403,
      "్ర": 404,
      "▁of": 405,
      "▁the": 406,
      "भार": 407,
      "भारत": 408,
      "200": 409,
      "ப்ப": 410,
      "tp": 411,
      "ch": 412,
      "http": 413,
      "://": 414,
      "-0": 415,
      "no": 416,
      "le": 417,
      "as": 418,
      "▁स": 419,
      "க்க": 420,
      "ic": 421,
      "ர்": 422,
      "ార": 423,
      "து": 424,
      "ட்ட": 425,
      "id": 426,
      "https": 427,
      "https://": 428,
      "▁India": 429,
      "▁ம": 430,
      "](./இந்தியா": 431,
      "ook": 432,
      "ref": 433,
      "tr": 434,
      "-1": 435,
      "த்த": 436,
      "▁க": 437,
      "note": 438,
      "ing": 439,
      "#cite_ref": 440,
      "#cite_note": 441,
      "[[": 442,
      "▁1": 443,
      "](./India": 444,
      "▁in": 445,
      "ation": 446,
      "▁म": 447,
      "ள்": 448,
      "▁p": 449,
      "#cite_ref-": 450,
      "#cite_note-": 451,
      "iv": 452,
      "्य": 453,
      "78": 454,
      "](https://": 455,
      "▁and": 456,
      "▁s": 457,
      "▁த": 458,
      "com": 459,
      "▁A": 460,
      "g/": 461,
      "FO": 462,
      "ac": 463,
      "am": 464,
      "ent": 465,
      "NOT": 466,
      "OTNOT": 467,
      "FOOTNOT": 468,
      "FOOTNOTE": 469,
      "at": 470,
      "ரு": 471,
      "ాల": 472,
      "et": 473,
      ".\n": 474,
      "us": 475,
      "▁\n": 476,
      "ad": 477,
      "रा": 478,
      "▁प": 479,
      "▁S": 480,
      "),": 481,
      "్య": 482,
      "ில்": 483,
      "978": 484,
      "▁C": 485,
      "ww": 486,
      "lo": 487,
      "▁வ": 488,
      "ும்": 489,
      "we": 490,
      "ின்": 491,
      "\"),": 492,
      "▁f": 493,
      "▁[↑": 494,
      "ge": 495,
      "భార": 496,
      "భారత": 497,
      ".or": 498,
      "il": 499,
      "దే": 500,
      "ec": 501,
      "▁201": 502,
      "▁இ": 503,
      "▁P": 504,
      "స్": 505,
      ".org/": 506,
      "and": 507,
      ").": 508,
      "ate": 509,
      "ें": 510,
      "దేశ": 511,
      "▁ప": 512,
      "ान": 513,
      "ur": 514,
      "▁அ": 515,
      "um": 516,
      "our": 517,
      "to": 518,
      "▁2": 519,
      "lin": 520,
      "ul": 521,
      "ik": 522,
      "red": 523,
      "▁के": 524,
      "im": 525,
      "சி": 526,
      "र्": 527,
      "▁b": 528,
      "ig": 529,
      "ங்க": 530,
      "00": 531,
      "](./भारत": 532,
      "ற்": 533,
      "సా": 534,
      "he": 535,
      "▁ह": 536,
      "▁c": 537,
      "-0)": 538,
      "ov": 539,
      "த்": 540,
      "book": 541,
      "्त": 542,
      "ைய": 543,
      "ol": 544,
      "ist": 545,
      "es/": 546,
      "ான": 547,
      "న్": 548,
      "IS": 549,
      "க்": 550,
      "link": 551,
      "=1": 552,
      "▁M": 553,
      "▁ந": 554,
      "books": 555,
      "ter": 556,
      "res": 557,
      "21": 558,
      "ang": 559,
      "▁m": 560,
      "ర్": 561,
      "action": 562,
      "▁w": 563,
      "edit": 564,
      "▁R": 565,
      "_of": 566,
      "BN": 567,
      "ப்பு": 568,
      "action=": 569,
      "?action=": 570,
      "&red": 571,
      "ISBN": 572,
      "link=1": 573,
      "edit&red": 574,
      "?action=edit&red": 575,
      "?action=edit&redlink=1": 576,
      "_of_": 577,
      ".com": 578,
      "web": 579,
      "ion": 580,
      "pg": 581,
      ".[[": 582,
      ".com/": 583,
      "ற்ற": 584,
      "▁T": 585,
      "**": 586,
      "IT": 587,
      "ce": 588,
      "िक": 589,
      "ிர": 590,
      "या": 591,
      "▁ச": 592,
      "ாக": 593,
      "ER": 594,
      ".j": 595,
      "ir": 596,
      "EF": 597,
      ".g": 598,
      "em": 599,
      "ாட்ட": 600,
      "ITER": 601,
      "-2": 602,
      "▁में": 603,
      "ourc": 604,
      "ITEREF": 605,
      "▁**": 606,
      "edia": 607,
      "50": 608,
      "s/": 609,
      "199": 610,
      "లు": 611,
      "▁உ": 612,
      "ीय": 613,
      "--": 614,
      "Book": 615,
      "india": 616,
      "ial": 617,
      "wik": 618,
      "▁d": 619,
      "10": 620,
      "▁अ": 621,
      "రా": 622,
      "ources/": 623,
      "ra": 624,
      "arch": 625,
      "▁|\n": 626,
      "tic": 627,
      "▁ஆ": 628,
      "ev": 629,
      ":Book": 630,
      "Sources/": 631,
      ":BookSources/": 632,
      "ers": 633,
      "#C": 634,
      ":BookSources/978": 635,
      "டு": 636,
      "#cite_ref-FOOTNOTE": 637,
      "#cite_note-FOOTNOTE": 638,
      "தி": 639,
      "#CITEREF": 640,
      "ண்": 641,
      "el": 642,
      "op": 643,
      "భారతదేశ": 644,
      "▁D": 645,
      "ind": 646,
      ".శ": 647,
      ".శ.": 648,
      "ों": 649,
      "లో": 650,
      "▁to": 651,
      "ண்ட": 652,
      "▁B": 653,
      "సా.శ.": 654,
      "லை": 655,
      ")\n": 656,
      "]](./இந்தியா": 657,
      "-4": 658,
      "वि": 659,
      "sh": 660,
      "▁క": 661,
      "-3": 662,
      "enti": 663,
      "▁l": 664,
      "ना": 665,
      "fi": 666,
      "23": 667,
      "ment": 668,
      "\")\n": 669,
      "▁ज": 670,
      "्ष": 671,
      "tri": 672,
      "www": 673,
      "▁200": 674,
      "age": 675,
      "ay": 676,
      "-8": 677,
      "_क": 678,
      "త్ర": 679,
      "cal": 680,
      "ाल": 681,
      "up": 682,
      "ாட்டு": 683,
      "▁है": 684,
      "www.": 685,
      "identi": 686,
      "சு": 687,
      "er)": 688,
      "ాలు": 689,
      "identifi": 690,
      "▁द": 691,
      "రి": 692,
      "]](./India": 693,
      "ity": 694,
      "identifier)": 695,
      "ak": 696,
      "un": 697,
      "ip": 698,
      "క్": 699,
      "_(": 700,
      "ంద": 701,
      "▁వ": 702,
      "ொட": 703,
      "ని": 704,
      "ள்ள": 705,
      "▁3": 706,
      "त्र": 707,
      "ew": 708,
      "▁h": 709,
      "ன்ன": 710,
      "ber": 711,
      "राज": 712,
      "ச்": 713,
      "ro": 714,
      "calf": 715,
      "·**": 716,
      "न्": 717,
      "▁I": 718,
      "▁**·**": 719,
      "ेश": 720,
      "▁भारत": 721,
      "ive": 722,
      "etcalf": 723,
      "▁E": 724,
      "26": 725,
      "िया": 726,
      "24": 727,
      "_த": 728,
      "st": 729,
      "11": 730,
      "▁H": 731,
      "28": 732,
      "கள": 733,
      "और": 734,
      "▁G": 735,
      "ల్": 736,
      "ag": 737,
      "▁19": 738,
      "Un": 739,
      "▁20": 740,
      "▁ब": 741,
      "▁N": 742,
      "in_": 743,
      "ld": 744,
      "rom": 745,
      "▁J": 746,
      "▁re": 747,
      "భారతదేశం": 748,
      "▁की": 749,
      "ंग": 750,
      "▁எ": 751,
      ".jpg": 752,
      "▁प्र": 753,
      "ly": 754,
      "-5": 755,
      "ep": 756,
      "ంగ": 757,
      "ला": 758,
      "▁त": 759,
      "▁[\"": 760,
      "▁స": 761,
      "angu": 762,
      "Sp": 763,
      "्व": 764,
      "டி": 765,
      "ொடர்": 766,
      "▁न": 767,
      "भा": 768,
      "▁[↑](./இந்தியா": 769,
      "▁से": 770,
      "▁మ": 771,
      "▁on": 772,
      "mon": 773,
      "av": 774,
      "archive": 775,
      "id=": 776,
      "சிய": 777,
      "30": 778,
      "ap": 779,
      "gle": 780,
      "](./ப": 781,
      "ress": 782,
      "tu": 783,
      "sia": 784,
      "▁ప్ర": 785,
      "Metcalf": 786,
      "▁और": 787,
      "ary": 788,
      "\"](https://": 789,
      "oogle": 790,
      "40": 791,
      "ub": 792,
      "al_": 793,
      "18": 794,
      "மை": 795,
      "▁•": 796,
      "hi": 797,
      "▁का": 798,
      "25": 799,
      "books.g": 800,
      "books.google": 801,
      "?id=": 802,
      "_स": 803,
      ".com/books": 804,
      "books.google.com/books": 805,
      "ory": 806,
      "archive.org/": 807,
      "books.google.com/books?id=": 808,
      "ish": 809,
      "ీయ": 810,
      "▁India\")": 811,
      "கள்": 812,
      "ता": 813,
      "சிற": 814,
      "ன்னாட்டு": 815,
      "_S": 816,
      "ండ": 817,
      "ecial": 818,
      "्ट": 819,
      "_ப": 820,
      "ில": 821,
      "od": 822,
      "▁[↑](./India": 823,
      "_in_": 824,
      "15": 825,
      "▁or": 826,
      "16": 827,
      "▁F": 828,
      "The": 829,
      "ab": 830,
      "▁[ISBN": 831,
      "22": 832,
      "web.": 833,
      ".in": 834,
      "orld": 835,
      "umb": 836,
      "AA": 837,
      "▁[978": 838,
      "web/": 839,
      "archive.org/web/": 840,
      "web.archive.org/web/": 841,
      "-9": 842,
      "க்கு": 843,
      "Special": 844,
      "జ్య": 845,
      "▁చ": 846,
      "17": 847,
      "ற்றும்": 848,
      "▁[*": 849,
      "சிறப்பு": 850,
      "outh": 851,
      "று": 852,
      "▁இந்தியா": 853,
      "து.": 854,
      "▁from": 855,
      ":BookSources/978-0": 856,
      "ன்னாட்டுத்": 857,
      "con": 858,
      "%2": 859,
      "n_": 860,
      "for": 861,
      "▁e": 862,
      "▁th": 863,
      "▁\"भारत": 864,
      "http://": 865,
      "13": 866,
      "తా": 867,
      "ము": 868,
      "▁4": 869,
      "నా": 870,
      "ivers": 871,
      "\").": 872,
      "▁व": 873,
      "తి": 874,
      "్ట": 875,
      "▁மற்றும்": 876,
      "---": 877,
      "rit": 878,
      "स्त": 879,
      "கு": 880,
      "ார": 881,
      "70": 882,
      "▁\"ப": 883,
      "*](https://": 884,
      "வு": 885,
      "राज्य": 886,
      "▁ஒ": 887,
      "▁---": 888,
      ".org/wik": 889,
      "▁n": 890,
      "a_": 891,
      "ipedia": 892,
      "ts": 893,
      "14": 894,
      "क्ष": 895,
      "ित": 896,
      "▁O": 897,
      ".wik": 898,
      "ri": 899,
      "త్": 900,
      "px": 901,
      "न्द": 902,
      "oun": 903,
      "▁g": 904,
      "ern": 905,
      "pl": 906,
      "]](./இந்தியா#cite_note-FOOTNOTE": 907,
      "సి": 908,
      "common": 909,
      "ட்": 910,
      "ற்க": 911,
      "▁आ": 912,
      "▁L": 913,
      "anguage": 914,
      "_A": 915,
      "▁மு": 916,
      "ரா": 917,
      "▁[S": 918,
      "ational": 919,
      "tem": 920,
      "load": 921,
      "पु": 922,
      "षा": 923,
      "eved": 924,
      "imedia": 925,
      "ति": 926,
      "trieved": 927,
      "upload": 928,
      "](./இந்தியா#CITEREF": 929,
      "▁(సా.శ.": 930,
      "ास": 931,
      "har": 932,
      "ud": 933,
      ".wikimedia": 934,
      ".wikimedia.org/wik": 935,
      "ted": 936,
      "iversity": 937,
      "](//": 938,
      "ens": 939,
      "ain": 940,
      "ipedia/": 941,
      "upload.wikimedia.org/wik": 942,
      "](//upload.wikimedia.org/wik": 943,
      "](//upload.wikimedia.org/wikipedia/": 944,
      "ులు": 945,
      "▁రా": 946,
      "![": 947,
      "commons/": 948,
      "](//upload.wikimedia.org/wikipedia/commons/": 949,
      "▁W": 950,
      "ons": 951,
      "thumb": 952,
      ".gov": 953,
      ")[[": 954,
      "ot": 955,
      "PA": 956,
      "యా": 957,
      "–సా.శ.": 958,
      "్రా": 959,
      "os": 960,
      "-7": 961,
      "thumb/": 962,
      "▁అ": 963,
      "inal": 964,
      "ి.": 965,
      "](//upload.wikimedia.org/wikipedia/commons/thumb/": 966,
      "ast": 967,
      "ரி": 968,
      "_of_India": 969,
      "▁p.": 970,
      "ith": 971,
      "-6": 972,
      "_P": 973,
      "px-": 974,
      "ால": 975,
      "&pg": 976,
      "&pg=": 977,
      "स्": 978,
      "வின்": 979,
      "ப்பட்ட": 980,
      "▁by": 981,
      "]](./India#cite_note-": 982,
      "##": 983,
      "வில்": 984,
      "्रे": 985,
      "ిక": 986,
      "த்து": 987,
      "uc": 988,
      "▁+": 989,
      "art": 990,
      "ந்து": 991,
      "ow": 992,
      "తం": 993,
      "▁for": 994,
      "27": 995,
      "▁[![": 996,
      "▁Re": 997,
      "▁*[": 998,
      "\")*": 999,
      "2011": 1000,
      "_and": 1001,
      "भाषा": 1002,
      "▁को": 1003,
      "▁K": 1004,
      "_C": 1005,
      "▁is": 1006,
      "29": 1007,
      "▁(identifier)": 1008,
      "](./India#CITEREF": 1009,
      "ானது": 1010,
      "_(identifier)": 1011,
      "▁(identifier)\")": 1012,
      "मा": 1013,
      "all": 1014,
      "]](./இந்தியா#cite_note-": 1015,
      "web.archive.org/web/201": 1016,
      "ిన": 1017,
      "▁The": 1018,
      "జ్యం": 1019,
      "]](./भारत": 1020,
      "था": 1021,
      "வா": 1022,
      "tein": 1023,
      "▁Indian": 1024,
      "try": 1025,
      "&pg=PA": 1026,
      "'s": 1027,
      "ff": 1028,
      ".in/": 1029,
      ".p": 1030,
      "47": 1031,
      "err": 1032,
      "▁orig": 1033,
      "ची": 1034,
      "री": 1035,
      "జా": 1036,
      "▁ग": 1037,
      "In": 1038,
      "▁([": 1039,
      "2006": 1040,
      "University": 1041,
      ".jp": 1042,
      "▁[A": 1043,
      "Har": 1044,
      "ிற": 1045,
      "List": 1046,
      "oc": 1047,
      "ంచ": 1048,
      "కు": 1049,
      "ண்டு": 1050,
      "*](https://books.google.com/books?id=": 1051,
      "aj": 1052,
      "tim": 1053,
      "வை": 1054,
      "▁उ": 1055,
      "35": 1056,
      "ore": 1057,
      "ort": 1058,
      "▁पर": 1059,
      "▁original": 1060,
      "](./భారతదేశం": 1061,
      "देश": 1062,
      "log": 1063,
      "und": 1064,
      "▁2011": 1065,
      "br": 1066,
      "▁&": 1067,
      "▁\"S": 1068,
      "-19": 1069,
      "60": 1070,
      "▁ए": 1071,
      "ను": 1072,
      "పూ": 1073,
      "48": 1074,
      "▁கு": 1075,
      "ष्ट": 1076,
      "ाद": 1077,
      "▁है।": 1078,
      "]](./India#cite_note-FOOTNOTE": 1079,
      "▁ப.": 1080,
      "ங்கள": 1081,
      "33": 1082,
      "భా": 1083,
      ")](./": 1084,
      "▁தொடர்": 1085,
      "ड़": 1086,
      "▁श": 1087,
      "est": 1088,
      "_के": 1089,
      "/https://": 1090,
      "ஸ்": 1091,
      "_D": 1092,
      "ut": 1093,
      "](./S": 1094,
      "ived": 1095,
      "ద్": 1096,
      "▁In": 1097,
      "ill": 1098,
      "டை": 1099,
      "ింద": 1100,
      "▁[म": 1101,
      "▁\"C": 1102,
      "ம்ப": 1103,
      ".jpg/": 1104,
      "2018": 1105,
      "_म": 1106,
      "கா": 1107,
      "▁ఉ": 1108,
      "▁பெ": 1109,
      "1.": 1110,
      "▁वि": 1111,
      "ष्ट्र": 1112,
      "▁Asia": 1113,
      "▁5": 1114,
      "opul": 1115,
      "ys": 1116,
      "▁सं": 1117,
      "றை": 1118,
      "▁[C": 1119,
      "istory": 1120,
      "▁எண்": 1121,
      "▁ఆ": 1122,
      "ன்ற": 1123,
      "▁[↑](./இந்தியா#cite_ref-FOOTNOTE": 1124,
      "ma": 1125,
      "▁r": 1126,
      "e_": 1127,
      "ने": 1128,
      "ாடு": 1129,
      "_in_India": 1130,
      "▁பொ": 1131,
      "ensus": 1132,
      "▁be": 1133,
      "िल": 1134,
      "](./C": 1135,
      "2.": 1136,
      "p.": 1137,
      "का": 1138,
      "ప్ర": 1139,
      "▁ర": 1140,
      "லா": 1141,
      "45": 1142,
      "7.": 1143,
      "▁t": 1144,
      "49": 1145,
      "ubl": 1146,
      "error": 1147,
      "ிரு": 1148,
      "ेत्र": 1149,
      "கம்": 1150,
      "வி": 1151,
      "tern": 1152,
      "ther": 1153,
      "_India": 1154,
      "pr": 1155,
      "artic": 1156,
      "36": 1157,
      "38": 1158,
      "प्र": 1159,
      "▁ल": 1160,
      "▁Retrieved": 1161,
      "து.[[": 1162,
      "li": 1163,
      "మా": 1164,
      "▁సా": 1165,
      "ence": 1166,
      "భారతీయ": 1167,
      "▁[↑](./இந்தியா#cite_ref-": 1168,
      "▁ஒரு": 1169,
      "ingh": 1170,
      "](http://": 1171,
      "rch": 1172,
      "వా": 1173,
      "▁इ": 1174,
      "▁as": 1175,
      "2009": 1176,
      "_के_": 1177,
      "▁[M": 1178,
      "म्": 1179,
      "ணி": 1180,
      "రు": 1181,
      "](./ISBN": 1182,
      "▁\"ISBN": 1183,
      "ிரி": 1184,
      "▁[ISBN](./ISBN": 1185,
      "▁[ISBN](./ISBN_(identifier)": 1186,
      "%2C": 1187,
      "ी](./": 1188,
      "्या": 1189,
      "▁உள்ள": 1190,
      "ance": 1191,
      "-10": 1192,
      "ies": 1193,
      "1998": 1194,
      "▁[978-0": 1195,
      "ேர": 1196,
      "▁pp.": 1197,
      "se": 1198,
      "sher": 1199,
      "▁[↑](./India#cite_ref-": 1200,
      "opulation": 1201,
      "AJ": 1202,
      "ha": 1203,
      "og": 1204,
      "எண்": 1205,
      "ష్ట": 1206,
      "ార్": 1207,
      "పూ.": 1208,
      "िय": 1209,
      "லி": 1210,
      "▁தர": 1211,
      "▁Press": 1212,
      "BAJ": 1213,
      "QBAJ": 1214,
      "2010": 1215,
      "వి": 1216,
      "46": 1217,
      "9.": 1218,
      "ாள": 1219,
      "ans": 1220,
      "▁[↑](./भारत": 1221,
      "స్థ": 1222,
      "రిత్ర": 1223,
      "క్ష": 1224,
      "ef": 1225,
      "ard": 1226,
      "सा": 1227,
      "हि": 1228,
      "Stein": 1229,
      "सं": 1230,
      "ப்பட": 1231,
      "ong": 1232,
      "ve": 1233,
      "▁\"M": 1234,
      "ம்\")": 1235,
      "o-": 1236,
      "ism": 1237,
      "ொழ": 1238,
      "त्त": 1239,
      "ரசு": 1240,
      "▁र": 1241,
      "conom": 1242,
      "oi": 1243,
      "ates": 1244,
      "80": 1245,
      "ज़": 1246,
      "న్న": 1247,
      "▁கொ": 1248,
      "AAQBAJ": 1249,
      "90": 1250,
      "ana": 1251,
      "umm": 1252,
      "▁வி": 1253,
      "_T": 1254,
      "ss": 1255,
      "nic": 1256,
      "சிறப்பு:BookSources/978-0": 1257,
      "land": 1258,
      "als": 1259,
      "ank": 1260,
      "esh": 1261,
      "லக": 1262,
      "_தொடர்": 1263,
      "▁##": 1264,
      "▁[B": 1265,
      "▁\"இந்திய": 1266,
      "ian": 1267,
      "ப்_ப": 1268,
      "ear": 1269,
      "ான்": 1270,
      "ust": 1271,
      "](./இந்திய": 1272,
      "4.": 1273,
      "77": 1274,
      "indu": 1275,
      "▁போ": 1276,
      "ations": 1277,
      ":BookSources/978-1": 1278,
      "र्व": 1279,
      ").\n": 1280,
      "▁[ப": 1281,
      "df": 1282,
      "ాం": 1283,
      "▁\"B": 1284,
      "MetcalfMetcalf": 1285,
      "6.": 1286,
      "new": 1287,
      "ंड": 1288,
      "_எண்": 1289,
      "_தர": 1290,
      "*.": 1291,
      "ியல்": 1292,
      "ll": 1293,
      "िस": 1294,
      "](./பன்னாட்டுத்": 1295,
      "▁\"பன்னாட்டுத்": 1296,
      "](./பன்னாட்டுத்_தர": 1297,
      "](./Special": 1298,
      "htm": 1299,
      "राष्ट्र": 1300,
      "ass": 1301,
      "▁with": 1302,
      "▁எண்\")": 1303,
      "_தொடர்_எண்": 1304,
      "](./பன்னாட்டுத்_தர_தொடர்_எண்": 1305,
      "39": 1306,
      "ல்க": 1307,
      "▁இரு": 1308,
      "overn": 1309,
      "కి": 1310,
      "](./M": 1311,
      "iss": 1312,
      "▁Ch": 1313,
      "ug": 1314,
      ",_": 1315,
      "ati": 1316,
      "lop": 1317,
      "pi": 1318,
      "▁[2": 1319,
      "ex": 1320,
      "ர்க": 1321,
      "▁no": 1322,
      "ற்ப": 1323,
      "ంట": 1324,
      "మ్రా": 1325,
      "▁(P": 1326,
      "ష్ట్ర": 1327,
      "per": 1328,
      "▁\"Special": 1329,
      "▁[↑](./India#cite_ref-FOOTNOTE": 1330,
      "▁सा": 1331,
      "्षेत्र": 1332,
      "rchived": 1333,
      "](./B": 1334,
      "arg": 1335,
      "▁राज्य": 1336,
      "▁V": 1337,
      "85": 1338,
      "▁இது": 1339,
      "▁[ISBN](./பன்னாட்டுத்_தர_தொடர்_எண்": 1340,
      "Ro": 1341,
      "चि": 1342,
      "ी_": 1343,
      "Indian": 1344,
      "_ம": 1345,
      "▁\"A": 1346,
      "▁University": 1347,
      "मन": 1348,
      "▁இந்திய": 1349,
      "titu": 1350,
      "▁[1": 1351,
      "2004": 1352,
      "ले": 1353,
      "1)": 1354,
      "పు": 1355,
      "▁న": 1356,
      "its": 1357,
      "-1)": 1358,
      "जा": 1359,
      "पा": 1360,
      "ார்": 1361,
      "▁भाषा": 1362,
      "▁\"म": 1363,
      "inis": 1364,
      "\"))": 1365,
      "-s": 1366,
      "3.": 1367,
      "ற்கு": 1368,
      "250": 1369,
      "8.": 1370,
      "ke": 1371,
      "▁य": 1372,
      "▁త": 1373,
      ".pdf": 1374,
      "bot": 1375,
      "2007": 1376,
      "विश": 1377,
      "▁हैं": 1378,
      "▁\"P": 1379,
      "మి": 1380,
      "ాన": 1381,
      "ాయ": 1382,
      "▁ఇ": 1383,
      "ata": 1384,
      "albot": 1385,
      "overnment": 1386,
      "▁[P": 1387,
      "ess": 1388,
      "Ind": 1389,
      "ரிய": 1390,
      "▁भ": 1391,
      "times": 1392,
      "](./P": 1393,
      "భాష": 1394,
      ".pdf)": 1395,
      "4)": 1396,
      "ile": 1397,
      "ord": 1398,
      "ture": 1399,
      "56": 1400,
      "DF": 1401,
      "णी": 1402,
      "க்கிய": 1403,
      "ையில்": 1404,
      "istan": 1405,
      "▁st": 1406,
      "5.": 1407,
      "ूची": 1408,
      "▁7": 1409,
      "▁దేశ": 1410,
      "▁பு": 1411,
      "AAQBAJ&pg=PA": 1412,
      "ach": 1413,
      "i_": 1414,
      ".jpg)](./": 1415,
      "गर": 1416,
      "லைக்க": 1417,
      "Harv": 1418,
      "▁(PDF": 1419,
      "పాల": 1420,
      "ய்": 1421,
      "ue": 1422,
      "ical": 1423,
      "37": 1424,
      "▁are": 1425,
      "]](./भारत#cite_note-": 1426,
      "ct": 1427,
      "▁பா": 1428,
      "స్తా": 1429,
      "ages": 1430,
      "s,": 1431,
      "Asher": 1432,
      "cy": 1433,
      "MetcalfMetcalf2006": 1434,
      "▁\"ம": 1435,
      "..": 1436,
      "ph": 1437,
      "ेला": 1438,
      "లీ": 1439,
      "▁–": 1440,
      "ine": 1441,
      "eral": 1442,
      "_B": 1443,
      "pe": 1444,
      "s.": 1445,
      "हा": 1446,
      "ங்கள்": 1447,
      "plate": 1448,
      "పా": 1449,
      "out": 1450,
      "india.gov": 1451,
      "திய": 1452,
      "ountri": 1453,
      "errors": 1454,
      "12": 1455,
      "hm": 1456,
      "_b": 1457,
      "டிய": 1458,
      "▁\"T": 1459,
      "▁कर": 1460,
      "▁was": 1461,
      "▁ex": 1462,
      "మ్రాజ్యం": 1463,
      "சா": 1464,
      "world": 1465,
      "कार": 1466,
      "क्त": 1467,
      "पर": 1468,
      "िर": 1469,
      "ोल": 1470,
      "▁v": 1471,
      "▁an": 1472,
      "ark": 1473,
      "000": 1474,
      "\"](https://web.archive.org/web/201": 1475,
      "tics": 1476,
      "▁[![](//upload.wikimedia.org/wikipedia/commons/thumb/": 1477,
      "ite": 1478,
      "कि": 1479,
      "मी": 1480,
      "ం:": 1481,
      "▁గ": 1482,
      "దేశ్": 1483,
      "_R": 1484,
      "_ந": 1485,
      "_s": 1486,
      "cl": 1487,
      "▁language": 1488,
      "-m": 1489,
      "_G": 1490,
      "rou": 1491,
      "ం](./": 1492,
      "టి": 1493,
      "తీయ": 1494,
      "2008": 1495,
      "ember": 1496,
      "%20": 1497,
      "தே": 1498,
      "▁சம": 1499,
      "▁[the": 1500,
      "-b": 1501,
      "மி": 1502,
      "▁10": 1503,
      "திப்ப": 1504,
      "udd": 1505,
      "/http://": 1506,
      "Econom": 1507,
      "_M": 1508,
      "ंध": 1509,
      "ेष": 1510,
      "](./म": 1511,
      "▁ஆக": 1512,
      "▁that": 1513,
      "-p": 1514,
      "ी\")": 1515,
      "த்தின்": 1516,
      "ाना": 1517,
      "▁अन": 1518,
      "हिन्द": 1519,
      "-d": 1520,
      "_N": 1521,
      "2)": 1522,
      "ah": 1523,
      "](./T": 1524,
      "द्": 1525,
      "ంలో": 1526,
      "▁क्षेत्र": 1527,
      "ंग्रे": 1528,
      "స్తాన్": 1529,
      "ath": 1530,
      "ால்": 1531,
      "](./ம": 1532,
      "▁[D": 1533,
      "ate_": 1534,
      "र्म": 1535,
      "led": 1536,
      "డు": 1537,
      "నే": 1538,
      "్చ": 1539,
      "▁199": 1540,
      "orth": 1541,
      "eve": 1542,
      "धान": 1543,
      "वा": 1544,
      "ोत": 1545,
      "ange": 1546,
      "/https://www.": 1547,
      "ublic": 1548,
      ")\")": 1549,
      "DP": 1550,
      "fn": 1551,
      "ford": 1552,
      "ited": 1553,
      "rad": 1554,
      "भि": 1555,
      "श्": 1556,
      "से": 1557,
      "▁பிர": 1558,
      "களின்": 1559,
      "्रेणी": 1560,
      "_1": 1561,
      "gion": 1562,
      "గా": 1563,
      "మూ": 1564,
      "▁జ": 1565,
      "్రీ": 1566,
      "▁[ம": 1567,
      "▁\"D": 1568,
      "oli": 1569,
      "Stein1998": 1570,
      "43": 1571,
      "ition": 1572,
      "ry": 1573,
      "▁१": 1574,
      "▁ने": 1575,
      "end": 1576,
      "nt": 1577,
      "](./A": 1578,
      "▁Com": 1579,
      "uly": 1580,
      "59": 1581,
      "anguages": 1582,
      "श्रेणी": 1583,
      "ంబ": 1584,
      "▁6": 1585,
      "▁8": 1586,
      "्रा": 1587,
      "▁நி": 1588,
      "10.": 1589,
      "ంగా": 1590,
      "Dw": 1591,
      "_அ": 1592,
      "lig": 1593,
      "](./D": 1594,
      "](./List": 1595,
      "▁\"List": 1596,
      "▁18": 1597,
      "\"\n": 1598,
      "-g": 1599,
      "धार": 1600,
      "onstitu": 1601,
      "_p": 1602,
      "\").\n": 1603,
      "ொழி": 1604,
      "డ్": 1605,
      "ిల్": 1606,
      "ountries": 1607,
      "tin": 1608,
      "றி": 1609,
      "▁[अ": 1610,
      "onom": 1611,
      "श्रेणी:": 1612,
      "ng": 1613,
      "2014": 1614,
      "கை": 1615,
      "கப்": 1616,
      "ese": 1617,
      "த்தில்": 1618,
      "▁அமை": 1619,
      "ட்சி": 1620,
      "evelop": 1621,
      "ृत": 1622,
      "▁whi": 1623,
      "Singh": 1624,
      "language": 1625,
      "లి": 1626,
      "వం": 1627,
      "స్త్ర": 1628,
      "▁செ": 1629,
      "indi": 1630,
      "▁వి": 1631,
      "xford": 1632,
      "▁2014": 1633,
      "_க": 1634,
      "au": 1635,
      "▁[भारत": 1636,
      "ीय_": 1637,
      "▁एक": 1638,
      "▁\"G": 1639,
      "eng": 1640,
      "Ed": 1641,
      "ஞ்": 1642,
      "த்திய": 1643,
      "html": 1644,
      "ல்கலைக்க": 1645,
      "250px-": 1646,
      "ல்கலைக்கழ": 1647,
      "ंद": 1648,
      "ंत्र": 1649,
      "ूल": 1650,
      "ेल": 1651,
      "కా": 1652,
      "ణా": 1653,
      "ధిక": 1654,
      "▁భారతదేశం": 1655,
      "▁\"अ": 1656,
      "▁ति": 1657,
      "జాతీయ": 1658,
      "▁[த": 1659,
      "▁\"த": 1660,
      "க்கி": 1661,
      "ated": 1662,
      ".jpg)\n": 1663,
      "திப்பகம்": 1664,
      "0%": 1665,
      "riti": 1666,
      "கிற": 1667,
      "மான": 1668,
      "▁[G": 1669,
      "icial": 1670,
      "▁पु": 1671,
      "row": 1672,
      "▁இந்தியாவின்": 1673,
      "विशेष": 1674,
      "](./List_of_": 1675,
      "विशेष:": 1676,
      "ame": 1677,
      "ult": 1678,
      "\"](https://www.": 1679,
      "గు": 1680,
      "దక్ష": 1681,
      "2003": 1682,
      "▁సం": 1683,
      "▁చరిత్ర": 1684,
      "ction": 1685,
      "120": 1686,
      "3)": 1687,
      "qu": 1688,
      "erv": 1689,
      "/artic": 1690,
      "ric": 1691,
      "के": 1692,
      "ஆம்": 1693,
      "மாக": 1694,
      "த்தி": 1695,
      "rav": 1696,
      "69": 1697,
      "డి": 1698,
      "తర": 1699,
      "census": 1700,
      "ன.": 1701,
      "](./த": 1702,
      "▁17": 1703,
      "ச்சி": 1704,
      "ost": 1705,
      "िण": 1706,
      "ोग": 1707,
      "▁भारतीय": 1708,
      "स्तान": 1709,
      "ritish": 1710,
      "sv": 1711,
      "▁\"க": 1712,
      "▁[978-1": 1713,
      "Singh2009": 1714,
      ".;": 1715,
      "▁we": 1716,
      "2005": 1717,
      "oh": 1718,
      "లా": 1719,
      "ous": 1720,
      "సియా": 1721,
      "▁రాజ్యం": 1722,
      "▁సామ్రాజ్యం": 1723,
      "IC": 1724,
      "mund": 1725,
      "▁2010": 1726,
      "thermund": 1727,
      "வன": 1728,
      "▁\"R": 1729,
      "United": 1730,
      "logy": 1731,
      "▁which": 1732,
      "_m": 1733,
      "](./G": 1734,
      "▁[स": 1735,
      "▁\"N": 1736,
      "ties": 1737,
      "▁\"இந்தியா": 1738,
      "yson": 1739,
      "65": 1740,
      "fe": 1741,
      "ond": 1742,
      "దీ": 1743,
      "▁బ": 1744,
      "▁[N": 1745,
      "](https://www.": 1746,
      "స్త": 1747,
      "ండి": 1748,
      "దక్షి": 1749,
      "ीप": 1750,
      "▁\"स": 1751,
      "்ட்": 1752,
      "ட்டி": 1753,
      "-81": 1754,
      "▁2021": 1755,
      "▁प्रदेश": 1756,
      "श्रेणी:Harv": 1757,
      "51": 1758,
      "62": 1759,
      "67": 1760,
      "▁India's": 1761,
      "_d": 1762,
      "ைக்": 1763,
      "▁9": 1764,
      "▁[க": 1765,
      "ப்படு": 1766,
      "na": 1767,
      "uary": 1768,
      "गमन": 1769,
      "थि": 1770,
      "▁tr": 1771,
      "▁South": 1772,
      "ulke": 1773,
      "क्षिण": 1774,
      "▁[↑](./भारत#cite_ref-": 1775,
      "aw": 1776,
      "னி": 1777,
      "ுள்ள": 1778,
      "ది": 1779,
      "](./R": 1780,
      "▁[R": 1781,
      "▁July": 1782,
      "-in": 1783,
      "mer": 1784,
      "▁con": 1785,
      "news/": 1786,
      ".nic": 1787,
      "port": 1788,
      "द्य": 1789,
      "नी": 1790,
      "ी_स": 1791,
      "வாக": 1792,
      "ாட": 1793,
      "ோர": 1794,
      "ட்டியல்": 1795,
      "▁तिथि": 1796,
      "ase": 1797,
      "over": 1798,
      "Kulke": 1799,
      "ँच": 1800,
      "यु": 1801,
      "ून": 1802,
      "ట్": 1803,
      "ిత": 1804,
      "▁[మ": 1805,
      "ood": 1806,
      "/978": 1807,
      "Talbot": 1808,
      "னர்": 1809,
      "▁\"The": 1810,
      "AsherTalbot": 1811,
      "▁15": 1812,
      "india/": 1813,
      "elhi": 1814,
      "ummit": 1815,
      "6)": 1816,
      "gh": 1817,
      "தன்": 1818,
      "னை": 1819,
      "▁ख": 1820,
      "evelopment": 1821,
      "▁तिथि:": 1822,
      "74": 1823,
      "gan": 1824,
      "ty": 1825,
      "tral": 1826,
      "pril": 1827,
      "_చ": 1828,
      "doi": 1829,
      "▁\"మ": 1830,
      "ும்.": 1831,
      "ింది.": 1832,
      ".jpg/250px-": 1833,
      "ms": 1834,
      "மம்": 1835,
      "](./க": 1836,
      "▁[T": 1837,
      "ome": 1838,
      "ல்ல": 1839,
      "](./இந்தியா#cite_ref-FOOTNOTE": 1840,
      "▁History": 1841,
      "57": 1842,
      "▁has": 1843,
      "34": 1844,
      "जन": 1845,
      "ढ़": 1846,
      "धिक": 1847,
      "▁\"ச": 1848,
      "ision": 1849,
      "▁at": 1850,
      "▁கா": 1851,
      "ational_": 1852,
      "amil": 1853,
      "▁अभि": 1854,
      "▁देश": 1855,
      "_Asia": 1856,
      "▁अभिगमन": 1857,
      "ం\")": 1858,
      "▁ఎ": 1859,
      "▁com": 1860,
      "](./N": 1861,
      "▁(సా.శ.పూ.": 1862,
      "▁ch": 1863,
      "▁மா": 1864,
      "ற்று": 1865,
      "a\")": 1866,
      "धर्म": 1867,
      "▁ter": 1868,
      "्री": 1869,
      "्रोत": 1870,
      "▁जन": 1871,
      "akistan": 1872,
      "▁तथा": 1873,
      "▁\"भारतीय": 1874,
      "IN": 1875,
      "PP": 1876,
      "ack": 1877,
      "▁ஆண்டு": 1878,
      "-521": 1879,
      "Edit": 1880,
      "/c": 1881,
      "▁U": 1882,
      "05": 1883,
      "cto": 1884,
      "त्": 1885,
      "बर": 1886,
      "ధ్య": 1887,
      "▁च": 1888,
      "▁శ": 1889,
      "▁து": 1890,
      "▁its": 1891,
      "▁\"क": 1892,
      "▁வெ": 1893,
      "ంద్ర": 1894,
      "▁retrieved": 1895,
      "▁Octo": 1896,
      "▁हैं।": 1897,
      "▁October": 1898,
      "Com": 1899,
      "pire": 1900,
      "ளி": 1901,
      "▁2007": 1902,
      "ission": 1903,
      "ledge": 1904,
      "ib": 1905,
      "ती": 1906,
      "हर": 1907,
      "ूर्व": 1908,
      "्ल": 1909,
      "une": 1910,
      "▁[Archived": 1911,
      "▁[Archived](https://": 1912,
      "ழ்": 1913,
      "any": 1914,
      "ன்று": 1915,
      "▁கால": 1916,
      "சியா": 1917,
      "ైన": 1918,
      "](./మ": 1919,
      "▁పే": 1920,
      "age/": 1921,
      "वं": 1922,
      "விய": 1923,
      "स्तक": 1924,
      "पुस्तक": 1925,
      "विशेष:पुस्तक": 1926,
      "्रोत/978": 1927,
      "ni": 1928,
      "ple": 1929,
      ".nic.in/": 1930,
      "ail": 1931,
      "ணை": 1932,
      "ட்டு": 1933,
      "econom": 1934,
      "-india": 1935,
      "मान": 1936,
      "er,": 1937,
      "ant": 1938,
      "ater": 1939,
      "िका": 1940,
      "▁जा": 1941,
      "ountry": 1942,
      "राष्ट्रीय": 1943,
      "द्ध": 1944,
      "1_": 1945,
      "330": 1946,
      "மைய": 1947,
      "ట్ట": 1948,
      "](./சிறப்பு:BookSources/978-0": 1949,
      "▁\"சிறப்பு:BookSources/978-0": 1950,
      "▁பகு": 1951,
      "idge": 1952,
      "ద్ధ": 1953,
      "C&pg=PA": 1954,
      "_F": 1955,
      "▁26": 1956,
      "_ஆ": 1957,
      "ai": 1958,
      "lia": 1959,
      "les": 1960,
      "por": 1961,
      "दी": 1962,
      "रकार": 1963,
      "हार": 1964,
      "நில": 1965,
      "▁[क": 1966,
      "▁அர": 1967,
      "▁25": 1968,
      "டிமம்": 1969,
      "पुर": 1970,
      "▁इस": 1971,
      "டிமம்:": 1972,
      "RIC": 1973,
      "ali": 1974,
      "▁(201": 1975,
      "usin": 1976,
      "▁வே": 1977,
      "ect": 1978,
      "ச்ச": 1979,
      "హింద": 1980,
      "ించ": 1981,
      "▁ఒ": 1982,
      "▁राज": 1983,
      "▁భాష": 1984,
      "](./क": 1985,
      "](./स": 1986,
      "▁[క": 1987,
      "▁\"ब": 1988,
      "ాల్": 1989,
      "irst": 1990,
      "लेख": 1991,
      "84": 1992,
      "a,": 1993,
      "வெ": 1994,
      "](./ச": 1995,
      "alth": 1996,
      "க்கப்பட்ட": 1997,
      "▁pr": 1998,
      "raph": 1999,
      "](./படிமம்:": 2000,
      "8)": 2001,
      "ure": 2002,
      "\")*.": 2003,
      "31": 2004,
      "World": 2005,
      "▁te": 2006,
      "▁[ச": 2007,
      "ed.": 2008,
      "▁மி": 2009,
      "▁मेला": 2010,
      "▁நில": 2011,
      "▁###": 2012,
      ")](./படிமம்:": 2013,
      "]](./భారతదేశం": 2014,
      "gen": 2015,
      "mission": 2016,
      "ores": 2017,
      "இல்": 2018,
      "டைய": 2019,
      "చ్చ": 2020,
      "జీ": 2021,
      "ేంద్ర": 2022,
      "▁இந்த": 2023,
      "▁\"క": 2024,
      "ంగ్": 2025,
      "harma": 2026,
      "outledge": 2027,
      "DwAAQBAJ&pg=PA": 2028,
      "air": 2029,
      "▁स्": 2030,
      "रालेख": 2031,
      "▁वर्": 2032,
      "india.gov.in/": 2033,
      "ram": 2034,
      "ர்\")": 2035,
      "▁சு": 2036,
      "](./Special:BookSources/978-0": 2037,
      "▁\"Special:BookSources/978-0": 2038,
      "44": 2039,
      "national": 2040,
      "sland": 2041,
      "ulture": 2042,
      "-20": 2043,
      "गु": 2044,
      "ा_": 2045,
      "िव": 2046,
      "தார": 2047,
      "▁\"प": 2048,
      "ames": 2049,
      "ight": 2050,
      "▁हु": 2051,
      "_की_स": 2052,
      "plate_": 2053,
      "_में": 2054,
      "tinent": 2055,
      "bb": 2056,
      "mpire": 2057,
      "ంత": 2058,
      "త్య": 2059,
      "బ్": 2060,
      "మీ": 2061,
      "isation": 2062,
      "hel": 2063,
      "రాష్ట్ర": 2064,
      "▁ప్రాం": 2065,
      "பு": 2066,
      "மெ": 2067,
      "aste": 2068,
      "க்கள்": 2069,
      "ice": 2070,
      "bridge": 2071,
      "Rothermund": 2072,
      ".\"\n": 2073,
      "5)": 2074,
      "ध्य": 2075,
      "्च": 2076,
      "▁[ब": 2077,
      "▁sub": 2078,
      "र्थ": 2079,
      "स्क": 2080,
      "ansk": 2081,
      "onstitution": 2082,
      "रालेखित": 2083,
      ".sv": 2084,
      "E0%": 2085,
      "Fish": 2086,
      "](./சிறப்பு": 2087,
      "▁\"H": 2088,
      "▁\"அ": 2089,
      "▁\"சிறப்பு": 2090,
      "ambridge": 2091,
      "▁St": 2092,
      "ரிக்க": 2093,
      "%28": 2094,
      "-w": 2095,
      "Ch": 2096,
      "_the": 2097,
      "ined": 2098,
      "ign": 2099,
      "illion": 2100,
      "RICS": 2101,
      "En": 2102,
      "ज्": 2103,
      "ంక": 2104,
      "ప్": 2105,
      "యు": 2106,
      "](./अ": 2107,
      "▁மே": 2108,
      "▁16": 2109,
      "్యా": 2110,
      "▁அதி": 2111,
      "old": 2112,
      "▁Hindu": 2113,
      "continent": 2114,
      "తంత్ర": 2115,
      "▁பொரு": 2116,
      "▁भी": 2117,
      "7)": 2118,
      "▁un": 2119,
      "ree": 2120,
      "epend": 2121,
      "ublish": 2122,
      "](http://www.": 2123,
      "anskrit": 2124,
      "Page/": 2125,
      "iew": 2126,
      "போர": 2127,
      "ளா": 2128,
      "▁சி": 2129,
      "ashm": 2130,
      "▁கோ": 2131,
      "▁தொ": 2132,
      "களில்": 2133,
      "ave": 2134,
      "aper": 2135,
      "roup": 2136,
      "EditPage/": 2137,
      "ashmir": 2138,
      "4%": 2139,
      "_भारत": 2140,
      "are": 2141,
      "थान": 2142,
      "हास": 2143,
      "▁k": 2144,
      "lection": 2145,
      "▁हि": 2146,
      "चित्र": 2147,
      "ile:": 2148,
      "0.": 2149,
      "71": 2150,
      "man": 2151,
      "▁An": 2152,
      "▁April": 2153,
      "inistry": 2154,
      "_స": 2155,
      "lim": 2156,
      "తము": 2157,
      "ాన్": 2158,
      "స్క": 2159,
      "ిల్లీ": 2160,
      "దక్షిణ": 2161,
      "/0": 2162,
      "8/": 2163,
      "_E": 2164,
      "द्र": 2165,
      "िट": 2166,
      "िश": 2167,
      "ुख": 2168,
      "உலக": 2169,
      "ன.[[": 2170,
      "](./ब": 2171,
      "▁[L": 2172,
      "▁மூ": 2173,
      "](./India#cite_ref-": 2174,
      "urop": 2175,
      "igh": 2176,
      "ங்கு": 2177,
      "▁உலக": 2178,
      "▁New": 2179,
      "ograph": 2180,
      "▁கொண்டு": 2181,
      "▁இருந்த": 2182,
      "ury": 2183,
      "odern": 2184,
      "%29": 2185,
      "▁[இந்திய": 2186,
      "த்தான": 2187,
      "▁[K": 2188,
      "ork": 2189,
      "](./भारत_में": 2190,
      "\")*,": 2191,
      "*,": 2192,
      "-l": 2193,
      "e/": 2194,
      "iz": 2195,
      "ரை": 2196,
      "ధాన": 2197,
      "బె": 2198,
      "వే": 2199,
      "](./H": 2200,
      "▁பதிப்பகம்": 2201,
      "ారు": 2202,
      "▁Aug": 2203,
      "க்ஸ்": 2204,
      ".jpg)](./படிமம்:": 2205,
      "▁రాజ": 2206,
      "▁அதிக": 2207,
      "▁August": 2208,
      "_L": 2209,
      "▁were": 2210,
      "help": 2211,
      "File:": 2212,
      "ran": 2213,
      "फ़": 2214,
      "ीन": 2215,
      "வே": 2216,
      "](./அ": 2217,
      "▁பல்கலைக்கழ": 2218,
      "▁सम": 2219,
      "](https://books.google.com/books?id=": 2220,
      "ின்ற": 2221,
      "▁2009": 2222,
      "त्तर": 2223,
      "KulkeRothermund": 2224,
      "9)": 2225,
      "ne": 2226,
      "▁\"Indian": 2227,
      "low": 2228,
      "▁2006": 2229,
      "1/": 2230,
      "cr": 2231,
      "son": 2232,
      "ைப்": 2233,
      "1994": 2234,
      "▁உரு": 2235,
      "_by": 2236,
      "-f": 2237,
      "2_": 2238,
      "lish": 2239,
      "मिल": 2240,
      "शिया": 2241,
      "ुस": 2242,
      "జి": 2243,
      "దు": 2244,
      "మ్": 2245,
      "శ్": 2246,
      "ష్": 2247,
      "](./క": 2248,
      "▁[प": 2249,
      "▁सूची": 2250,
      "▁కా": 2251,
      "ంది.": 2252,
      "▁World": 2253,
      "_చరిత్ర": 2254,
      "ich": 2255,
      "கி": 2256,
      "பா": 2257,
      "▁ad": 2258,
      "ics": 2259,
      "▁மொழி": 2260,
      "uring": 2261,
      "berg": 2262,
      "South": 2263,
      "uk": 2264,
      "eptem": 2265,
      "eptember": 2266,
      "-c": 2267,
      "रु": 2268,
      "ूर": 2269,
      "ஒக்ஸ்": 2270,
      "மானது": 2271,
      "–1": 2272,
      "▁२": 2273,
      "▁[H": 2274,
      "ியா": 2275,
      "tical": 2276,
      "ர்கள்": 2277,
      "ंग्रेज़": 2278,
      "போர்ட்": 2279,
      "urope": 2280,
      "ஒக்ஸ்போர்ட்": 2281,
      ",000": 2282,
      "_H": 2283,
      "▁Th": 2284,
      "_ச": 2285,
      "hy": 2286,
      "ంధ": 2287,
      "ఢిల్లీ": 2288,
      "పంచ": 2289,
      "▁\"K": 2290,
      "chw": 2291,
      "ారి": 2292,
      "్యవ": 2293,
      "▁நீ": 2294,
      "emb": 2295,
      "మూస": 2296,
      "Fisher": 2297,
      "▁பல்கலைக்கழகப்": 2298,
      "ces": 2299,
      "कर": 2300,
      "ते": 2301,
      "ूच": 2302,
      "▁सरकार": 2303,
      "▁Dec": 2304,
      "template": 2305,
      "330px-": 2306,
      "86": 2307,
      "bined": 2308,
      "்கள்": 2309,
      "ும்,": 2310,
      "▁2018": 2311,
      "▁May": 2312,
      "▁பெரு": 2313,
      "\"))\n": 2314,
      "2023": 2315,
      "entre": 2316,
      "usic": 2317,
      "_and_S": 2318,
      "%E0%": 2319,
      "2-0)": 2320,
      "87": 2321,
      "year": 2322,
      "पाल": 2323,
      "हु": 2324,
      "ा:": 2325,
      "ैद": 2326,
      "ोक": 2327,
      "▁घ": 2328,
      "▁ஓ": 2329,
      "▁[அ": 2330,
      "](./India#cite_ref-FOOTNOTE": 2331,
      "▁Archived": 2332,
      "aman": 2333,
      "imes": 2334,
      "ople": 2335,
      "▁region": 2336,
      "▁तक": 2337,
      "साँच": 2338,
      "किस्तान": 2339,
      "-to": 2340,
      "వు": 2341,
      "▁\"భారతీయ": 2342,
      "ari": 2343,
      "alay": 2344,
      "▁Ind": 2345,
      "](./భారతదేశం#cite_ref-": 2346,
      "matics": 2347,
      "]](./భారతదేశం#cite_note-": 2348,
      "ளர்": 2349,
      "▁ஊ": 2350,
      "▁errors": 2351,
      "eration": 2352,
      "▁pro": 2353,
      "ிரை": 2354,
      "ள்ளது.": 2355,
      "வார்": 2356,
      "▁([help": 2357,
      "brary": 2358,
      "▁பொது": 2359,
      "ongress": 2360,
      "times.com/": 2361,
      "▁ஆகிய": 2362,
      "ligion": 2363,
      "1,": 2364,
      "Oxford": 2365,
      "_19": 2366,
      "्ड": 2367,
      "▁September": 2368,
      "](./भारतीय_": 2369,
      "indus": 2370,
      "Dyson": 2371,
      "▁[19": 2372,
      "▁நட": 2373,
      "ிரா": 2374,
      "iron": 2375,
      "Harle": 2376,
      "ேரரசு": 2377,
      "ர்கள": 2378,
      "uj": 2379,
      "▁13": 2380,
      ".india": 2381,
      "zberg": 2382,
      "न\")": 2383,
      "सम": 2384,
      "జన": 2385,
      "టు": 2386,
      "టె": 2387,
      "దస్త్ర": 2388,
      "▁\"L": 2389,
      "on-": 2390,
      "ofindia": 2391,
      "ide": 2392,
      "▁per": 2393,
      "ों_की_स": 2394,
      "▁చె": 2395,
      "నాయ": 2396,
      "–సా.శ.పూ.": 2397,
      "artzberg": 2398,
      "▁ఆర్": 2399,
      "▁(PDF)": 2400,
      "పాలిత": 2401,
      "தேச": 2402,
      "श्चि": 2403,
      "Combined": 2404,
      "ేంద్రపాలిత": 2405,
      "மெரிக்க": 2406,
      "chwartzberg": 2407,
      "దస్త్రం:": 2408,
      "2001": 2409,
      "](./Indian_": 2410,
      "▁June": 2411,
      "a/": 2412,
      "me": 2413,
      "ீன": 2414,
      "▁le": 2415,
      "▁[இ": 2416,
      "ன்ப": 2417,
      "ats": 2418,
      "▁வா": 2419,
      "▁நாடு": 2420,
      ":BookSources/978-81": 2421,
      "_Indian_": 2422,
      "raven": 2423,
      "▁([help](./": 2424,
      "88": 2425,
      "RC": 2426,
      "ओं": 2427,
      "ीं": 2428,
      "ूप": 2429,
      "](./K": 2430,
      "](./प": 2431,
      "▁[E": 2432,
      "▁2019": 2433,
      "emplate": 2434,
      "▁languages": 2435,
      "]](./भारत#cite_note-FOOTNOTE": 2436,
      "3-0)": 2437,
      "_%28": 2438,
      "viron": 2439,
      "மா": 2440,
      "மு": 2441,
      "cies": 2442,
      "துகா": 2443,
      "▁India:": 2444,
      "▁wh": 2445,
      "Intern": 2446,
      "vironment": 2447,
      "duc": 2448,
      "ఖ్య": 2449,
      "గో": 2450,
      "తో": 2451,
      "దా": 2452,
      "బి": 2453,
      "హి": 2454,
      "uman": 2455,
      "▁Metcalf": 2456,
      "▁de": 2457,
      "స్కృ": 2458,
      "/f": 2459,
      "रब": 2460,
      "्स": 2461,
      "▁error": 2462,
      "▁किया": 2463,
      "▁தொட": 2464,
      "-2)": 2465,
      "नाम": 2466,
      "▁Asian": 2467,
      "_के_राज्य": 2468,
      "ंदिर": 2469,
      "▁\"இந்தியாவில்": 2470,
      "▁errors\"))\n": 2471,
      "▁error:": 2472,
      "2/": 2473,
      "▁-": 2474,
      "▁2023": 2475,
      "2018),": 2476,
      "%2C_": 2477,
      "7-1": 2478,
      ":[": 2479,
      "_4": 2480,
      "fn_": 2481,
      "uch": 2482,
      "ணு": 2483,
      "▁template": 2484,
      "](./L": 2485,
      "▁பர": 2486,
      "க்கும்": 2487,
      "▁pl": 2488,
      "ace": 2489,
      "et:": 2490,
      "▁Sfn": 2491,
      "▁உய": 2492,
      "template_": 2493,
      "▁targ": 2494,
      "radesh": 2495,
      "_and_Sfn_": 2496,
      ".indiatimes.com/": 2497,
      "template_errors": 2498,
      "▁target:": 2499,
      "_and_Sfn_template_errors": 2500,
      "1-0)": 2501,
      "_3": 2502,
      "_प्र": 2503,
      "गण": 2504,
      "जी": 2505,
      "ष्": 2506,
      "thno": 2507,
      "eneral": 2508,
      "▁this": 2509,
      "▁विश": 2510,
      "ज्ञ": 2511,
      "_ప": 2512,
      "hr": 2513,
      "தாக": 2514,
      "ுக்கு": 2515,
      "ூட்ட": 2516,
      "హా": 2517,
      "ి.\n": 2518,
      "▁ను": 2519,
      "▁జాతీయ": 2520,
      "ority": 2521,
      "▁தெ": 2522,
      "ateg": 2523,
      "oll": 2524,
      "ell": 2525,
      "▁En": 2526,
      "Stein2010": 2527,
      "udden": 2528,
      "్యవస్థ": 2529,
      ".html": 2530,
      "4-0)": 2531,
      "ere": 2532,
      "2000": 2533,
      "▁CITEREF": 2534,
      "-80": 2535,
      ".jpg/330px-": 2536,
      "mar": 2537,
      "rgan": 2538,
      "ंजा": 2539,
      "ख्या": 2540,
      "वन": 2541,
      "ेख": 2542,
      "▁\"E": 2543,
      "now": 2544,
      "](./இந்தியாவில்": 2545,
      "▁2012": 2546,
      "▁இட": 2547,
      "210": 2548,
      "न्न": 2549,
      "्वीप": 2550,
      "ower": 2551,
      "▁राज्यों": 2552,
      "▁भाषा\")": 2553,
      "▁खाना": 2554,
      "ों_की_सूची": 2555,
      "ंजाब": 2556,
      "-re": 2557,
      "/A": 2558,
      "iff": 2559,
      "▁[W": 2560,
      "ound": 2561,
      "▁India,": 2562,
      "lob": 2563,
      "AARC": 2564,
      "ffair": 2565,
      "/articl": 2566,
      "73": 2567,
      "ரோ": 2568,
      "வர": 2569,
      "வது": 2570,
      "ani": 2571,
      "2019": 2572,
      "ley": 2573,
      "க்கா": 2574,
      "▁have": 2575,
      "▁2022": 2576,
      "ritory": 2577,
      "_Press": 2578,
      "ிருந்து": 2579,
      "AsherTalbot2008": 2580,
      "32": 2581,
      "_at": 2582,
      "ibrary": 2583,
      "ta": 2584,
      "बसे": 2585,
      "ुल": 2586,
      "డా": 2587,
      "బడ": 2588,
      "మే": 2589,
      "▁భారత": 2590,
      "▁లో": 2591,
      "▁0.": 2592,
      "▁1.": 2593,
      "ेंद्र": 2594,
      "](./भारत_क": 2595,
      "▁కూ": 2596,
      "ాలు,": 2597,
      "▁రాష్ట్ర": 2598,
      "▁गया": 2599,
      "కిస్తాన్": 2600,
      "▁Chin": 2601,
      "▁(PDF).": 2602,
      "▁చరిత్ర\")": 2603,
      "/p": 2604,
      "100": 2605,
      "89": 2606,
      "GDP": 2607,
      "cms": 2608,
      "lass": 2609,
      "mb": 2610,
      "rov": 2611,
      "ளைய": 2612,
      "ூர்": 2613,
      "ெடு": 2614,
      "ince": 2615,
      "off": 2616,
      "iver": 2617,
      "ild": 2618,
      "டிப்பட": 2619,
      "▁not": 2620,
      "...": 2621,
      "-h": 2622,
      "▁[3": 2623,
      "act": 2624,
      "Indo-": 2625,
      "/http://www.": 2626,
      "ublishing": 2627,
      "75": 2628,
      "ote": 2629,
      "yn": 2630,
      "चल": 2631,
      "दक्षिण": 2632,
      "बंध": 2633,
      "ிழ": 2634,
      "](./E": 2635,
      "▁sfn": 2636,
      "line": 2637,
      "iksh": 2638,
      "▁हो": 2639,
      "▁dis": 2640,
      "▁Jan": 2641,
      "▁नि": 2642,
      "web.archive.org/web/20": 2643,
      "_and_": 2644,
      "▁[मूल": 2645,
      "Economy": 2646,
      "usiness": 2647,
      "ikshit": 2648,
      "▁ar": 2649,
      "▁Population": 2650,
      "▁30": 2651,
      "Union": 2652,
      "91": 2653,
      ":EditPage/": 2654,
      "ton": 2655,
      "ொத்த": 2656,
      "రణ": 2657,
      "వర్": 2658,
      "▁ఈ": 2659,
      "▁em": 2660,
      "▁[అ": 2661,
      "త్రి": 2662,
      "ాలు\")": 2663,
      "▁[978-0-19": 2664,
      "▁ప్రాంత": 2665,
      "/S": 2666,
      "121": 2667,
      "ology": 2668,
      "rd": 2669,
      "ब्": 2670,
      "▁सबसे": 2671,
      "▁Pl": 2672,
      "▁24": 2673,
      "▁2008": 2674,
      "ालय": 2675,
      "न्द्र": 2676,
      "aint": 2677,
      "fficial": 2678,
      "चीन": 2679,
      "ystem": 2680,
      "▁पुरालेखित": 2681,
      "चित्र:": 2682,
      "▁सूची\")": 2683,
      "▁पुरालेखित।": 2684,
      "ities": 2685,
      "வர்": 2686,
      "▁பார": 2687,
      "▁14": 2688,
      "▁Sh": 2689,
      "ங்காள": 2690,
      "▁cent": 2691,
      "ow/": 2692,
      "ிரித்தான": 2693,
      "eshow/": 2694,
      ".jpg)](./File:": 2695,
      "cre": 2696,
      "ten": 2697,
      "▁2016": 2698,
      "▁cons": 2699,
      "▁Ro": 2700,
      "▁[*A": 2701,
      "Economic": 2702,
      "▁December": 2703,
      "61": 2704,
      "JP": 2705,
      "fter": 2706,
      "tal": 2707,
      "जरा": 2708,
      "ेव": 2709,
      "ैन": 2710,
      "▁o": 2711,
      "arlia": 2712,
      "entral": 2713,
      "க்கள": 2714,
      "ade": 2715,
      "▁இர": 2716,
      "த்_த": 2717,
      "▁north": 2718,
      "स्था": 2719,
      "ियों": 2720,
      "क्ति": 2721,
      "▁சமய": 2722,
      "10.10": 2723,
      "%E0%A": 2724,
      "arliament": 2725,
      "6-0)": 2726,
      "_క": 2727,
      "ution": 2728,
      "తు": 2729,
      "పతి": 2730,
      "▁స్": 2731,
      "▁ని": 2732,
      "▁స్థ": 2733,
      "▁[ప": 2734,
      "▁[Metcalf": 2735,
      "▁\"F": 2736,
      "▁\"భారతదేశం": 2737,
      "్రి": 2738,
      "న్ని": 2739,
      "ర్వ": 2740,
      "ాలు](./": 2741,
      "మిళ": 2742,
      "వంశ": 2743,
      "_W": 2744,
      "gis": 2745,
      "hand": 2746,
      "கின்ற": 2747,
      "்த்த": 2748,
      "cience": 2749,
      "ம்](./": 2750,
      "▁தே": 2751,
      "ையாக": 2752,
      "▁**[": 2753,
      "%2F": 2754,
      "▁Commission": 2755,
      "_c": 2756,
      "प्त": 2757,
      "ोर": 2758,
      "।[[": 2759,
      "▁Y": 2760,
      "▁[उ": 2761,
      "ories": 2762,
      "ool": 2763,
      "-17": 2764,
      "▁जिस": 2765,
      "▁प्रा": 2766,
      "स्थान": 2767,
      "ुसार": 2768,
      "Wik": 2769,
      "சை": 2770,
      "ஜ்": 2771,
      "ழு": 2772,
      "▁year": 2773,
      "ப்பி": 2774,
      "lear": 2775,
      "](./இந்தியா#cite_ref-": 2776,
      "iles/": 2777,
      "▁இந்தியாவில்": 2778,
      "uclear": 2779,
      "120px-": 2780,
      "துகாப்பு": 2781,
      "hal": 2782,
      "▁their": 2783,
      "▁2017": 2784,
      "ourn": 2785,
      "avid": 2786,
      "ocial": 2787,
      "thnolog": 2788,
      "-21": 2789,
      "_మ": 2790,
      "_భాష": 2791,
      "च्च": 2792,
      "ण्ड": 2793,
      "िन": 2794,
      "வல்": 2795,
      "ஸ்த": 2796,
      "ద్ర": 2797,
      "ఫ్": 2798,
      "ర్య": 2799,
      "▁ల": 2800,
      "▁[బ": 2801,
      "▁[స": 2802,
      "▁\"అ": 2803,
      "ில்லி": 2804,
      "](./भारत#CITEREF": 2805,
      "న్నాయ": 2806,
      "▁కాల": 2807,
      "_सं": 2808,
      "ులు](./": 2809,
      "▁है।\n": 2810,
      "▁రై": 2811,
      "▁साथ": 2812,
      ".jpg)](./దస్త్రం:": 2813,
      "▁१९": 2814,
      "nglish": 2815,
      "கிறது.": 2816,
      "హిందూ": 2817,
      "slands": 2818,
      "ளாதார": 2819,
      "](./भारत_में_": 2820,
      "98": 2821,
      "ck": 2822,
      "ee": 2823,
      "▁29": 2824,
      ".com/news/": 2825,
      "able": 2826,
      "▁[*The": 2827,
      "68": 2828,
      "76": 2829,
      "_f": 2830,
      "_re": 2831,
      "uis": 2832,
      "\").[[": 2833,
      "annic": 2834,
      "2012": 2835,
      "▁into": 2836,
      "▁தலை": 2837,
      "etwe": 2838,
      "ural": 2839,
      "▁27": 2840,
      "ement": 2841,
      "1997": 2842,
      "▁2020": 2843,
      "ritannic": 2844,
      "▁government": 2845,
      "▁[Stein": 2846,
      "argest": 2847,
      "doi.org/": 2848,
      "▁subcontinent": 2849,
      "ffairs": 2850,
      "▁January": 2851,
      "etween": 2852,
      "आई": 2853,
      "ाम": 2854,
      "▁था": 2855,
      "▁धर्म": 2856,
      "▁\"श्रेणी:Harv": 2857,
      "tive": 2858,
      "ert": 2859,
      "cient": 2860,
      "▁सि": 2861,
      "▁countries": 2862,
      "याल": 2863,
      "▁Econom": 2864,
      "्वर": 2865,
      "▁आधार": 2866,
      "▁संघ": 2867,
      "article": 2868,
      "also": 2869,
      "पाकिस्तान": 2870,
      "श्रेणी:Harv_and_Sfn_template_errors": 2871,
      "▁([help](./श्रेणी:Harv_and_Sfn_template_errors": 2872,
      "▁([help](./श्रेणी:Harv_and_Sfn_template_errors?action=edit&redlink=1": 2873,
      "1–": 2874,
      "99": 2875,
      "கர்": 2876,
      "மன்ற": 2877,
      "▁al": 2878,
      "▁ag": 2879,
      "asia": 2880,
      "acy": 2881,
      "ும்.[[": 2882,
      "anges": 2883,
      "ப்புரு": 2884,
      "கள்\")": 2885,
      "ிருந்த": 2886,
      "▁கொண்ட": 2887,
      "ategory": 2888,
      "55": 2889,
      "500": 2890,
      "ire": 2891,
      "s-": 2892,
      "భూ": 2893,
      "య్య": 2894,
      "▁it": 2895,
      "▁\"ప": 2896,
      "▁\"బ": 2897,
      "▁\"స": 2898,
      "▁ప్రదేశ్": 2899,
      "rits": 2900,
      "త్త": 2901,
      "▁అధిక": 2902,
      "ప్రదేశ్": 2903,
      ".svg": 2904,
      "▁నుండి": 2905,
      "6-2": 2906,
      "TR": 2907,
      "dom": 2908,
      "की": 2909,
      "णा": 2910,
      "तंत्र": 2911,
      "वरी": 2912,
      "्ला": 2913,
      "ீவு": 2914,
      "](./उ": 2915,
      "▁\"उ": 2916,
      "्यट": 2917,
      "▁இய": 2918,
      "▁23": 2919,
      "ங்கி": 2920,
      "ையின்": 2921,
      "ाली": 2922,
      "▁1950": 2923,
      "த்துறை": 2924,
      "श्मी": 2925,
      "▁பகுதி": 2926,
      "▁हिन्द": 2927,
      "வார்ப்புரு": 2928,
      "▁विश्व": 2929,
      "rish": 2930,
      "val": 2931,
      "edic": 2932,
      "ayan": 2933,
      "▁Empire": 2934,
      "▁original](https://www.": 2935,
      "CE": 2936,
      "Sharma": 2937,
      "la": 2938,
      "ya": 2939,
      "நா": 2940,
      "ழி": 2941,
      "▁ஏ": 2942,
      "▁\"இ": 2943,
      "ally": 2944,
      "▁off": 2945,
      "▁கட": 2946,
      "▁pe": 2947,
      "etail": 2948,
      "▁வர": 2949,
      "▁உற்ப": 2950,
      "-40": 2951,
      "மைப்பு": 2952,
      "ேர்த": 2953,
      "ஞ்ச": 2954,
      "uropean": 2955,
      "/articleshow/": 2956,
      "iod": 2957,
      "jab": 2958,
      "ंब": 2959,
      "गढ़": 2960,
      "ज्य": 2961,
      "तमिल": 2962,
      "दा": 2963,
      "ांग": 2964,
      "ेर": 2965,
      "▁also": 2966,
      "icy": 2967,
      "ourt": 2968,
      "▁22": 2969,
      "▁अधिक": 2970,
      "तिहास": 2971,
      "▁2011\n": 2972,
      "censusindia.gov.in/": 2973,
      "युक्त": 2974,
      "स्कृत": 2975,
      "thnologue": 2976,
      "%7": 2977,
      "5-0)": 2978,
      "_உ": 2979,
      "ஐக்கிய": 2980,
      "மீ": 2981,
      "ణి": 2982,
      "తమిళ": 2983,
      "ధీ": 2984,
      "మె": 2985,
      "మైన": 2986,
      "హార": 2987,
      "ోర్": 2988,
      "](./బ": 2989,
      "▁\"J": 2990,
      "▁\"ఇ": 2991,
      "▁\"భారత": 2992,
      "omen": 2993,
      "த்தை": 2994,
      "▁Talbot": 2995,
      "trib": 2996,
      "▁మొ": 2997,
      "నాగ": 2998,
      "త్తర": 2999,
      "ులు\")": 3000,
      "▁குறி": 3001,
      "▁போது": 3002,
      "/article": 3003,
      "శ్మీ": 3004,
      "మూస:": 3005,
      "ritannica": 3006,
      "CN": 3007,
      "ey": 3008,
      "fic": 3009,
      "epublic": 3010,
      "▁2014.\n": 3011,
      "-India": 3012,
      "7/": 3013,
      "gy": 3014,
      "ணிய": 3015,
      "தல்": 3016,
      "வும்": 3017,
      "▁us": 3018,
      "](./F": 3019,
      "](./J": 3020,
      "▁[F": 3021,
      "▁कार": 3022,
      "्रिट": 3023,
      "idd": 3024,
      "#cite_note-1": 3025,
      "▁मान": 3026,
      "▁first": 3027,
      "ovember": 3028,
      "▁நூ": 3029,
      "▁world": 3030,
      "▁2024": 3031,
      "▁बाद": 3032,
      "्वार": 3033,
      "▁குடிய": 3034,
      "▁been": 3035,
      "िल्ल": 3036,
      "▁यह": 3037,
      "्राज्य": 3038,
      "Harle1994": 3039,
      "64": 3040,
      "_w": 3041,
      "c=": 3042,
      "▁'": 3043,
      "▁28": 3044,
      "▁but": 3045,
      "auth": 3046,
      "7-0)": 3047,
      "_இ": 3048,
      "hin": 3049,
      "நாட்டு": 3050,
      "▁[J": 3051,
      "eds.": 3052,
      "ம்ஸ்": 3053,
      "#cite_ref-1": 3054,
      "adition": 3055,
      "▁அல்ல": 3056,
      "▁between": 3057,
      "▁March": 3058,
      "elig": 3059,
      "ake": 3060,
      "▁Fe": 3061,
      "▁original](https://": 3062,
      "engal": 3063,
      "ளையாட்டு": 3064,
      "▁அல்லது": 3065,
      "9-0)": 3066,
      "ID": 3067,
      "_और": 3068,
      "etr": 3069,
      "एं": 3070,
      "भी": 3071,
      "శా": 3072,
      "ైనా": 3073,
      "▁ev": 3074,
      "](./ఇ": 3075,
      "](./స": 3076,
      "▁[ఇ": 3077,
      "▁\"O": 3078,
      "▁\"జ": 3079,
      "▁(19": 3080,
      "ash": 3081,
      "▁population": 3082,
      "▁[↑](./భారతదేశం#cite_ref-": 3083,
      "భారత_": 3084,
      "ument": 3085,
      "olicy": 3086,
      "ters": 3087,
      "రాజ": 3088,
      "లో](./": 3089,
      "రిజ": 3090,
      "క్కు": 3091,
      "eport": 3092,
      "▁[\"India": 3093,
      "ండ్": 3094,
      "ritories": 3095,
      "माण": 3096,
      "bruary": 3097,
      "ड़ा": 3098,
      "▁शास": 3099,
      ".jpg/120px-": 3100,
      "▁साम": 3101,
      "▁[भारतीय": 3102,
      "emplate:": 3103,
      "స్కృతి": 3104,
      "ज्ञान": 3105,
      "lobal": 3106,
      "ournal": 3107,
      "censusindia.gov.in/2011": 3108,
      "BC": 3109,
      "athe": 3110,
      "ban": 3111,
      "cat": 3112,
      "i,": 3113,
      "tt": 3114,
      "டன்": 3115,
      "▁\"19": 3116,
      "ren": 3117,
      "▁பிற": 3118,
      "chno": 3119,
      "▁மலை": 3120,
      "▁Census": 3121,
      "▁2.": 3122,
      "ime": 3123,
      "ங்கை": 3124,
      "University_Press": 3125,
      "▁\"South": 3126,
      "](./Special:BookSources/978-1": 3127,
      "▁\"Special:BookSources/978-1": 3128,
      "Robb": 3129,
      "▁[Archived](https://web.archive.org/web/201": 3130,
      "gency": 3131,
      "ategory:": 3132,
      "\".": 3133,
      "-of": 3134,
      ".as": 3135,
      "81": 3136,
      "fl": 3137,
      "▁im": 3138,
      "\"):": 3139,
      "tent": 3140,
      "anc": 3141,
      "ise": 3142,
      "▁Pro": 3143,
      "umber": 3144,
      "ird": 3145,
      "ipur": 3146,
      "ative": 3147,
      "&s": 3148,
      "/India": 3149,
      "53": 3150,
      "6_": 3151,
      "Craven": 3152,
      "Schwartzberg": 3153,
      "ok": 3154,
      "pos": 3155,
      "ute": 3156,
      "तर": 3157,
      "वर्": 3158,
      "शास": 3159,
      "ाट": 3160,
      "டப்பட்ட": 3161,
      "ரச": 3162,
      "வ்": 3163,
      "▁थ": 3164,
      "▁all": 3165,
      "](./विशेष:पुस्तक": 3166,
      "▁[ந": 3167,
      "▁\"विशेष:पुस्तक": 3168,
      "்கள": 3169,
      "itz": 3170,
      "▁பட்டியல்": 3171,
      "▁स्रोत/978": 3172,
      "ர்ந்த": 3173,
      "▁மக்கள்": 3174,
      "▁system": 3175,
      "▁Ar": 3176,
      "▁पा": 3177,
      "](./भारत_के_": 3178,
      "ண்டா": 3179,
      "ियाँ": 3180,
      "लाई": 3181,
      "_स्रोत/978": 3182,
      "▁ஒன்ற": 3183,
      "டைம்ஸ்": 3184,
      "▁Asia\")": 3185,
      "▁பொ.": 3186,
      "▁लि": 3187,
      "_के_आ": 3188,
      "ப்படும்": 3189,
      "▁நிறு": 3190,
      "](./List_of_c": 3191,
      "economic": 3192,
      "orest": 3193,
      "साँचा:": 3194,
      "ிரைப்பட": 3195,
      "श्चिम": 3196,
      "டிப்படையில்": 3197,
      "ांग्ला": 3198,
      "Craven1997": 3199,
      "](./विशेष:पुस्तक_स्रोत/978": 3200,
      "83": 3201,
      "8-0)": 3202,
      "ft": 3203,
      "arti": 3204,
      "▁part": 3205,
      "▁21": 3206,
      "here": 3207,
      "olper": 3208,
      "▁2004": 3209,
      "time": 3210,
      "▁February": 3211,
      "olpert": 3212,
      "NGDP": 3213,
      "UN": 3214,
      "iter": 3215,
      "oin": 3216,
      "பி": 3217,
      "ం?action=edit&redlink=1": 3218,
      "ఆసియా": 3219,
      "చే": 3220,
      "▁[జ": 3221,
      "▁[doi": 3222,
      "ins": 3223,
      "்க்க": 3224,
      "ature": 3225,
      "▁Cambridge": 3226,
      "▁இல": 3227,
      "▁Pradesh": 3228,
      "▁పా": 3229,
      "▁class": 3230,
      "▁ஆறு": 3231,
      "-317": 3232,
      "▁వా": 3233,
      "ండు": 3234,
      "▁చూ": 3235,
      "త్వ": 3236,
      "▁K.": 3237,
      "▁తే": 3238,
      "timesofindia": 3239,
      "KulkeRothermund2004": 3240,
      "](./List_of_countries": 3241,
      "timesofindia.indiatimes.com/": 3242,
      "/d": 3243,
      "2–": 3244,
      "5_": 3245,
      "Nav": 3246,
      "_भाषा": 3247,
      "oci": 3248,
      "sp": 3249,
      "ंप": 3250,
      "▁राष्ट्रीय": 3251,
      "▁2015": 3252,
      "▁जु": 3253,
      "▁है,": 3254,
      "▁दक्षिण": 3255,
      "unjab": 3256,
      "ेश्वर": 3257,
      "form": 3258,
      ".gov.in/": 3259,
      "▁उप": 3260,
      "म्ब": 3261,
      "▁यु": 3262,
      "त्प": 3263,
      "गुजरा": 3264,
      "ूचना": 3265,
      "_प्रदेश": 3266,
      "JPG": 3267,
      "irect": 3268,
      "4–": 3269,
      "_20": 3270,
      "get": 3271,
      "pp": 3272,
      "ron": 3273,
      "site": 3274,
      "ேற்கு": 3275,
      "▁\"ந": 3276,
      "▁அரசு": 3277,
      "ையானது": 3278,
      "▁during": 3279,
      "archived": 3280,
      "களை": 3281,
      "▁National": 3282,
      "▁[*India": 3283,
      "ங்களில்": 3284,
      "▁பிரதேச": 3285,
      "▁2021.\n": 3286,
      "ummit\")": 3287,
      "▁பொருளாதார": 3288,
      "South_Asia": 3289,
      "▁ஊ.": 3290,
      "industry": 3291,
      "▁<": 3292,
      "▁res": 3293,
      "\")**": 3294,
      "estern": 3295,
      "▁ab": 3296,
      "aksh": 3297,
      "ung": 3298,
      "pib": 3299,
      "MetcalfMetcalf2006),": 3300,
      "▁language\")": 3301,
      "ohn": 3302,
      "chnology": 3303,
      "Dikshit": 3304,
      "_K": 3305,
      "_पर": 3306,
      "oor": 3307,
      "y,": 3308,
      "काल": 3309,
      "बाद": 3310,
      "में": 3311,
      "रे": 3312,
      "रक्ष": 3313,
      "वाद": 3314,
      "ाष्ट्र": 3315,
      "ागर": 3316,
      "ोर्": 3317,
      "கர": 3318,
      "தா": 3319,
      "▁[सं": 3320,
      "one": 3321,
      "▁1,": 3322,
      "▁இத": 3323,
      "िक्ष": 3324,
      "▁1947": 3325,
      "क्षेत्र": 3326,
      "](./South": 3327,
      "_मेला": 3328,
      "नेमा": 3329,
      "▁இந்தியப்": 3330,
      "uddh": 3331,
      "धार_पर": 3332,
      "द्योग": 3333,
      "हाराष्ट्र": 3334,
      "्रिटिश": 3335,
      "iddle": 3336,
      "Schwartzberg2023": 3337,
      "_के_आधार_पर": 3338,
      "DikshitSchwartzberg2023": 3339,
      "_के_आधार_पर_भारत": 3340,
      "-le": 3341,
      "72": 3342,
      "79": 3343,
      "_సా": 3344,
      "fr": 3345,
      "ks": 3346,
      "oth": 3347,
      "ంప": 3348,
      "కో": 3349,
      "గణ": 3350,
      "దిన": 3351,
      "నై": 3352,
      "రీ": 3353,
      "▁ed.": 3354,
      "▁[చ": 3355,
      "▁[భారతీయ": 3356,
      "▁\"చ": 3357,
      "▁Ass": 3358,
      "▁క్రీ": 3359,
      "క్‌": 3360,
      "నికి": 3361,
      "ల్ల": 3362,
      "ంగీ": 3363,
      "▁సి": 3364,
      "నాభా": 3365,
      "జాబి": 3366,
      "▁శా": 3367,
      "▁భాష\")": 3368,
      "బెంగ": 3369,
      "జాబితా": 3370,
      "93": 3371,
      "az": 3372,
      "lang": 3373,
      "o.": 3374,
      "ணா": 3375,
      "▁ர": 3376,
      "▁படி": 3377,
      "ough": 3378,
      "▁தா": 3379,
      "ikh": 3380,
      "▁Development": 3381,
      "\"](https://books.google.com/books?id=": 3382,
      "_பட்டியல்": 3383,
      "harat": 3384,
      "owland": 3385,
      "ிறி": 3386,
      "மிழ்": 3387,
      "னர்.": 3388,
      "rovision": 3389,
      "▁years": 3390,
      "ली": 3391,
      "ीस": 3392,
      "▁es": 3393,
      "▁1998": 3394,
      "2017": 3395,
      "▁स्व": 3396,
      "▁मंदिर": 3397,
      "्यव": 3398,
      "emple": 3399,
      "ross": 3400,
      "ंगा": 3401,
      "embly": 3402,
      "ujar": 3403,
      "▁पुरालेखित।.": 3404,
      "▁जुलाई": 3405,
      "_के_आधार_पर_भारत_के_राज्य": 3406,
      "4-7": 3407,
      "a.": 3408,
      "bar": 3409,
      "ule": 3410,
      "ென்ன": 3411,
      "▁\"W": 3412,
      "▁பேரரசு": 3413,
      "▁இரா": 3414,
      "andard": 3415,
      "istor": 3416,
      "▁நாட": 3417,
      "▁more": 3418,
      "ப்புற": 3419,
      "▁சே": 3420,
      "rab": 3421,
      "▁Oxford": 3422,
      ".gov/": 3423,
      "▁(identifier)\"):[": 3424,
      "ம்பரிய": 3425,
      "▁உள்ளது.": 3426,
      "▁[2](./இந்தியா#cite_ref-FOOTNOTE": 3427,
      "▁[1](./இந்தியா#cite_ref-FOOTNOTE": 3428,
      "_நாடு": 3429,
      "▁Comp": 3430,
      "CO": 3431,
      "IA": 3432,
      "clop": 3433,
      "press": 3434,
      "▁50": 3435,
      "formatics": 3436,
      ".png": 3437,
      "cyclop": 3438,
      "ector": 3439,
      "Qu": 3440,
      "_University_Press": 3441,
      "i/": 3442,
      "pt": 3443,
      "तेल": 3444,
      "००": 3445,
      "చల్": 3446,
      "యన్": 3447,
      "షు": 3448,
      "ూర్": 3449,
      "▁नाम": 3450,
      "](./జ": 3451,
      "](./ప": 3452,
      "](./The": 3453,
      "](./భారతీయ": 3454,
      "▁[భారత": 3455,
      "ந்தை": 3456,
      "▁*The": 3457,
      "▁(eds.": 3458,
      "ారం": 3459,
      "ార్ట": 3460,
      "▁Act": 3461,
      "ాలయ": 3462,
      "▁पूर्व": 3463,
      "▁2013": 3464,
      "](./भारत#cite_ref-": 3465,
      "▁अप": 3466,
      "नाग": 3467,
      "క్క": 3468,
      "▁వ్యవస్థ": 3469,
      "▁ము": 3470,
      "al_P": 3471,
      "ండో": 3472,
      "ముంబ": 3473,
      "▁विक": 3474,
      "సిన": 3475,
      "ినల్": 3476,
      "ద్ద": 3477,
      "▁ఉన్న": 3478,
      "▁ఉన్నాయ": 3479,
      "▁Press\").": 3480,
      "▁[↑](./भारत#cite_ref-FOOTNOTE": 3481,
      "▁रूप": 3482,
      "▁இருந்து": 3483,
      "పాకిస్తాన్": 3484,
      "esearch": 3485,
      "▁देशों": 3486,
      "▁மாநில": 3487,
      "▁அரசிய": 3488,
      "▁ఒక": 3489,
      "▁ఒరిజ": 3490,
      "](./சிறப்பு:BookSources/978-1": 3491,
      "▁\"சிறப்பு:BookSources/978-1": 3492,
      "Dyson2018": 3493,
      "వంశం": 3494,
      "▁తేదీ": 3495,
      "ార్టీ": 3496,
      "▁ఒరిజినల్": 3497,
      "6–": 3498,
      "New": 3499,
      "han": 3500,
      "lor": 3501,
      "▁[[": 3502,
      "India)": 3503,
      "▁12": 3504,
      "andhi": 3505,
      "_of_the": 3506,
      "tud": 3507,
      "▁form": 3508,
      "_V": 3509,
      "_வ": 3510,
      "_language": 3511,
      "bo": 3512,
      "ணக்க": 3513,
      "ளவு": 3514,
      "▁$": 3515,
      "▁ட": 3516,
      "than": 3517,
      "ering": 3518,
      "ar,": 3519,
      "ars": 3520,
      "▁ac": 3521,
      "1970": 3522,
      "ingdom": 3523,
      "ள்நாட்டு": 3524,
      "amb": 3525,
      "▁வட": 3526,
      "ங்கா": 3527,
      "▁BCE": 3528,
      "▁national": 3529,
      "ாளு": 3530,
      "▁அமைப்பு": 3531,
      "மையான": 3532,
      "▁இந்து": 3533,
      "National_": 3534,
      "_h": 3535,
      "bn": 3536,
      "bank": 3537,
      "hp": 3538,
      "tain": 3539,
      "ंक": 3540,
      "एशिया": 3541,
      "धी": 3542,
      "ेस": 3543,
      "ोन": 3544,
      "▁40": 3545,
      "iation": 3546,
      "ार्": 3547,
      "▁कि": 3548,
      "▁मुख": 3549,
      "](https://web.archive.org/web/201": 3550,
      "come": 3551,
      "▁Publishing": 3552,
      "imf": 3553,
      "agar": 3554,
      "ंगाल": 3555,
      "epart": 3556,
      "▁तट": 3557,
      "▁न्या": 3558,
      "▁एवं": 3559,
      "ingham": 3560,
      "%E0%A4%": 3561,
      "श्मीर": 3562,
      "्यवस्था": 3563,
      "-78": 3564,
      "95": 3565,
      "_I": 3566,
      "cent": 3567,
      "ket": 3568,
      "ிட்ட": 3569,
      "ுக": 3570,
      "ேம்ப": 3571,
      "▁[I": 3572,
      "ones": 3573,
      "alley": 3574,
      "ந்திய": 3575,
      "▁India*](https://books.google.com/books?id=": 3576,
      "adu": 3577,
      "▁Constitution": 3578,
      "▁வரு": 3579,
      "wealth": 3580,
      "ece": 3581,
      "ையும்": 3582,
      "▁most": 3583,
      "▁ஆற்ற": 3584,
      "ண்ண": 3585,
      "ண்ப": 3586,
      "▁என்று": 3587,
      "▁tw": 3588,
      "clud": 3589,
      "-a": 3590,
      "Ag": 3591,
      "pa": 3592,
      "జ్": 3593,
      "బా": 3594,
      "వరి": 3595,
      "శ్చ": 3596,
      "ిన్న": 3597,
      "ెల": 3598,
      "▁\"భారతదేశ": 3599,
      "్రె": 3600,
      "ident": 3601,
      "-14": 3602,
      "▁bec": 3603,
      "ely": 3604,
      "▁2003": 3605,
      "నిస్తాన్": 3606,
      "▁మధ్య": 3607,
      "▁ప్రధాన": 3608,
      "](./భారతదేశంలో": 3609,
      "స్థాన్": 3610,
      "Indus": 3611,
      "▁పేజీ": 3612,
      "మ్మూ": 3613,
      "▁\"భారతదేశంలో": 3614,
      "▁చూసిన": 3615,
      "▁తేదీ:": 3616,
      "epartment": 3617,
      "శ్చి": 3618,
      "▁పేజీని": 3619,
      "2),": 3620,
      "545": 3621,
      "hindu": 3622,
      "ped": 3623,
      "ven": 3624,
      "ल\")": 3625,
      "सद": 3626,
      "மய": 3627,
      "▁over": 3628,
      "](./W": 3629,
      "](./இ": 3630,
      "▁[न": 3631,
      "▁\"द": 3632,
      "tell": 3633,
      "ann": 3634,
      "▁केंद्र": 3635,
      "இந்தியா)": 3636,
      "chool": 3637,
      "uslim": 3638,
      "▁Congress": 3639,
      "▁வீ": 3640,
      "ும்ப": 3641,
      "▁இவை": 3642,
      "▁Pr": 3643,
      "urton": 3644,
      "ovement": 3645,
      "्तर": 3646,
      "க்_க": 3647,
      "angl": 3648,
      "emoc": 3649,
      "indust": 3650,
      "▁English": 3651,
      "भाग": 3652,
      "_பல்கலைக்கழ": 3653,
      "ிலிருந்து": 3654,
      "▁முறை": 3655,
      "Ins": 3656,
      "▁Press](./": 3657,
      "संख्या": 3658,
      "▁अनुसार": 3659,
      "olitical": 3660,
      "▁प्रदेश\")": 3661,
      "வெளி": 3662,
      "▁स्थ": 3663,
      "▁கொண்டுள்ளது.": 3664,
      "▁அதிகரி": 3665,
      "ணக்கெடு": 3666,
      "3_": 3667,
      ";\n": 3668,
      "cord": 3669,
      "ious": 3670,
      "lam": 3671,
      "minis": 3672,
      "tates": 3673,
      "yle": 3674,
      "▁[t": 3675,
      "\");": 3676,
      "-00": 3677,
      "▁Con": 3678,
      "ilg": 3679,
      "▁Pakistan": 3680,
      "▁co": 3681,
      "▁Hindi": 3682,
      "ortal": 3683,
      "UCN": 3684,
      "fric": 3685,
      "if": 3686,
      "y-": 3687,
      "கப்_ப": 3688,
      "லு": 3689,
      "ாண்ட": 3690,
      "▁ind": 3691,
      "▁[Indian": 3692,
      "ery": 3693,
      "cis": 3694,
      "இந்து": 3695,
      "▁after": 3696,
      "ict": 3697,
      "](https://doi.org/": 3698,
      "adesh": 3699,
      "▁வளர்": 3700,
      "▁East": 3701,
      "▁[Asher": 3702,
      "▁பெரிய": 3703,
      "லாய": 3704,
      "](./இந்திய_": 3705,
      "▁state": 3706,
      "▁பகுதிய": 3707,
      "▁மிகப்": 3708,
      "பாய்": 3709,
      "rganisation": 3710,
      "-r": 3711,
      ".n": 3712,
      ".htm": 3713,
      "/h": 3714,
      "mu": 3715,
      "एँ": 3716,
      "एस": 3717,
      "गो": 3718,
      "चे": 3719,
      "लि": 3720,
      "सी": 3721,
      "ोड़": 3722,
      "▁...": 3723,
      "▁[v": 3724,
      "▁[हिन्द": 3725,
      "ार्ट": 3726,
      "▁India\"),": 3727,
      "▁मूल": 3728,
      "ustral": 3729,
      "econd": 3730,
      "▁Times": 3731,
      "विधान": 3732,
      "▁जो": 3733,
      "-85": 3734,
      "▁बहु": 3735,
      "▁सेना": 3736,
      "ड़ी": 3737,
      "म्बर": 3738,
      "विश्व": 3739,
      "▁भू": 3740,
      ".jpg)](./चित्र:": 3741,
      "worldbank": 3742,
      "rown": 3743,
      "धिकार": 3744,
      "्यटन": 3745,
      "-50": 3746,
      "6/": 3747,
      "7,": 3748,
      "8–": 3749,
      "Asia": 3750,
      "IM": 3751,
      "bi": 3752,
      "ehr": 3753,
      "ij": 3754,
      "ls": 3755,
      "oon": 3756,
      "வற்ற": 3757,
      "ோர்": 3758,
      "షన్": 3759,
      "హ్": 3760,
      "ెలు": 3761,
      "▁en": 3762,
      "▁భారతదేశ": 3763,
      "](./ந": 3764,
      "](./అ": 3765,
      "▁\"I": 3766,
      "ised": 3767,
      "▁பே": 3768,
      "▁பிரி": 3769,
      "▁கார": 3770,
      "inguis": 3771,
      "▁தொழ": 3772,
      "▁పరి": 3773,
      "▁R.": 3774,
      "ాలు\n": 3775,
      "రియా": 3776,
      "▁It": 3777,
      "▁[\"C": 3778,
      "▁మార్": 3779,
      "குடிய": 3780,
      "otals": 3781,
      "_Centre": 3782,
      "ాయి": 3783,
      "▁states": 3784,
      "▁பாதுகாப்பு": 3785,
      "arket": 3786,
      "▁సంస్కృతి": 3787,
      "దీవ": 3788,
      "▁[Archived](https://web.archive.org/web/20": 3789,
      "▁மிக": 3790,
      "▁உருவா": 3791,
      "▁பாரம்பரிய": 3792,
      "ேர்தல்": 3793,
      "▁நூற்ற": 3794,
      "censusindia.gov.in/2011census": 3795,
      "ிரைப்படத்துறை": 3796,
      "_பல்கலைக்கழகப்_ப": 3797,
      "_பல்கலைக்கழகப்_பதிப்பகம்": 3798,
      "4/": 3799,
      "52": 3800,
      "54": 3801,
      "_ter": 3802,
      "detail": 3803,
      "▁[e": 3804,
      "arh": 3805,
      "aran": 3806,
      "tionary": 3807,
      "2016": 3808,
      "atter": 3809,
      "▁Sanskrit": 3810,
      "▁C.": 3811,
      "00)": 3812,
      "-90": 3813,
      "▁tradition": 3814,
      ",NGDP": 3815,
      "DD": 3816,
      "Ludden": 3817,
      "data": 3818,
      "eg": 3819,
      "hat": 3820,
      "तिक": 3821,
      "दू": 3822,
      "भू": 3823,
      "श्री": 3824,
      "ीत": 3825,
      "ील": 3826,
      "ेट": 3827,
      "னம்": 3828,
      "ப்த": 3829,
      "வங்காள": 3830,
      "▁he": 3831,
      "religion": 3832,
      "arn": 3833,
      "encies": 3834,
      "▁India.": 3835,
      "▁sup": 3836,
      "க்_": 3837,
      "ிரசு": 3838,
      "டுத்த": 3839,
      "नाथ": 3840,
      "_क्षेत्र": 3841,
      "▁Nations": 3842,
      "▁rel": 3843,
      "apit": 3844,
      "ட்ஜ்": 3845,
      "▁गण": 3846,
      "▁एशिया": 3847,
      "ी_भाषा": 3848,
      "_மொழி": 3849,
      "தேசிய": 3850,
      "▁अन्य": 3851,
      "meric": 3852,
      "▁Environment": 3853,
      "▁century": 3854,
      "வார்ப்புரு:": 3855,
      ".aspx": 3856,
      "गुजरात": 3857,
      "langoff": 3858,
      "ிறிட்ஜ்": 3859,
      "▁मुख्य": 3860,
      "ேம்பிறிட்ஜ்": 3861,
      "5–": 3862,
      "Library": 3863,
      "▁und": 3864,
      "tig": 3865,
      "2015": 3866,
      "s/d": 3867,
      "-88": 3868,
      "▁J.": 3869,
      "160": 3870,
      "▁than": 3871,
      "prov": 3872,
      "inistry_of_": 3873,
      "rishn": 3874,
      "▁<https://": 3875,
      "-language": 3876,
      ".c": 3877,
      "110": 3878,
      "219": 3879,
      "C),": 3880,
      "_J": 3881,
      "_to": 3882,
      "a)": 3883,
      "ges": 3884,
      "mp": 3885,
      "க்த": 3886,
      "ூபாய்": 3887,
      "▁j": 3888,
      "▁ref": 3889,
      "▁[O": 3890,
      "▁பல": 3891,
      "க்கோ": 3892,
      "amp": 3893,
      "atar": 3894,
      "▁Pe": 3895,
      "▁British": 3896,
      "▁later": 3897,
      "ச்சிய": 3898,
      "▁Islands": 3899,
      "26)": 3900,
      "▁one": 3901,
      "mong": 3902,
      "ode": 3903,
      "ட்ப": 3904,
      "ற்கா": 3905,
      "ங்களை": 3906,
      "oi_(identifier)": 3907,
      "india.gov.in": 3908,
      "athak": 3909,
      "▁\"Doi": 3910,
      "olitics": 3911,
      "](./Doi_(identifier)": 3912,
      "▁\"இந்தியாவின்": 3913,
      "▁பதிப்பகம்\"),": 3914,
      "▁பெரும்ப": 3915,
      "▁ஓர்": 3916,
      "ritsch": 3917,
      "▁official": 3918,
      "▁[doi](./Doi_(identifier)": 3919,
      "▁two": 3920,
      "angladesh": 3921,
      "/india": 3922,
      "2,": 3923,
      "58": 3924,
      "tle": 3925,
      "ures": 3926,
      "अन": 3927,
      "जय": 3928,
      "टक": 3929,
      "पी": 3930,
      "पति": 3931,
      "मह": 3932,
      "रो": 3933,
      "ం\"),": 3934,
      "ంత్రి": 3935,
      "ఆఫ్": 3936,
      "కై": 3937,
      "క్య": 3938,
      "దాయ": 3939,
      "రే": 3940,
      "లంక": 3941,
      "వీ": 3942,
      "శ్రీ": 3943,
      "షి": 3944,
      "సు": 3945,
      "▁ड": 3946,
      "▁फ": 3947,
      "▁ఏ": 3948,
      "](./చ": 3949,
      "▁[द": 3950,
      "▁[సి": 3951,
      "▁\"ప్ర": 3952,
      "ison": 3953,
      "ick": 3954,
      "▁मु": 3955,
      "స్సా": 3956,
      "▁పార్టీ": 3957,
      "న్‌": 3958,
      "▁Modern": 3959,
      "▁కు": 3960,
      "▁2001": 3961,
      "▁వచ్చ": 3962,
      "▁3,": 3963,
      "िया\")": 3964,
      "abad": 3965,
      "ముద్ర": 3966,
      "म्म": 3967,
      "ాంధీ": 3968,
      "నేపాల": 3969,
      "▁పేరు": 3970,
      "वंश": 3971,
      "▁जाता": 3972,
      "▁वर्ष": 3973,
      "ैदान": 3974,
      "▁చెయ్య": 3975,
      "▁కూడా": 3976,
      "▁Commissioner": 3977,
      "तंत्रता": 3978,
      "▁साम्राज्य": 3979,
      "द्योगिक": 3980,
      "ంగీతం": 3981,
      "ujarat": 3982,
      "ముంబై": 3983,
      "శ్చిమ": 3984,
      "▁మార్గ": 3985,
      "▁చెయ్యబడ": 3986,
      ",[[": 3987,
      "_-": 3988,
      "ho": 3989,
      "மான்": 3990,
      "ர்த்த": 3991,
      "ெரு": 3992,
      "▁up": 3993,
      "ia\")": 3994,
      "ale": 3995,
      "▁(*": 3996,
      "ased": 3997,
      "](./இந்தியாவின்": 3998,
      "▁கட்ட": 3999,
      "ussia": 4000,
      "urn": 4001,
      "imalay": 4002,
      "▁me": 4003,
      "-53": 4004,
      "▁[978-81": 4005,
      "▁முதல்": 4006,
      "ராச": 4007,
      "_Delhi": 4008,
      "▁விளையாட்டு": 4009,
      "llch": 4010,
      "▁செய": 4011,
      "Sharma2007": 4012,
      "ttar": 4013,
      "ாளுமன்ற": 4014,
      "ehru": 4015,
      "has": 4016,
      "tra": 4017,
      "230": 4018,
      "▁had": 4019,
      ".php": 4020,
      "peration": 4021,
      "▁Indus": 4022,
      "International": 4023,
      "-n": 4024,
      "/auth": 4025,
      "EO": 4026,
      "S.": 4027,
      "oy": 4028,
      "rop": 4029,
      "y\")": 4030,
      "पे": 4031,
      "मंत्र": 4032,
      "वे": 4033,
      "िज़": 4034,
      "ஃப்": 4035,
      "ணைய": 4036,
      "னா": 4037,
      "வான": 4038,
      "](./19": 4039,
      "▁[इ": 4040,
      "▁[पु": 4041,
      "▁\"इ": 4042,
      "▁\"हिन्द": 4043,
      "ndaman": 4044,
      "203": 4045,
      "read": 4046,
      "▁மொத்த": 4047,
      "▁கட்டு": 4048,
      "▁Al": 4049,
      "ilk": 4050,
      "▁million": 4051,
      "▁music": 4052,
      "▁dance": 4053,
      "rahm": 4054,
      "विज्ञान": 4055,
      "▁2005": 4056,
      "ाला": 4057,
      "akh": 4058,
      "ள்ளது.[[": 4059,
      "road": 4060,
      "▁November": 4061,
      "monwealth": 4062,
      "ட்ச": 4063,
      "▁முன்ன": 4064,
      "▁முதன்": 4065,
      "]](./भारत#cite_note-1": 4066,
      "2006),": 4067,
      "▁उत्तर": 4068,
      "▁2011.\n": 4069,
      "▁குறை": 4070,
      "ड़े": 4071,
      "▁[↑](./भारत#cite_ref-1": 4072,
      "द्यान": 4073,
      "னைத்து": 4074,
      "र्थिक": 4075,
      "▁समय": 4076,
      "▁2006](./இந்தியா#CITEREF": 4077,
      "ंग्रेज़ी": 4078,
      "Fisher2018": 4079,
      "यालय": 4080,
      "மிழ்ந": 4081,
      "inguistic": 4082,
      ".fr": 4083,
      "42": 4084,
      "7_": 4085,
      "EX": 4086,
      "LA": 4087,
      "iti": 4088,
      "▁6.": 4089,
      "▁time": 4090,
      "▁11": 4091,
      "loy": 4092,
      "resent": 4093,
      "-30": 4094,
      "content": 4095,
      "▁new": 4096,
      "uction": 4097,
      "inister": 4098,
      "crease": 4099,
      "▁other": 4100,
      "▁northern": 4101,
      "eligion": 4102,
      "artition": 4103,
      "ociet": 4104,
      "Bl": 4105,
      "IUCN": 4106,
      "K:": 4107,
      "WEO": 4108,
      "_2": 4109,
      "_వ": 4110,
      "eu": 4111,
      "earch": 4112,
      "i-": 4113,
      "கார": 4114,
      "றிய": 4115,
      "வையாக": 4116,
      "ேப": 4117,
      "ொரு": 4118,
      "గర": 4119,
      "టక": 4120,
      "టా": 4121,
      "దార": 4122,
      "నీ": 4123,
      "రో": 4124,
      "సభ": 4125,
      "ీ](./": 4126,
      "ెద్ద": 4127,
      "▁\"సి": 4128,
      "2024": 4129,
      "orce": 4130,
      "anch": 4131,
      "ந்திர": 4132,
      "city": 4133,
      "▁மக்கள": 4134,
      "▁கூ": 4135,
      "▁includ": 4136,
      "▁S.": 4137,
      "▁வழ": 4138,
      "▁வணி": 4139,
      "▁పు": 4140,
      "igence": 4141,
      "_of_C": 4142,
      "రాజ్య": 4143,
      "▁కొ": 4144,
      "▁కేంద్రపాలిత": 4145,
      "118": 4146,
      "▁మా": 4147,
      "▁ప్రా": 4148,
      "▁చే": 4149,
      "ము\")": 4150,
      "త్స": 4151,
      "ட்சிய": 4152,
      "▁రాజ్య": 4153,
      "▁*[The": 4154,
      "Informatics": 4155,
      "వాతంత్ర": 4156,
      "▁[978-0-521": 4157,
      "▁Press.": 4158,
      "ummits": 4159,
      "ார்.": 4160,
      "▁దేశాల": 4161,
      "లాదేశ్": 4162,
      "▁సామ్రాజ్యం](./": 4163,
      "స్తు": 4164,
      "▁territories": 4165,
      "▁భాషలు": 4166,
      "ంగ్లాదేశ్": 4167,
      "▁States": 4168,
      "▁உலகின்": 4169,
      "ization": 4170,
      "ారు.": 4171,
      "_ప్రా": 4172,
      "్రిటి": 4173,
      "▁தேசிய": 4174,
      "▁అధికార": 4175,
      "▁உற்பத்தி": 4176,
      "ూర్పు": 4177,
      "ுகலாய": 4178,
      "telligence": 4179,
      "కైవు": 4180,
      "3/": 4181,
      "3TR": 4182,
      "_2011": 4183,
      "most": 4184,
      "par": 4185,
      "डी": 4186,
      "डु": 4187,
      "णि": 4188,
      "त्य": 4189,
      "धु": 4190,
      "लोक": 4191,
      "▁छ": 4192,
      "▁Union": 4193,
      "▁\"न": 4194,
      "▁\"सं": 4195,
      "teen": 4196,
      "ould": 4197,
      "trar": 4198,
      "▁मा": 4199,
      "iving": 4200,
      "resident": 4201,
      "▁अग": 4202,
      "नाव": 4203,
      "▁द्वार": 4204,
      "▁[\"The": 4205,
      "▁group": 4206,
      "माज": 4207,
      "life": 4208,
      "ी](./अ": 4209,
      "-108": 4210,
      "-107-1": 4211,
      "सेना": 4212,
      "▁चु": 4213,
      "▁हुई": 4214,
      "▁produc": 4215,
      "gistrar": 4216,
      "त्पाद": 4217,
      "▁became": 4218,
      "3TRt": 4219,
      "119": 4220,
      "3%": 4221,
      "6).": 4222,
      "Provision": 4223,
      "Wolpert": 4224,
      "_O": 4225,
      "_இந்திய": 4226,
      "can": 4227,
      "hol": 4228,
      "tb": 4229,
      "ua": 4230,
      "ள்க": 4231,
      "▁டைம்ஸ்": 4232,
      "▁[உ": 4233,
      "reat": 4234,
      "ியாக": 4235,
      "omin": 4236,
      "omas": 4237,
      "change": 4238,
      "as,": 4239,
      "▁India\")\n": 4240,
      "த்தான்": 4241,
      "ivil": 4242,
      "▁sp": 4243,
      "▁Ac": 4244,
      "▁வடி": 4245,
      "ங்கில": 4246,
      "ானவை": 4247,
      "▁Min": 4248,
      "1999": 4249,
      "▁D.": 4250,
      "-415": 4251,
      "aylor": 4252,
      "AAJ": 4253,
      "▁end": 4254,
      "▁election": 4255,
      "ucation": 4256,
      "logo": 4257,
      "_Development": 4258,
      "ricket": 4259,
      "ணுவ": 4260,
      "▁Economic": 4261,
      "▁people": 4262,
      "%7c": 4263,
      "](./List_of_countries_by": 4264,
      "Wolpert2003": 4265,
      "127": 4266,
      "Ar": 4267,
      "_for": 4268,
      "iev": 4269,
      "min": 4270,
      "wal": 4271,
      "](./O": 4272,
      "▁\"[": 4273,
      "tiv": 4274,
      "theast": 4275,
      "▁they": 4276,
      "▁spe": 4277,
      "ama": 4278,
      ".org": 4279,
      "▁P.": 4280,
      "▁M.": 4281,
      "union": 4282,
      "28)": 4283,
      "▁Language": 4284,
      "\"](https://web.archive.org/web/20160": 4285,
      "-gl": 4286,
      ".svg/": 4287,
      ".svg.png": 4288,
      "_with": 4289,
      ".JPG": 4290,
      "2).": 4291,
      "Rowland": 4292,
      "_n": 4293,
      "_ब": 4294,
      "ael": 4295,
      "cture": 4296,
      "country": 4297,
      "ele": 4298,
      "ealth": 4299,
      "m.nic.in/": 4300,
      "ncl": 4301,
      "ris": 4302,
      "t,": 4303,
      "va": 4304,
      "ymb": 4305,
      "ईसा": 4306,
      "कल": 4307,
      "खाना": 4308,
      "टे": 4309,
      "तु": 4310,
      "नगर": 4311,
      "रवरी": 4312,
      "ल्": 4313,
      "ैक": 4314,
      "ोम": 4315,
      "।\n": 4316,
      "தம": 4317,
      "ிலை": 4318,
      "▁ऊ": 4319,
      "▁archived": 4320,
      "](./தி": 4321,
      "▁\"ஆ": 4322,
      "▁\"தி": 4323,
      "arge": 4324,
      "ம்,": 4325,
      "ouse": 4326,
      "▁सु": 4327,
      "ives": 4328,
      "▁sh": 4329,
      "▁தோ": 4330,
      "atak": 4331,
      "etary": 4332,
      "▁வந்த": 4333,
      "▁2019.": 4334,
      "▁அக": 4335,
      "र्दू": 4336,
      "▁caste": 4337,
      "ையை": 4338,
      "▁many": 4339,
      "ship": 4340,
      "▁दिया": 4341,
      "▁दिस": 4342,
      "▁बढ़": 4343,
      "_Sh": 4344,
      "▁[South": 4345,
      "ாலி": 4346,
      "த்துவ": 4347,
      "own": 4348,
      "▁Kashmir": 4349,
      "_Com": 4350,
      "904-7": 4351,
      "राष्ट्रपति": 4352,
      "▁[2](./India#cite_ref-FOOTNOTE": 4353,
      "▁[1](./India#cite_ref-FOOTNOTE": 4354,
      "itecture": 4355,
      "्रां": 4356,
      "rowth": 4357,
      "னித": 4358,
      "economy": 4359,
      "▁हुआ": 4360,
      "हासागर": 4361,
      "▁மூல": 4362,
      "ichael": 4363,
      "ष्ण": 4364,
      "-80904-7": 4365,
      "ிழக்கு": 4366,
      "ंबई": 4367,
      "शासित": 4368,
      "▁பட்டியல்\")": 4369,
      "▁लिए": 4370,
      "▁நிறுவன": 4371,
      "▁विकास": 4372,
      "Rowland1970": 4373,
      "nclm.nic.in/": 4374,
      "1-4": 4375,
      "82": 4376,
      "94": 4377,
      "bs": 4378,
      "dr": 4379,
      "go": 4380,
      "stitu": 4381,
      "ual": 4382,
      "ved": 4383,
      "ంజా": 4384,
      "గి": 4385,
      "టీ": 4386,
      "టాన్": 4387,
      "మంత్రి": 4388,
      "లను": 4389,
      "వె": 4390,
      "వరణ": 4391,
      "హదార": 4392,
      "ూచ": 4393,
      "ూప": 4394,
      "▁హ": 4395,
      "](./భారత_": 4396,
      "alore": 4397,
      "్రమ": 4398,
      "inger": 4399,
      "ivision": 4400,
      "olk": 4401,
      "angalore": 4402,
      "భారతదేశ_": 4403,
      "▁li": 4404,
      "23)": 4405,
      "▁వ్యా": 4406,
      "▁మత": 4407,
      "▁మతము": 4408,
      "▁ప్రపంచ": 4409,
      "25)": 4410,
      "umbai": 4411,
      "తావరణ": 4412,
      "నాడు": 4413,
      "▁ఉంది.": 4414,
      "▁ఇతర": 4415,
      "▁exp": 4416,
      "onstituent": 4417,
      "ణాసియా": 4418,
      "▁భారతదేశంలో": 4419,
      "▁2021.": 4420,
      "▁term": 4421,
      "bbc": 4422,
      "▁News": 4423,
      "టెడ్": 4424,
      "▁ఆర్కైవు": 4425,
      "▁రైలు": 4426,
      "భూటాన్": 4427,
      "_సామ్రాజ్యం": 4428,
      "IMF": 4429,
      "details/": 4430,
      "data.": 4431,
      "Informatics_Centre": 4432,
      "వాతంత్ర్య": 4433,
      "-H": 4434,
      ">.\n": 4435,
      "C-0": 4436,
      "ahar": 4437,
      "ii": 4438,
      "know": 4439,
      "ria": 4440,
      "tl": 4441,
      "லிய": 4442,
      "▁ஐ": 4443,
      "▁ஜ": 4444,
      "▁[s": 4445,
      "tice": 4446,
      "er2010": 4447,
      "arly": 4448,
      "ess/": 4449,
      "itary": 4450,
      "ched": 4451,
      "astern": 4452,
      "ical_": 4453,
      "▁கணக்கெடு": 4454,
      "▁Public": 4455,
      "urve": 4456,
      "▁Man": 4457,
      "_of_2011": 4458,
      "cean": 4459,
      "ers,": 4460,
      "ண்ட்": 4461,
      "1162": 4462,
      "avi": 4463,
      ".org/wiki/": 4464,
      "osp": 4465,
      "asting": 4466,
      "_Paper": 4467,
      "ocument": 4468,
      "▁பெற்ற": 4469,
      "opulation_T": 4470,
      "_1_of_2011": 4471,
      "Stein1998),": 4472,
      "னர்.[[": 4473,
      "usiness/": 4474,
      "▁tex": 4475,
      "ependencies": 4476,
      "▁2006](./India#CITEREF": 4477,
      "▁Plate": 4478,
      "ிரித்தானிய": 4479,
      "ஸ்தான்": 4480,
      "al_Population_T": 4481,
      "otals_Paper": 4482,
      "Provisional_Population_T": 4483,
      "_1_of_2011_India": 4484,
      "otals_Paper_1_of_2011_India": 4485,
      "Provisional_Population_Totals_Paper_1_of_2011_India": 4486,
      "II": 4487,
      "Raj": 4488,
      "rid": 4489,
      "yan": 4490,
      "क्स": 4491,
      "न](./": 4492,
      "ल](./": 4493,
      "ूर्": 4494,
      "ृति": 4495,
      "▁फ़": 4496,
      "▁[V": 4497,
      "▁[आ": 4498,
      "▁[ज": 4499,
      "▁\"आ": 4500,
      "ारी": 4501,
      "ार्च": 4502,
      "idata": 4503,
      "trol": 4504,
      "▁some": 4505,
      "िक्": 4506,
      "▁def": 4507,
      "▁जून": 4508,
      "ews": 4509,
      "राजस्थान": 4510,
      "▁General": 4511,
      "rief": 4512,
      "नेपाल": 4513,
      "ternational": 4514,
      "त्तरा": 4515,
      "जाति": 4516,
      "हिन्दी": 4517,
      "▁क्षेत्र\")": 4518,
      "धानमंत्र": 4519,
      "्रीका": 4520,
      "crip": 4521,
      "▁period": 4522,
      "गणना": 4523,
      "▁खाना\")": 4524,
      "ildlife": 4525,
      "▁निर्": 4526,
      "▁हिन्दी": 4527,
      "माणु": 4528,
      "▁under": 4529,
      "म्मू": 4530,
      "ociety": 4531,
      "3TRtDwAAQBAJ&pg=PA": 4532,
      "▁दिसम्बर": 4533,
      "/P": 4534,
      "3),": 4535,
      "4]](./இந்தியா#cite_note-FOOTNOTE": 4536,
      ":C": 4537,
      "RL": 4538,
      "Uttar": 4539,
      "_g": 4540,
      "eal": 4541,
      "kar": 4542,
      "owe": 4543,
      "olog": 4544,
      "டா": 4545,
      "ைப்ப": 4546,
      "▁ra": 4547,
      "](./V": 4548,
      "▁[ஆ": 4549,
      "▁[India": 4550,
      "▁[இந்தியா": 4551,
      "▁[United": 4552,
      "▁\"V": 4553,
      "iam": 4554,
      "rel": 4555,
      "ald": 4556,
      "thehindu": 4557,
      "1947": 4558,
      "ப்பா": 4559,
      "ப்பாட்ட": 4560,
      "▁கூட்ட": 4561,
      "umar": 4562,
      "▁2,": 4563,
      "▁modern": 4564,
      "▁Raj": 4565,
      "▁சட்ட": 4566,
      "▁உண": 4567,
      "▁உள்நாட்டு": 4568,
      "sha": 4569,
      "oreign": 4570,
      "ம்பி": 4571,
      "ணிக்க": 4572,
      "ughal": 4573,
      "▁[2](./India#cite_ref-": 4574,
      "▁[1](./India#cite_ref-": 4575,
      "ryan": 4576,
      "ஞ்சிய": 4577,
      "riculture": 4578,
      "▁2010](./India#CITEREF": 4579,
      "2001),": 4580,
      "ீனா": 4581,
      "▁who": 4582,
      ".html)": 4583,
      "ூர்வ": 4584,
      "industan": 4585,
      "▁காரண": 4586,
      "-C": 4587,
      "124": 4588,
      "Report": 4589,
      "_14": 4590,
      "c/c": 4591,
      "ix": 4592,
      "▁9.": 4593,
      "▁(1,": 4594,
      "ictionary": 4595,
      "▁Affairs": 4596,
      "ata_": 4597,
      "loc": 4598,
      "▁dec": 4599,
      "▁history": 4600,
      "hib": 4601,
      "archive.org/details/": 4602,
      "ffice": 4603,
      "llchin": 4604,
      "-B": 4605,
      "-ஆ": 4606,
      "/g": 4607,
      "5]](./இந்தியா#cite_note-FOOTNOTE": 4608,
      "677": 4609,
      ":S": 4610,
      "Empire": 4611,
      "European": 4612,
      "_प": 4613,
      "britannica": 4614,
      "ek": 4615,
      "jec": 4616,
      "mit": 4617,
      "rin": 4618,
      "tre": 4619,
      "टी": 4620,
      "वी": 4621,
      "वै": 4622,
      "हीं": 4623,
      "िज": 4624,
      "िन्": 4625,
      "ैल": 4626,
      "ैंड": 4627,
      "ஜி": 4628,
      "தம்": 4629,
      "தற்கு": 4630,
      "யு": 4631,
      "றவு": 4632,
      "வட": 4633,
      "ொகை": 4634,
      "ఆర్": 4635,
      "ఉత్తర": 4636,
      "ఒడి": 4637,
      "కత": 4638,
      "కీయ": 4639,
      "గం": 4640,
      "గలు": 4641,
      "చు": 4642,
      "జరా": 4643,
      "తూర్పు": 4644,
      "భు": 4645,
      "మన్": 4646,
      "లస": 4647,
      "ేక": 4648,
      "▁డ": 4649,
      "▁జాబితా": 4650,
      "](./सं": 4651,
      "▁[ஐ": 4652,
      "▁[భారతదేశ": 4653,
      "▁\"Economy": 4654,
      "ines": 4655,
      "20)": 4656,
      "orn": 4657,
      "ors": 4658,
      "ந்தி": 4659,
      "▁(20": 4660,
      "▁பய": 4661,
      "▁பி": 4662,
      "▁கரு": 4663,
      "▁கிரா": 4664,
      "▁मार्च": 4665,
      "्यता": 4666,
      "▁such": 4667,
      "ams": 4668,
      "▁पह": 4669,
      "▁पार्ट": 4670,
      "▁இதன்": 4671,
      "▁పట్ట": 4672,
      "र्स": 4673,
      "र्जा": 4674,
      "003": 4675,
      "](./भारतीय": 4676,
      "▁Mon": 4677,
      "ర్\")": 4678,
      "▁war": 4679,
      "▁Republic": 4680,
      "-28": 4681,
      "▁**జాతీయ": 4682,
      "ண்.": 4683,
      "▁land": 4684,
      "నిక": 4685,
      "त्रि": 4686,
      "267": 4687,
      "▁Government": 4688,
      "aglia": 4689,
      "▁बना": 4690,
      "▁என்ப": 4691,
      "ంగ్రె": 4692,
      "▁సభ": 4693,
      "▁ప్రభు": 4694,
      "odi": 4695,
      "తాబ్": 4696,
      "▁वा": 4697,
      "▁అయ": 4698,
      "-19-9": 4699,
      "▁பெய": 4700,
      "▁संविधान": 4701,
      "▁ఆసియా": 4702,
      "](./இந்திய_அ": 4703,
      "▁போட்டி": 4704,
      "र्वत": 4705,
      "ंडिया": 4706,
      "మ్రాజ్య": 4707,
      "पात": 4708,
      "_summit": 4709,
      "round": 4710,
      "▁ஆகும்.": 4711,
      "ंग्रेस": 4712,
      "களின்_பட்டியல்": 4713,
      "▁జనాభా": 4714,
      "▁நிலை": 4715,
      "గుజరా": 4716,
      "▁సామ్రాజ్యం\")": 4717,
      "ports": 4718,
      "▁इसके": 4719,
      "orests": 4720,
      "త్యేక": 4721,
      "రాష్ట్రపతి": 4722,
      "स्कृति": 4723,
      "Environment": 4724,
      "Encyclop": 4725,
      "ప్ప": 4726,
      "ధానమంత్రి": 4727,
      "▁రాజవంశం": 4728,
      "rancis": 4729,
      "▁కాశ్మీ": 4730,
      "▁చెంద": 4731,
      "▁ఆర్ధిక": 4732,
      "ainting": 4733,
      "▁స్థాన": 4734,
      "avidson": 4735,
      "▁வரலா": 4736,
      "తమిళనాడు": 4737,
      "etraglia": 4738,
      "▁शासन": 4739,
      "▁थी": 4740,
      "timesofindia.indiatimes.com/india/": 4741,
      "Navbo": 4742,
      "ront": 4743,
      "గణతంత్ర": 4744,
      "▁క్రీడ": 4745,
      "▁ఉన్నాయి.": 4746,
      "▁தொழில்": 4747,
      "arnatak": 4748,
      "ఆఫ్ఘ": 4749,
      "శ్రీలంక": 4750,
      "షియా": 4751,
      "న్‌ఫ": 4752,
      "నేపాల్": 4753,
      "▁द्वारा": 4754,
      "▁வடிவ": 4755,
      "ymbol": 4756,
      "▁फ़रवरी": 4757,
      "britannica.com/": 4758,
      "తాబ్ద": 4759,
      "Navbox": 4760,
      "Pakistan": 4761,
      "_en": 4762,
      "_11": 4763,
      "b/": 4764,
      "view": 4765,
      "▁7.": 4766,
      "208": 4767,
      "isc": 4768,
      "them": 4769,
      "ove": 4770,
      "217": 4771,
      "ources": 4772,
      "ance/": 4773,
      "▁Press,": 4774,
      "▁area": 4775,
      "ervation": 4776,
      "rdu": 4777,
      "National_Informatics_Centre": 4778,
      "-glance/": 4779,
      "National_Informatics_Centre2005": 4780,
      "66": 4781,
      "AG": 4782,
      "IJ": 4783,
      "casting": 4784,
      "ihar": 4785,
      "men": 4786,
      "mill": 4787,
      "ொது": 4788,
      "ௌத்த": 4789,
      "▁/": 4790,
      "](./Economy": 4791,
      "orities": 4792,
      "ந்தமான்": 4793,
      "entr": 4794,
      "-06": 4795,
      "க்கம்": 4796,
      "-135": 4797,
      "த்தர": 4798,
      "த்திர": 4799,
      "▁par": 4800,
      "▁summit\")": 4801,
      "▁விரி": 4802,
      "ங்கம்": 4803,
      "▁நு": 4804,
      "▁Research": 4805,
      "▁ஆண்ட": 4806,
      "▁Data": 4807,
      "▁long": 4808,
      "▁large": 4809,
      "_(இந்தியா)": 4810,
      "▁35": 4811,
      "240": 4812,
      "▁2025": 4813,
      "▁general": 4814,
      "▁[Singh": 4815,
      "ப்_பேரரசு": 4816,
      "induism": 4817,
      "▁1994": 4818,
      "rade": 4819,
      "ultural": 4820,
      "ப்படுகிற": 4821,
      "overty": 4822,
      "-largest": 4823,
      "/files/": 4824,
      "▁சேர்ந்த": 4825,
      ".aspx?": 4826,
      "roadcasting": 4827,
      "urvey": 4828,
      "Ministry_of_": 4829,
      "QAAQBAJ&pg=PA": 4830,
      "_न": 4831,
      "ds": 4832,
      "gra": 4833,
      "yam": 4834,
      "ंट": 4835,
      "खंड": 4836,
      "खण्ड": 4837,
      "गोल": 4838,
      "द्वीप": 4839,
      "धि": 4840,
      "मुख": 4841,
      "योग": 4842,
      "रू": 4843,
      "रेल": 4844,
      "व्यवस्था": 4845,
      "शीन": 4846,
      "ुरु": 4847,
      "ुंबई": 4848,
      "ौर": 4849,
      "ौद्ध": 4850,
      "ौद्योगिक": 4851,
      "▁या": 4852,
      "्रम": 4853,
      "1950": 4854,
      "▁संग": 4855,
      "▁मैदान": 4856,
      "ammu": 4857,
      "atus": 4858,
      "local": 4859,
      "imag": 4860,
      "](./भारत#cite_ref-FOOTNOTE": 4861,
      "21)": 4862,
      "1990": 4863,
      "▁अरब": 4864,
      "-3)": 4865,
      "नाडु": 4866,
      "▁जल": 4867,
      "▁दर": 4868,
      "▁प्रति": 4869,
      "ताब्": 4870,
      "▁From": 4871,
      "132": 4872,
      "स्त्र": 4873,
      "पुरी": 4874,
      "▁War": 4875,
      "ose": 4876,
      "2905": 4877,
      "▁right": 4878,
      "▁लग": 4879,
      "▁इतिहास": 4880,
      "▁हैं,": 4881,
      "पर्यटन": 4882,
      "किम": 4883,
      "दीव": 4884,
      "पालिका": 4885,
      "▁घाट": 4886,
      "actbook": 4887,
      "▁सिनेमा": 4888,
      "िक्षा": 4889,
      "▁Assembly": 4890,
      "-780": 4891,
      "worldbank.org/": 4892,
      "aranth": 4893,
      "-882905": 4894,
      "teenth": 4895,
      "-107-11162": 4896,
      "िक्किम": 4897,
      "-882905-8": 4898,
      "-107-11162-2": 4899,
      "\"[[": 4900,
      ".IN": 4901,
      "1]](./India#cite_note-FOOTNOTE": 4902,
      "ae": 4903,
      "back": 4904,
      "eograph": 4905,
      "gram": 4906,
      "mun": 4907,
      "nam": 4908,
      "racy": 4909,
      "s.[[": 4910,
      "slam": 4911,
      "மே": 4912,
      "ாட்சி": 4913,
      "ூக": 4914,
      "▁\"உ": 4915,
      "▁\"India": 4916,
      "eral_": 4917,
      "arb": 4918,
      "arlo": 4919,
      "ந்தா": 4920,
      "esert": 4921,
      "▁(b": 4922,
      "▁பின்": 4923,
      "ooperation": 4924,
      "ப்பை": 4925,
      "-15": 4926,
      "▁கல": 4927,
      "▁south": 4928,
      "▁வை": 4929,
      "▁Pers": 4930,
      "▁அடிப்படையில்": 4931,
      "சிந்து": 4932,
      "ற்றி": 4933,
      "▁சா": 4934,
      "103": 4935,
      "operation": 4936,
      "▁BRICS": 4937,
      "_(India)": 4938,
      "▁religion": 4939,
      "apan": 4940,
      "ிலான": 4941,
      ".gov.in": 4942,
      "ங்களின்": 4943,
      "▁5.": 4944,
      "▁எண்ணிக்க": 4945,
      "ankar": 4946,
      "ugh": 4947,
      "ரியா": 4948,
      "ஞ்சா": 4949,
      "ultan": 4950,
      "த்திற்கு": 4951,
      "ப்படுகிறது.": 4952,
      "-with": 4953,
      "ependence": 4954,
      "ongress2004": 4955,
      "International_": 4956,
      "arliamentary": 4957,
      "▁York": 4958,
      "▁குறிப்பி": 4959,
      "▁world's": 4960,
      "▁classical": 4961,
      "▁பேரரசு\")": 4962,
      "emocracy": 4963,
      "குடியரசு": 4964,
      "WEO.IN": 4965,
      "IMFWEO.IN": 4966,
      "gramme": 4967,
      "-world": 4968,
      "01": 4969,
      "2-2": 4970,
      "2-4": 4971,
      "ES": 4972,
      "_5": 4973,
      "_ప్రదేశ్": 4974,
      "election": 4975,
      "f/": 4976,
      "uth": 4977,
      "ue_": 4978,
      "ఉప": 4979,
      "కేంద్రపాలిత": 4980,
      "జె": 4981,
      "ఢ్": 4982,
      "ది.": 4983,
      "నాల": 4984,
      "లే": 4985,
      "ళు": 4986,
      "ౌద్ధ": 4987,
      "▁భా": 4988,
      "▁Qu": 4989,
      "](./ప్ర": 4990,
      "](./United": 4991,
      "▁[4": 4992,
      "▁[వి": 4993,
      "▁\"United": 4994,
      "ini": 4995,
      "an,": 4996,
      "▁(2014": 4997,
      "trod": 4998,
      "ర్చ": 4999,
      "▁Rev": 5000,
      "-29": 5001,
      "-230": 5002,
      "▁Bank": 5003,
      "▁Official": 5004,
      "_Affairs": 5005,
      "–సా.శ.18": 5006,
      "▁అత్య": 5007,
      "▁రె": 5008,
      "మాఖ్య": 5009,
      "వాణా": 5010,
      "_Temple": 5011,
      "▁దేశం": 5012,
      "▁దేశంలో": 5013,
      "▁గల": 5014,
      "డ్డ": 5015,
      "దక్షిణాసియా": 5016,
      "హిందీ": 5017,
      "యునై": 5018,
      "ష్ణ": 5019,
      "_చరిత్ర?action=edit&redlink=1": 5020,
      "_at_the": 5021,
      "▁రాష్ట్రాలు,": 5022,
      "▁Rothermund": 5023,
      "_మతము": 5024,
      "▁మొద": 5025,
      "posed": 5026,
      "▁estim": 5027,
      "▁Act,": 5028,
      "▁చెయ్యబడింది.": 5029,
      "యునైటెడ్": 5030,
      "-an": 5031,
      "-on-": 5032,
      "5/": 5033,
      "6),": 5034,
      "C).": 5035,
      "Gua": 5036,
      "JIJ": 5037,
      "Tritsch": 5038,
      "Zva": 5039,
      "_on": 5040,
      "aus": 5041,
      "lood": 5042,
      "right": 5043,
      "tan": 5044,
      "yer": 5045,
      "yayan": 5046,
      "रण": 5047,
      "लिस": 5048,
      "वार": 5049,
      "वीं": 5050,
      "शक": 5051,
      "स](./": 5052,
      "सभा": 5053,
      "स्ट": 5054,
      "ां": 5055,
      "ाप": 5056,
      "ांध": 5057,
      "ोष": 5058,
      "०१": 5059,
      "தை": 5060,
      "னால்": 5061,
      "பெ": 5062,
      "வண": 5063,
      "ீப": 5064,
      "ுடன்": 5065,
      "ெற்கா": 5066,
      "▁ऑ": 5067,
      "▁ध": 5068,
      "](./ஒக்ஸ்போர்ட்": 5069,
      "▁[ஒக்ஸ்போர்ட்": 5070,
      "▁\"ஒக்ஸ்போர்ட்": 5071,
      "inance": 5072,
      "ியம்": 5073,
      "arna": 5074,
      "▁among": 5075,
      "▁பண்ப": 5076,
      "்டு": 5077,
      "ico": 5078,
      "▁கல்": 5079,
      "▁14.": 5080,
      "▁since": 5081,
      "ating": 5082,
      "राठ": 5083,
      "▁Cons": 5084,
      "▁both": 5085,
      "ங்கிரசு": 5086,
      "्ता:": 5087,
      "olle": 5088,
      "ISO": 5089,
      "▁நடு": 5090,
      "▁दृ": 5091,
      "▁दो": 5092,
      "aking": 5093,
      "ச்சு": 5094,
      "களுக்கு": 5095,
      "▁GDP": 5096,
      "▁प्रमुख": 5097,
      "ubcontinent": 5098,
      "22-9": 5099,
      "▁*[தி": 5100,
      "வாய": 5101,
      "லாம்": 5102,
      "िये": 5103,
      "▁रह": 5104,
      "▁भाषाओं": 5105,
      "▁[Dyson": 5106,
      "ृत्य": 5107,
      "ूनिव": 5108,
      "▁துணை": 5109,
      "▁Hinduism": 5110,
      "▁பொருட": 5111,
      "▁கோடி": 5112,
      "▁தொகை": 5113,
      "▁பதிப்பகம்](./ஒக்ஸ்போர்ட்": 5114,
      "ूरो": 5115,
      "▁ஆகியவை": 5116,
      "atsyayan": 5117,
      "](./भारत_की_": 5118,
      "](./भारत_का_": 5119,
      "_संघ": 5120,
      "ீவுகள்": 5121,
      "▁कार्य": 5122,
      "ரசின்": 5123,
      "▁युद्ध": 5124,
      "](./South_Asia": 5125,
      "ென்னி": 5126,
      "तेलु": 5127,
      "▁न्यायालय": 5128,
      "धिकारिक": 5129,
      "க்தி": 5130,
      "▁[पुरालेखित": 5131,
      "▁अगस्त": 5132,
      "धानमंत्री": 5133,
      "ymbols": 5134,
      "GuaJIJ": 5135,
      "ZvaGuaJIJ": 5136,
      "▁பதிப்பகம்](./ஒக்ஸ்போர்ட்_பல்கலைக்கழகப்_பதிப்பகம்": 5137,
      "ZvaGuaJIJgo": 5138,
      "\",": 5139,
      "NA": 5140,
      "Vu": 5141,
      "ZVu": 5142,
      "kZVu": 5143,
      "ning": 5144,
      "\")[[": 5145,
      "erg": 5146,
      "erritory": 5147,
      "aria": 5148,
      "▁2014.": 5149,
      "▁Ex": 5150,
      "▁number": 5151,
      "▁[Ministry": 5152,
      "▁territory": 5153,
      "ependent": 5154,
      "ministr": 5155,
      "-for": 5156,
      "-national": 5157,
      "/s": 5158,
      "/ark": 5159,
      "/121": 5160,
      "1]](./இந்தியா#cite_note-FOOTNOTE": 5161,
      "6.\n": 5162,
      "7%": 5163,
      "9,": 5164,
      ":/121": 5165,
      "PK:": 5166,
      "Th": 5167,
      "_18": 5168,
      "f.fr": 5169,
      "her": 5170,
      "main": 5171,
      "ned": 5172,
      "vel": 5173,
      "vatsyayan": 5174,
      "ym": 5175,
      "ண்கள்": 5176,
      "நாட": 5177,
      "ஷ்": 5178,
      "–4": 5179,
      "–24": 5180,
      "▁ro": 5181,
      "▁art": 5182,
      "▁oc": 5183,
      "](./ஆ": 5184,
      "tered": 5185,
      "்தொகை": 5186,
      "▁app": 5187,
      "▁(ed.": 5188,
      "▁(a)": 5189,
      "▁there": 5190,
      "ப்பீ": 5191,
      "க்கால": 5192,
      "▁se": 5193,
      "▁str": 5194,
      "▁Arab": 5195,
      "▁Afric": 5196,
      "acmill": 5197,
      "▁Science": 5198,
      "los": 5199,
      "▁found": 5200,
      "▁அறி": 5201,
      "▁அதன்": 5202,
      "0000": 5203,
      "▁Main": 5204,
      "▁mathe": 5205,
      "rain": 5206,
      "tical_": 5207,
      "லைமை": 5208,
      "▁3.": 5209,
      "▁36": 5210,
      "▁high": 5211,
      "களும்": 5212,
      "களாக": 5213,
      "▁N.": 5214,
      "▁[\"A": 5215,
      "Spear": 5216,
      "மைக்": 5217,
      "170": 5218,
      "▁முடி": 5219,
      "48/c": 5220,
      "atis": 5221,
      "ய்வு": 5222,
      "_BRICS": 5223,
      "Singh2009),": 5224,
      "▁துற": 5225,
      "▁union": 5226,
      "-lord": 5227,
      "ichell": 5228,
      "▁நாடுகளின்": 5229,
      "ollingham": 5230,
      "rganization": 5231,
      "uddhism": 5232,
      "▁(eds.).": 5233,
      "New_Delhi": 5234,
      "bnf.fr": 5235,
      "▁வளர்ச்சி": 5236,
      "▁பெரும்பால": 5237,
      "▁வணிக": 5238,
      "](./தி_": 5239,
      "▁(b)": 5240,
      "/ark:/121": 5241,
      "vatsyayan-lord": 5242,
      "▁occ": 5243,
      "acmillan": 5244,
      "48/cb": 5245,
      "bnf.fr/ark:/121": 5246,
      "bnf.fr/ark:/12148/cb": 5247,
      "-प": 5248,
      "7-0": 5249,
      "AS": 5250,
      "_अ": 5251,
      "_ए": 5252,
      "_13": 5253,
      "my": 5254,
      "map": 5255,
      "ंका": 5256,
      "कट": 5257,
      "गंगा": 5258,
      "देव": 5259,
      "भो": 5260,
      "मेर": 5261,
      "लंका": 5262,
      "हैद": 5263,
      "िला": 5264,
      "ूह": 5265,
      "्म": 5266,
      "▁ट": 5267,
      "](./आ": 5268,
      "](./इ": 5269,
      "▁[ओ": 5270,
      "▁[Kulke": 5271,
      "▁\"ओ": 5272,
      "ality": 5273,
      "ancy": 5274,
      "ofile": 5275,
      "ator": 5276,
      "राबाद": 5277,
      "ाने": 5278,
      "ource": 5279,
      "ull": 5280,
      "▁केन्द्र": 5281,
      "र्ना": 5282,
      "105": 5283,
      "▁अप्र": 5284,
      "index": 5285,
      "_का_": 5286,
      "▁H.": 5287,
      "▁नी": 5288,
      "▁International": 5289,
      "▁संबंध": 5290,
      "_in_India?action=edit&redlink=1": 5291,
      "हिमा": 5292,
      "त्तीस": 5293,
      "र्वो": 5294,
      "erala": 5295,
      "▁करने": 5296,
      "worldcat": 5297,
      "िरपे": 5298,
      "वायु": 5299,
      "ीपी": 5300,
      "▁मेला\")": 5301,
      "▁हुए": 5302,
      "िल्ली": 5303,
      "भीम": 5304,
      "formation": 5305,
      "▁[हिन्दी](./": 5306,
      "▁गणराज्य": 5307,
      "हैदराबाद": 5308,
      "र्नाटक": 5309,
      "िरपेक्ष": 5310,
      "-D": 5311,
      ".ni": 5312,
      "129": 5313,
      "2]](./இந்தியா#cite_note-FOOTNOTE": 5314,
      "Con": 5315,
      "Taj": 5316,
      "_&": 5317,
      "_న": 5318,
      "_இந்தியா": 5319,
      "aul": 5320,
      "cul": 5321,
      "fgh": 5322,
      "io": 5323,
      "pute": 5324,
      "கமாக": 5325,
      "டல்": 5326,
      "மலை": 5327,
      "யிர": 5328,
      "ாநில": 5329,
      "ிர்": 5330,
      "ெய": 5331,
      "ం,": 5332,
      "కొ": 5333,
      "ఖండ": 5334,
      "గం:": 5335,
      "టిక": 5336,
      "డే": 5337,
      "ద్య": 5338,
      "ద్రా": 5339,
      "మార్": 5340,
      "మాలయ": 5341,
      "లలో": 5342,
      "లకు": 5343,
      "ళ్": 5344,
      "ానికి": 5345,
      "ాళు": 5346,
      "ీర్": 5347,
      "▁భ": 5348,
      "▁యు": 5349,
      "▁[p": 5350,
      "▁\"వి": 5351,
      "20-2": 5352,
      "eries": 5353,
      "arli": 5354,
      "▁படை": 5355,
      "ல்லை": 5356,
      "ப்பின்": 5357,
      "lec": 5358,
      "ட்டம்": 5359,
      "த்தது.[[": 5360,
      "▁காட்ட": 5361,
      "ాలో": 5362,
      "adhy": 5363,
      "▁పాల": 5364,
      "▁அடி": 5365,
      "olution": 5366,
      "న్\")": 5367,
      "▁நா": 5368,
      "india-glance/": 5369,
      "▁Delhi": 5370,
      "▁total": 5371,
      "▁కార": 5372,
      "▁కలి": 5373,
      "▁largest": 5374,
      "ాలు?action=edit&redlink=1": 5375,
      "రిగ": 5376,
      "రిహ": 5377,
      "రికత": 5378,
      "క్నాల": 5379,
      "ంది.\n": 5380,
      "▁వం": 5381,
      "▁వంట": 5382,
      "నిమా": 5383,
      "24)": 5384,
      "▁relig": 5385,
      "▁[\"H": 5386,
      "▁సంగీతం": 5387,
      "▁చి": 5388,
      "▁4.": 5389,
      "ులు\"),": 5390,
      "▁Wik": 5391,
      "–సా.శ.13": 5392,
      "ந்துள்ளது.": 5393,
      "ద్వీ": 5394,
      "▁ఉప": 5395,
      "▁rule": 5396,
      "ప్రదాయ": 5397,
      "efence": 5398,
      "న్నడ": 5399,
      "issing": 5400,
      "ற்பட்ட": 5401,
      "ంటు": 5402,
      "▁ఇది": 5403,
      "டியா": 5404,
      "కాశ్మీ": 5405,
      "▁\"Routledge": 5406,
      "▁trans": 5407,
      "ுள்ளது.": 5408,
      "](./Routledge": 5409,
      "▁[Routledge": 5410,
      "சியா\")": 5411,
      "ద్ధం": 5412,
      "ద్ధి": 5413,
      "ాల్దీవ": 5414,
      "చ్చే": 5415,
      "india.gov.in/india-glance/": 5416,
      "దక్షిణ_": 5417,
      "crop": 5418,
      "▁కాంగ్రె": 5419,
      "ంధు": 5420,
      "▁2018](./India#CITEREF": 5421,
      "▁பொதுத்": 5422,
      "Dyson2018),": 5423,
      "▁நடத்த": 5424,
      "టెక్నాల": 5425,
      "హిమాలయ": 5426,
      "▁உயிரி": 5427,
      ":EditPage/మూస:": 5428,
      "వర్గం:": 5429,
      "▁లే": 5430,
      "త్తరా": 5431,
      "నాగరికత": 5432,
      "▁குடியரசு": 5433,
      "క్కువ": 5434,
      "oint": 5435,
      "క్‌సభ": 5436,
      "▁శాస్త్ర": 5437,
      "▁Company": 5438,
      "▁அரசியல்": 5439,
      "ెలుగు": 5440,
      "▁వచ్చింది.": 5441,
      "ள்கை": 5442,
      "▁பயன்ப": 5443,
      "▁கிராம": 5444,
      "త్యేక:EditPage/మూస:": 5445,
      "](./Economy_of_": 5446,
      "entral_": 5447,
      "ర్చ:": 5448,
      "ZvaGuaJIJgoC&pg=PA": 5449,
      "fghan": 5450,
      "ాళుక్య": 5451,
      "▁[Routledge](./Routledge": 5452,
      "టెక్నాలజీ": 5453,
      "వర్గం:Harv": 5454,
      "130": 5455,
      "2%": 5456,
      "318": 5457,
      "6)\n": 5458,
      "B0%": 5459,
      "Template:": 5460,
      "_38": 5461,
      "each": 5462,
      "lag": 5463,
      "languages": 5464,
      "p?": 5465,
      "ration": 5466,
      "rim": 5467,
      "alog": 5468,
      "ominal": 5469,
      "▁(c": 5470,
      "▁(2018),": 5471,
      "entury": 5472,
      "▁Stud": 5473,
      "▁CE": 5474,
      "▁mi": 5475,
      "▁made": 5476,
      "10)": 5477,
      "-39": 5478,
      "260": 5479,
      "▁[\"P": 5480,
      "▁name": 5481,
      "rib": 5482,
      "27)": 5483,
      "articles": 5484,
      "▁Chand": 5485,
      "2007),": 5486,
      "▁status": 5487,
      "▁\"National": 5488,
      "a/a": 5489,
      "iteracy": 5490,
      "▁[t](./": 5491,
      "▁[v](./": 5492,
      "-S": 5493,
      "/link": 5494,
      "123": 5495,
      "4-0": 5496,
      "5%": 5497,
      "7.\n": 5498,
      "Aryan": 5499,
      "Census": 5500,
      "Collingham": 5501,
      "Davidson": 5502,
      "_சு": 5503,
      "_24": 5504,
      "_30": 5505,
      "ao": 5506,
      "ea": 5507,
      "iol": 5508,
      "jpg": 5509,
      "lack": 5510,
      "ots": 5511,
      "page": 5512,
      "rup": 5513,
      "ting": 5514,
      "uard": 5515,
      "yy": 5516,
      "ंह": 5517,
      "गल": 5518,
      "झार": 5519,
      "डिया": 5520,
      "तट": 5521,
      "निक": 5522,
      "पान": 5523,
      "मालय": 5524,
      "हन": 5525,
      "हरी": 5526,
      "ाय": 5527,
      "िस्तान": 5528,
      "िहार": 5529,
      "ीमा": 5530,
      "பர்": 5531,
      "யோ": 5532,
      "ரே": 5533,
      "ரம்": 5534,
      "ரசிய": 5535,
      "▁ci": 5536,
      "▁राष्ट्र": 5537,
      "▁article": 5538,
      "▁economic": 5539,
      "▁industry": 5540,
      "](./I": 5541,
      "▁[च": 5542,
      "reed": 5543,
      "tis": 5544,
      "Indian_": 5545,
      "ediff": 5546,
      "▁कुल": 5547,
      "omp": 5548,
      "▁பழ": 5549,
      "-0-521": 5550,
      "க்கலை": 5551,
      "▁மீ": 5552,
      "▁12.": 5553,
      "▁pre": 5554,
      "▁A.": 5555,
      "ada": 5556,
      "geograph": 5557,
      "ility": 5558,
      "▁இச": 5559,
      "urre": 5560,
      "red/link": 5561,
      "र्ष": 5562,
      "▁ही": 5563,
      "▁होत": 5564,
      "olon": 5565,
      "▁maj": 5566,
      ".[[3": 5567,
      "ாகி": 5568,
      "▁உடைய": 5569,
      "Books": 5570,
      "▁diff": 5571,
      "▁ஆஃப்": 5572,
      "திவா": 5573,
      "ayback": 5574,
      "▁देख": 5575,
      "ियां": 5576,
      "▁बन": 5577,
      "▁बा": 5578,
      "epal": 5579,
      "▁नद": 5580,
      "▁नहीं": 5581,
      "▁से](http://": 5582,
      "க்குப்": 5583,
      "▁वार": 5584,
      "पुरा": 5585,
      "ast_Asia": 5586,
      "-674": 5587,
      "स्ला": 5588,
      "▁गु": 5589,
      "▁उद्यान": 5590,
      "▁है।[[": 5591,
      "▁शताब्": 5592,
      "utt": 5593,
      "டைந்த": 5594,
      "▁लेख": 5595,
      "ணிம": 5596,
      "எண்ணிம": 5597,
      "o-operation": 5598,
      "▁रहा": 5599,
      "MetcalfMetcalf2012": 5600,
      "▁[2](./இந்தியா#cite_ref-": 5601,
      "▁V.": 5602,
      "▁Ved": 5603,
      "▁இதுவாக": 5604,
      "▁[1](./இந்தியா#cite_ref-": 5605,
      "Indones": 5606,
      "ய்ய": 5607,
      "olitical_": 5608,
      "2014-p": 5609,
      "க்கிண்ண": 5610,
      "विशेष:EditPage/": 5611,
      "ondon": 5612,
      "▁मेला](./": 5613,
      "](./சிறப்பு:BookSources/978-81": 5614,
      "▁\"சிறப்பு:BookSources/978-81": 5615,
      "▁மேற்கு": 5616,
      "](https://books.google.com/books?id=3TRtDwAAQBAJ&pg=PA": 5617,
      "KulkeRothermund200": 5618,
      "▁This": 5619,
      "▁ஓவிய": 5620,
      "▁பொதுவாக": 5621,
      "श्चिमी": 5622,
      "▁உயர்": 5623,
      "cms).": 5624,
      "ynast": 5625,
      "▁இரண்டா": 5626,
      "▁प्राप्त": 5627,
      "▁used": 5628,
      "hina": 5629,
      "▁स्रोत/978-1": 5630,
      "](./विशेष:पुस्तक_स्रोत/978-1": 5631,
      "▁இராணுவ": 5632,
      "▁அதிகரித்து": 5633,
      "▁भूम": 5634,
      "Library_of_C": 5635,
      "▁चुनाव": 5636,
      "nclm.nic.in/sha": 5637,
      "रेलू": 5638,
      "images/": 5639,
      "வணச்": 5640,
      "▁[पुरालेखित](https://web.archive.org/web/201": 5641,
      "-national-language": 5642,
      "र्वोच्च": 5643,
      "Davidson2014-p": 5644,
      "red/linkimages/": 5645,
      "विशेष:EditPage/साँचा:": 5646,
      "Library_of_Congress2004": 5647,
      "nclm.nic.in/shared/linkimages/": 5648,
      "1-0": 5649,
      "270": 5650,
      "63": 5651,
      "9–": 5652,
      "Ethnologue": 5653,
      "Kashmir": 5654,
      "]]": 5655,
      "_15": 5656,
      "_17": 5657,
      "cess": 5658,
      "day": 5659,
      "tions": 5660,
      "▁India\"](https://web.archive.org/web/201": 5661,
      "▁All": 5662,
      "▁Centre": 5663,
      "ulti": 5664,
      "▁country": 5665,
      "akrishn": 5666,
      "▁John": 5667,
      "al_in_": 5668,
      "▁Linguistic": 5669,
      "ternal": 5670,
      "search": 5671,
      "people": 5672,
      "olden": 5673,
      "catalog": 5674,
      "istorical": 5675,
      "cording": 5676,
      "▁Publications": 5677,
      "kZVuDwAAQBAJ&pg=PA": 5678,
      "-the": 5679,
      "/D": 5680,
      "/news/": 5681,
      "2]](./இந்தியா#cite_note-": 5682,
      "2]](./India#cite_note-FOOTNOTE": 5683,
      "3]](./இந்தியா#cite_note-FOOTNOTE": 5684,
      "4,": 5685,
      "9/": 5686,
      "Bas": 5687,
      "MAAJ": 5688,
      "_ட": 5689,
      "_st": 5690,
      "ns": 5691,
      "nia": 5692,
      "ues": 5693,
      "ually": 5694,
      "ஆக": 5695,
      "ங்": 5696,
      "டன": 5697,
      "டும்ப": 5698,
      "நகர": 5699,
      "மிய": 5700,
      "ளை": 5701,
      "ளிய": 5702,
      "வியல்": 5703,
      "வும்,": 5704,
      "வர்கள": 5705,
      "▁![": 5706,
      "▁[m": 5707,
      "▁\"கு": 5708,
      "▁\"Oxford": 5709,
      "▁\"Indo-": 5710,
      "ndra": 5711,
      "ergy": 5712,
      "oral": 5713,
      "anag": 5714,
      "ந்த்": 5715,
      "▁(இந்தியா": 5716,
      "▁them": 5717,
      "not": 5718,
      "▁மொழ": 5719,
      "▁கீ": 5720,
      "▁கட்சி": 5721,
      "▁social": 5722,
      "▁தி": 5723,
      "▁திரு": 5724,
      "ament": 5725,
      "▁famil": 5726,
      "andit": 5727,
      "▁அனைத்து": 5728,
      "overe": 5729,
      ".[[4": 5730,
      "109": 5731,
      "raj": 5732,
      "டுப்பாட்ட": 5733,
      "▁B.": 5734,
      "280": 5735,
      "▁Gandhi": 5736,
      "▁1960": 5737,
      "▁Journal": 5738,
      "tures": 5739,
      "_Summit": 5740,
      "_in_South_Asia": 5741,
      "▁Fund": 5742,
      "AAMAAJ": 5743,
      "*](https://web.archive.org/web/201": 5744,
      "▁முக்கிய": 5745,
      "harm": 5746,
      "arty": 5747,
      "erry": 5748,
      "▁தொடர்ச்சி": 5749,
      "▁began": 5750,
      "%2C_India": 5751,
      "▁Press\"),": 5752,
      "▁\"இந்தியக்": 5753,
      "i_language": 5754,
      "ineering": 5755,
      "class": 5756,
      "_அடிப்படையில்": 5757,
      "ப்படுகின்ற": 5758,
      "▁control": 5759,
      "▁நிலையில்": 5760,
      "▁\"History": 5761,
      "lowing": 5762,
      "▁add": 5763,
      "▁left": 5764,
      "▁play": 5765,
      "தாகும்.": 5766,
      "_from": 5767,
      "flu": 5768,
      "▁ஒன்றாக": 5769,
      "-lead": 5770,
      "](https://doi.org/10.10": 5771,
      "ustralia": 5772,
      "hasha": 5773,
      "▁2006](./இந்தியா#CITEREFMetcalfMetcalf2006),": 5774,
      "மிழ்நாடு": 5775,
      "ெற்காசிய": 5776,
      "fghanistan": 5777,
      "ast_Asia_Summit": 5778,
      "-विज्ञान": 5779,
      ".పూ.": 5780,
      "350": 5781,
      "3-8": 5782,
      "534": 5783,
      "Co": 5784,
      "S1": 5785,
      "_आ": 5786,
      "_उ": 5787,
      "_व": 5788,
      "_50": 5789,
      "_देश": 5790,
      "eb": 5791,
      "ject": 5792,
      "rust": 5793,
      "way": 5794,
      "west": 5795,
      "ंच": 5796,
      "ईरा": 5797,
      "छत्तीस": 5798,
      "त्व": 5799,
      "फल": 5800,
      "फ्रीका": 5801,
      "बैक": 5802,
      "लयाल": 5803,
      "स\")": 5804,
      "सून": 5805,
      "िख": 5806,
      "िंध": 5807,
      "ीच": 5808,
      "ఆగ": 5809,
      "కళ": 5810,
      "ఖండ్": 5811,
      "గ్": 5812,
      "గఢ్": 5813,
      "జో": 5814,
      "ట్ర": 5815,
      "తెలుగు": 5816,
      "పద": 5817,
      "భి": 5818,
      "యో": 5819,
      "లక్ష": 5820,
      "వర": 5821,
      "శో": 5822,
      "హు": 5823,
      "హార్": 5824,
      "హాయ": 5825,
      "ాష్ట్ర": 5826,
      "ీక": 5827,
      "ీహార్": 5828,
      "ుల": 5829,
      "ుల్": 5830,
      "ోల్": 5831,
      "ోత్స": 5832,
      "ౌర్య": 5833,
      "▁—": 5834,
      "▁ed": 5835,
      "▁8.": 5836,
      "](./ओ": 5837,
      "](./च": 5838,
      "▁[హ": 5839,
      "▁[Oxford": 5840,
      "▁\"च": 5841,
      "▁\"ल": 5842,
      "▁\"హ": 5843,
      "▁\"ఢిల్లీ": 5844,
      "aries": 5845,
      "ediev": 5846,
      "▁कई": 5847,
      "▁कश्मीर": 5848,
      "▁(in": 5849,
      "్రూ": 5850,
      "▁सद": 5851,
      "▁सैन": 5852,
      "id.": 5853,
      "ations/": 5854,
      "ాలా": 5855,
      "ాలలో": 5856,
      "▁पर्वत": 5857,
      "్యం": 5858,
      "స్వ": 5859,
      "ura": 5860,
      "urry": 5861,
      "▁culture": 5862,
      "ర్ణా": 5863,
      "ర్మే": 5864,
      "లోక్‌సభ": 5865,
      "▁top": 5866,
      "वित": 5867,
      "_का": 5868,
      "▁వే": 5869,
      "115": 5870,
      "▁बीच": 5871,
      "▁से](http://www.": 5872,
      "▁only": 5873,
      "▁India\").": 5874,
      "ताज": 5875,
      "ండర్": 5876,
      "क्षा": 5877,
      "త్మా": 5878,
      "न्दिर": 5879,
      "▁आधिकारिक": 5880,
      "▁అతి": 5881,
      "स्थ": 5882,
      "ికి": 5883,
      "▁Registrar": 5884,
      "▁उत्पाद": 5885,
      "-19-5": 5886,
      "ाद्वीप": 5887,
      "ద్దు": 5888,
      "▁Increase": 5889,
      "_मंदिर": 5890,
      "▁संस्कृति": 5891,
      "▁రహదార": 5892,
      "प्रा": 5893,
      "మాచల్": 5894,
      "▁సామ్రాజ్య": 5895,
      "▁इन": 5896,
      "రువా": 5897,
      "రుణా": 5898,
      "న్నో": 5899,
      "ssam": 5900,
      "anka": 5901,
      "िस्ट": 5902,
      "▁తరువా": 5903,
      "మిజో": 5904,
      "ాయి.": 5905,
      "▁करोड़": 5906,
      "▁[![](//upload.wikimedia.org/wikipedia/commons/thumb/c/c": 5907,
      "▁अनु": 5908,
      "▁జరిగ": 5909,
      "▁[अंग्रेज़": 5910,
      "quality": 5911,
      "केर": 5912,
      "74-108": 5913,
      "▁composed": 5914,
      "▁जनगणना": 5915,
      "▁శతాబ్ద": 5916,
      "▁हैं।\n": 5917,
      "ట్టు": 5918,
      "▁राजनी": 5919,
      "ంగ్లీ": 5920,
      "▁\"पंजाब": 5921,
      "రాష్ట్రాలు": 5922,
      "र्थव्यवस्था": 5923,
      "వేద": 5924,
      "▁రాజకీయ": 5925,
      "▁[पंजाब": 5926,
      "करण": 5927,
      "▁2019.\n": 5928,
      "హిమాచల్": 5929,
      "హాత్మా": 5930,
      "▁होता": 5931,
      "▁ప్రాంతాలు": 5932,
      "ब्ब": 5933,
      "gisl": 5934,
      "▁जिसमें": 5935,
      "▁ప్రదేశ్\")": 5936,
      "హారాష్ట్ర": 5937,
      "▁कारण": 5938,
      "శాస్త్ర": 5939,
      "రాజస్థాన్": 5940,
      "itzel": 5941,
      "▁వాతావరణ": 5942,
      "ोर्ड": 5943,
      "_मेला?action=edit&redlink=1": 5944,
      "దినోత్స": 5945,
      "బెంగాల": 5946,
      "యన్మార్": 5947,
      "▁ముఖ్య": 5948,
      "गोआ": 5949,
      "श्रीलंका": 5950,
      "वेबैक": 5951,
      "_ప్రాంత": 5952,
      "union_ter": 5953,
      "ంజాబ్": 5954,
      "▁వ్యాస": 5955,
      "र्सिट": 5956,
      "గుజరాత్": 5957,
      "ఆఫ్ఘనిస్తాన్": 5958,
      "న్‌ఫర్మే": 5959,
      "-78074-108": 5960,
      "ूनिवर्सिट": 5961,
      "రిహద్దు": 5962,
      "▁వంశ": 5963,
      "చ్చేరి": 5964,
      "ర్ణాటక": 5965,
      "రుణాచల్": 5966,
      "▁[अंग्रेज़ी](./अ": 5967,
      "న్‌ఫర్మేషన్": 5968,
      "-78074-108-6": 5969,
      "\";\n": 5970,
      "%3": 5971,
      "&ss": 5972,
      ")[": 5973,
      "*)": 5974,
      ".in_": 5975,
      "2nd": 5976,
      "6]](./இந்தியா#cite_note-FOOTNOTE": 5977,
      "6]](./India#cite_note-": 5978,
      "Bh": 5979,
      "CL": 5980,
      "Jha": 5981,
      "Tem": 5982,
      "Tarlo": 5983,
      "UT": 5984,
      "ax": 5985,
      "ced": 5986,
      "code": 5987,
      "d/d": 5988,
      "iet": 5989,
      "ob": 5990,
      "pic": 5991,
      "ras": 5992,
      "rans": 5993,
      "tandard": 5994,
      "ver": 5995,
      "war": 5996,
      "ர்த": 5997,
      "லமைப்பு": 5998,
      "ழை": 5999,
      "ாண்டு": 6000,
      "ுடைய": 6001,
      "▁70": 6002,
      "](./Indo-": 6003,
      "▁[கு": 6004,
      "▁[உலக": 6005,
      "▁[Fisher": 6006,
      "inanc": 6007,
      "thnic": 6008,
      "edu": 6009,
      "omes": 6010,
      "itch": 6011,
      "▁(2011": 6012,
      "196": 6013,
      "ப்பிய": 6014,
      "icon": 6015,
      "▁மைய": 6016,
      "▁incre": 6017,
      "atures": 6018,
      "▁வங்கி": 6019,
      "ilitary": 6020,
      "eck": 6021,
      "▁Punjab": 6022,
      "urch": 6023,
      "urban": 6024,
      "▁Mar": 6025,
      "▁women": 6026,
      "india.com/": 6027,
      "▁des": 6028,
      "107": 6029,
      ":BookSources/978-9": 6030,
      "ண்மை": 6031,
      "eli": 6032,
      "▁37": 6033,
      "▁hum": 6034,
      "▁2026": 6035,
      "▁Nadu": 6036,
      "Spr": 6037,
      "407": 6038,
      "Special:S": 6039,
      "▁eastern": 6040,
      "குதி": 6041,
      "▁மு.": 6042,
      "ainism": 6043,
      "onsoon": 6044,
      "Intelligence": 6045,
      "ம்பு": 6046,
      "opular": 6047,
      "▁உள்ளது.[[": 6048,
      "sey": 6049,
      "ாளர்": 6050,
      "issile": 6051,
      "1):": 6052,
      "Asher2006": 6053,
      "AsherAsher2006": 6054,
      "india.gov.in_": 6055,
      "▁சமூக": 6056,
      "DwAAQBAJ": 6057,
      "_pro": 6058,
      "த்தியில்": 6059,
      "51-9": 6060,
      "ibcode": 6061,
      "▁அரசா": 6062,
      "ச்சகம்": 6063,
      "▁\"அமெரிக்க": 6064,
      "limate": 6065,
      "](./அமெரிக்க": 6066,
      "Fisher2018),": 6067,
      "▁2018](./இந்தியா#CITEREF": 6068,
      "Stein2010),": 6069,
      ".html).": 6070,
      ":EditPage/Template:": 6071,
      "Wikipedia": 6072,
      "▁இதில்": 6073,
      "uddhist": 6074,
      "▁relations": 6075,
      "apita": 6076,
      "EXT": 6077,
      "earch/India": 6078,
      "_Development_": 6079,
      "▁உணவு": 6080,
      "▁Persian": 6081,
      "Spear1990": 6082,
      "worldcat.org/": 6083,
      "_அடிப்படையில்_நாடு": 6084,
      "Tarlo199": 6085,
      "Special:Search/India": 6086,
      "-asia": 6087,
      "-prov": 6088,
      "9).": 6089,
      "Bharat": 6090,
      "National": 6091,
      "ault": 6092,
      "nominal": 6093,
      "uted": 6094,
      "▁out": 6095,
      "▁United": 6096,
      "▁power": 6097,
      "▁bord": 6098,
      "ists": 6099,
      "▁Tamil": 6100,
      "indic": 6101,
      "▁human": 6102,
      "▁Himalay": 6103,
      "289": 6104,
      "▁report": 6105,
      "▁[\"G": 6106,
      "_in_New_Delhi": 6107,
      "709": 6108,
      "oung": 6109,
      "905": 6110,
      "ountries/": 6111,
      "erved": 6112,
      "](./National_": 6113,
      "▁prov": 6114,
      "8/8": 6115,
      "▁Minorities": 6116,
      "troduction": 6117,
      "2)\n": 6118,
      "223": 6119,
      "3.\n": 6120,
      "Ex": 6121,
      "Petraglia": 6122,
      "View": 6123,
      "_9": 6124,
      "_ci": 6125,
      "_2008": 6126,
      "ez": 6127,
      "ham": 6128,
      "ker": 6129,
      "ling": 6130,
      "nim": 6131,
      "pecial": 6132,
      "ru": 6133,
      "s_of_India": 6134,
      "tw": 6135,
      "y=": 6136,
      "जम्मू": 6137,
      "पि": 6138,
      "भ्यता": 6139,
      "मो": 6140,
      "यर": 6141,
      "लग": 6142,
      "लों": 6143,
      "शा": 6144,
      "िम": 6145,
      "ीगढ़": 6146,
      "ॉक": 6147,
      "्ले": 6148,
      "ண்கள": 6149,
      "லில்": 6150,
      "லும்": 6151,
      "ளவில்": 6152,
      "ளஞ்சிய": 6153,
      "வல": 6154,
      "வானது": 6155,
      "வர்கள்": 6156,
      "ாதுகாப்பு": 6157,
      "ிக்கா": 6158,
      "ீடு": 6159,
      "ென்": 6160,
      "▁·": 6161,
      "▁ओ": 6162,
      "▁el": 6163,
      "](./ल": 6164,
      "▁[वि": 6165,
      "▁[सा": 6166,
      "▁\"ग": 6167,
      "▁\"உலக": 6168,
      "reen": 6169,
      "ியான": 6170,
      "arl": 6171,
      "oram": 6172,
      "en/": 6173,
      "cid": 6174,
      "இந்தி": 6175,
      "▁कु": 6176,
      "▁பூ": 6177,
      "▁பேர": 6178,
      "भारत)": 6179,
      "asthan": 6180,
      "▁सूचना": 6181,
      "▁185": 6182,
      "▁मध्य": 6183,
      "▁महासागर": 6184,
      "78.": 6185,
      "▁set": 6186,
      "▁தனி": 6187,
      "▁தேர்தல்": 6188,
      "atch": 6189,
      "▁SAARC": 6190,
      "▁இன": 6191,
      "▁Policy": 6192,
      "ानव": 6193,
      "▁21.": 6194,
      "ular": 6195,
      "ikk": 6196,
      "र्ज": 6197,
      "▁Michael": 6198,
      "▁movement": 6199,
      "▁River": 6200,
      "▁சோ": 6201,
      "emic": 6202,
      "ாட்டின்": 6203,
      "▁உறு": 6204,
      "rak": 6205,
      "even": 6206,
      "▁B.;": 6207,
      "▁Bengal": 6208,
      "▁जी": 6209,
      "ालदीव": 6210,
      "சுக": 6211,
      "▁दि": 6212,
      "▁दशक": 6213,
      "▁39": 6214,
      "▁his": 6215,
      "bert": 6216,
      "ेशन": 6217,
      "ेशिया": 6218,
      "▁E.": 6219,
      "▁1965": 6220,
      "▁rep": 6221,
      "▁என": 6222,
      "க்குக்": 6223,
      "fornia": 6224,
      "क्षर": 6225,
      "षाण": 6226,
      "_and_d": 6227,
      "alli": 6228,
      "ocke": 6229,
      "]](./India#cite_note-FOOTNOTEMetcalfMetcalf2006": 6230,
      "▁शक्ति": 6231,
      "▁शिक्षा": 6232,
      "1.html": 6233,
      "e_M": 6234,
      "काश": 6235,
      "▁tree": 6236,
      "▁लोग": 6237,
      "▁ass": 6238,
      "ंडीगढ़": 6239,
      "▁Valley": 6240,
      "times.indiatimes.com/": 6241,
      "achine": 6242,
      "லைக்களஞ்சிய": 6243,
      "rough": 6244,
      "▁क्षेत्रीय": 6245,
      "▁पुरा": 6246,
      "जनसंख्या": 6247,
      "▁जनसंख्या": 6248,
      "alifornia": 6249,
      "▁वर्ग": 6250,
      "](./History": 6251,
      "▁மொழி\")": 6252,
      "▁२०१": 6253,
      "▁நீதி": 6254,
      "▁நாடுகள்": 6255,
      "]](./भारत#cite_note-FOOTNOTEStein1998": 6256,
      "]](./भारत#cite_note-FOOTNOTESingh2009": 6257,
      "▁தொடங்க": 6258,
      "गणराज्य": 6259,
      "erent": 6260,
      "▁Chinese": 6261,
      "ote:": 6262,
      "ிரித்தானிக்கா": 6263,
      "▁கொண்டிருந்த": 6264,
      "iodiversity": 6265,
      "%7C": 6266,
      "tribution": 6267,
      "▁பிறகு": 6268,
      "▁இலக்கிய": 6269,
      "▁ed.),": 6270,
      "urton199": 6271,
      "▁स्थित": 6272,
      "னாமி": 6273,
      "Blurton199": 6274,
      "▁2006](./India#CITEREFMetcalfMetcalf2006),": 6275,
      "त्तराखण्ड": 6276,
      "AGE": 6277,
      "▁Quote:": 6278,
      "▁अप्रैल": 6279,
      "हिमाचल": 6280,
      "▁article:": 6281,
      "▁शताब्दी": 6282,
      "▁लेख:": 6283,
      "omestic": 6284,
      "Springer": 6285,
      "PetragliaA": 6286,
      "லைக்களஞ்சியம்": 6287,
      "220": 6288,
      "300": 6289,
      "418": 6290,
      "IB": 6291,
      "dia": 6292,
      "eth": 6293,
      "f/f": 6294,
      "m2": 6295,
      "ves": 6296,
      "es,": 6297,
      "cise": 6298,
      "2013": 6299,
      "2002),": 6300,
      "-100": 6301,
      "[[14": 6302,
      "▁sector": 6303,
      "▁Society": 6304,
      "ecur": 6305,
      "-0)\n": 6306,
      "elang": 6307,
      "▁David": 6308,
      "-459": 6309,
      "-349": 6310,
      "238": 6311,
      "upta": 6312,
      "▁1980": 6313,
      "▁[\"M": 6314,
      "▁For": 6315,
      "▁2011.": 6316,
      "ummer": 6317,
      "ext": 6318,
      "_page": 6319,
      "KulkeRothermund2004),": 6320,
      "▁life": 6321,
      "nominal)": 6322,
      "indicator": 6323,
      "-O": 6324,
      "-st": 6325,
      "/we": 6326,
      "1200": 6327,
      "5-3": 6328,
      "528": 6329,
      "6-1": 6330,
      "8]](./இந்தியா#cite_note-FOOTNOTE": 6331,
      "9]](./இந்தியா#cite_note-": 6332,
      "British": 6333,
      "Kumar": 6334,
      "PT": 6335,
      "_10": 6336,
      "fore": 6337,
      "mall": 6338,
      "rance": 6339,
      "sa": 6340,
      "uip": 6341,
      "utra": 6342,
      "ward": 6343,
      "yd": 6344,
      "ze": 6345,
      "டக்கலை": 6346,
      "மண": 6347,
      "யி": 6348,
      "யில்": 6349,
      "ல்த": 6350,
      "ழல்": 6351,
      "வீன": 6352,
      "ஸ்ட்": 6353,
      "ின": 6354,
      "ంతి": 6355,
      "కాల": 6356,
      "కారం": 6357,
      "ఖ్": 6358,
      "గంగా": 6359,
      "టో": 6360,
      "డిన": 6361,
      "ధి": 6362,
      "ధించ": 6363,
      "నల్": 6364,
      "మన": 6365,
      "మర": 6366,
      "ర్యా": 6367,
      "లం": 6368,
      "లతో": 6369,
      "లమె": 6370,
      "ీస్": 6371,
      "ూరు": 6372,
      "ెనీ": 6373,
      "ౌక": 6374,
      "▁ద": 6375,
      "▁ఫ": 6376,
      "▁80": 6377,
      "▁దక్షిణ": 6378,
      "▁హిందూ": 6379,
      "](./கு": 6380,
      "](./సి": 6381,
      "▁[భారతదేశం": 6382,
      "▁[ప్ర": 6383,
      "▁[ఢిల్లీ": 6384,
      "▁\"In": 6385,
      "tex": 6386,
      "iary": 6387,
      "report": 6388,
      "anipur": 6389,
      "ester": 6390,
      "ம்\"),": 6391,
      "▁(India": 6392,
      "▁(199": 6393,
      "ootb": 6394,
      "ப்பாக": 6395,
      "ப்பானது": 6396,
      "leav": 6397,
      "asing": 6398,
      "ారస": 6399,
      "ட்டிய": 6400,
      "-16": 6401,
      "த்தா": 6402,
      "▁11.": 6403,
      "▁influ": 6404,
      "▁second": 6405,
      "▁திரைப்படத்துறை": 6406,
      "ాలను": 6407,
      "ush": 6408,
      "▁Summit\")": 6409,
      "▁வங்காள": 6410,
      "eccan": 6411,
      "స్](./": 6412,
      "▁పెద్ద": 6413,
      "urk": 6414,
      "▁அட": 6415,
      "▁அரு": 6416,
      "▁அவை": 6417,
      "▁அணு": 6418,
      "00–సా.శ.పూ.": 6419,
      "istian": 6420,
      "▁நேர": 6421,
      "▁minister": 6422,
      "ర్లు": 6423,
      "▁சந்தை": 6424,
      "ாகரி": 6425,
      "ema": 6426,
      "emale": 6427,
      "-219": 6428,
      "50th": 6429,
      "లు\")": 6430,
      "▁development": 6431,
      "▁ஆயு": 6432,
      "டுத்து": 6433,
      "opland": 6434,
      "ண்டல": 6435,
      "லைவன": 6436,
      "-49": 6437,
      "▁lik": 6438,
      "▁2002": 6439,
      "சுலி": 6440,
      "akes": 6441,
      "akhand": 6442,
      "ంది": 6443,
      "▁Europe": 6444,
      "26.": 6445,
      "களானவை": 6446,
      "▁Nehru": 6447,
      "](./பு": 6448,
      "▁ప్రజ": 6449,
      "▁Francis": 6450,
      "force": 6451,
      "▁\"பு": 6452,
      "▁Ocean": 6453,
      "త్తం": 6454,
      "ountain": 6455,
      "▁(సా.శ.15": 6456,
      "▁(సా.శ.13": 6457,
      "udget": 6458,
      "ains": 6459,
      "▁అనే": 6460,
      "_Publishing": 6461,
      "తం\")": 6462,
      "_Cor": 6463,
      "ంచి": 6464,
      "▁original](http://www.": 6465,
      "48)": 6466,
      "ங்களும்": 6467,
      "▁ఆఫ్": 6468,
      "▁rate": 6469,
      "▁before": 6470,
      "லால்": 6471,
      "ிருத": 6472,
      "▁సాం": 6473,
      "▁உள்ளன.": 6474,
      "ార్లమె": 6475,
      "o-d": 6476,
      "ப்_பொது": 6477,
      "▁போன்ற": 6478,
      "▁[பு": 6479,
      "కిస్థాన్": 6480,
      "ற்போ": 6481,
      "▁నే": 6482,
      "▁నగర": 6483,
      "\"](https://web.archive.org/web/20140": 6484,
      "▁గాంధీ": 6485,
      "టిబె": 6486,
      "_News": 6487,
      "▁1997": 6488,
      "్రీ.పూ.": 6489,
      "▁செய்ய": 6490,
      "▁విస్త": 6491,
      "2003),": 6492,
      "ండియా": 6493,
      "ாடாளுமன்ற": 6494,
      "▁காங்கிரசு": 6495,
      "▁ఎక్కువ": 6496,
      "▁ఎన్నో": 6497,
      "PPP": 6498,
      "ibet": 6499,
      "_ஆறு": 6500,
      "▁prime": 6501,
      "reek": 6502,
      "ublishers": 6503,
      "_సం": 6504,
      "ారు.\n": 6505,
      "Oxford_University_Press": 6506,
      "టుంబ": 6507,
      "▁lead": 6508,
      "▁தொடக்க": 6509,
      "▁இடையில்": 6510,
      "AsherTalbot2008),": 6511,
      "▁భారత్": 6512,
      "▁China": 6513,
      "▁Empire\")": 6514,
      "▁கடற்க": 6515,
      "▁మొత్తం": 6516,
      "டப்பட்டது.": 6517,
      "ంపెనీ": 6518,
      "▁1998](./இந்தியா#CITEREF": 6519,
      "▁(identifier)\"):[10.10": 6520,
      "▁ஆற்றல்": 6521,
      "బాద్": 6522,
      "▁வீத": 6523,
      "▁Press](./Oxford_University_Press": 6524,
      "హ్మ": 6525,
      "▁நூற்றாண்ட": 6526,
      "▁நூற்றாண்டு": 6527,
      "வார்ப்புரு:Navbox": 6528,
      "▁ఏర్": 6529,
      "ேபாள": 6530,
      "్రిటిషు": 6531,
      "yanmar": 6532,
      "aldives": 6533,
      "▁2010](./India#CITEREFStein2010),": 6534,
      "Report.pdf)": 6535,
      "arnataka": 6536,
      "ultanate": 6537,
      "▁అత్యధిక": 6538,
      "▁பெரும்பாலான": 6539,
      "ీర్ణ": 6540,
      "▁religious": 6541,
      "దక్షిణ_ఆసియా": 6542,
      "akrishnan": 6543,
      "itchison": 6544,
      "Spear199024": 6545,
      "ikkim": 6546,
      "ootball": 6547,
      "/F": 6548,
      "2-1": 6549,
      "2-6": 6550,
      "4-3": 6551,
      "7).": 6552,
      "CH": 6553,
      "_राज": 6554,
      "_28": 6555,
      "aut": 6556,
      "ai_": 6557,
      "dis": 6558,
      "ethnologue": 6559,
      "garh": 6560,
      "mrits": 6561,
      "गत": 6562,
      "गू": 6563,
      "तृत": 6564,
      "पूर्": 6565,
      "म\")": 6566,
      "वल": 6567,
      "श्य": 6568,
      "षय": 6569,
      "हरा": 6570,
      "हित": 6571,
      "िनेमा": 6572,
      "ी.": 6573,
      "ृद्ध": 6574,
      "ेघ": 6575,
      "▁old": 6576,
      "▁[ग": 6577,
      "▁\"तमिल": 6578,
      "▁सक": 6579,
      "▁India*.": 6580,
      "्यों": 6581,
      "▁Ad": 6582,
      "▁Ag": 6583,
      "▁See": 6584,
      "uran": 6585,
      "▁billion": 6586,
      "▁अव": 6587,
      "▁प्रेस": 6588,
      "▁प्रौद्योगिक": 6589,
      "्वतंत्रता": 6590,
      "22)": 6591,
      "▁व्य": 6592,
      "ounci": 6593,
      "29)": 6594,
      "▁उन": 6595,
      "▁शु": 6596,
      "▁Asia:": 6597,
      "▁संसद": 6598,
      "▁लोक": 6599,
      "ियार": 6600,
      "▁\"British": 6601,
      "](./British": 6602,
      "▁राज्य\")": 6603,
      "हाय": 6604,
      "परमाणु": 6605,
      "ोलन": 6606,
      "_Nations": 6607,
      "engali": 6608,
      "ेली": 6609,
      "▁[National": 6610,
      "▁जाती": 6611,
      "_Fund": 6612,
      "ectancy": 6613,
      "▁राजवंश": 6614,
      "▁स्था": 6615,
      "▁स्थान": 6616,
      "ज्ज": 6617,
      "▁प्राचीन": 6618,
      "▁था।": 6619,
      "▁धर्म\")": 6620,
      "▁along": 6621,
      "ांग्लादेश": 6622,
      "iterature": 6623,
      "▁ed.).": 6624,
      "ilgrim": 6625,
      "langoff-1": 6626,
      "महाद्वीप": 6627,
      "▁\"हिन्दी\")": 6628,
      "▁पहले": 6629,
      "▁[हिन्दी](./हिन्दी": 6630,
      "urrent": 6631,
      "▁चुनावों": 6632,
      "edieval": 6633,
      "▁सैन्य": 6634,
      "ethnologue.com/": 6635,
      "-ex": 6636,
      ".\")\n": 6637,
      ".](//upload.wikimedia.org/wikipedia/commons/thumb/": 6638,
      "125": 6639,
      "2-8": 6640,
      "3–": 6641,
      "5).": 6642,
      "Pl": 6643,
      "TO": 6644,
      "_வி": 6645,
      "business": 6646,
      "bhasha": 6647,
      "had": 6648,
      "les/": 6649,
      "mod": 6650,
      "ploy": 6651,
      "ஒடி": 6652,
      "சே": 6653,
      "தலை": 6654,
      "ரூபாய்": 6655,
      "ீக்கிய": 6656,
      "ீதிய": 6657,
      "▁:": 6658,
      "▁°": 6659,
      "▁சிற": 6660,
      "▁[கா": 6661,
      "ret": 6662,
      "ants": 6663,
      "ன்ஸ்": 6664,
      "▁(1):": 6665,
      "▁பள்ள": 6666,
      "ல்வ": 6667,
      "க்கான": 6668,
      "த்தக்க": 6669,
      "▁கி": 6670,
      "▁கண்ட": 6671,
      "▁16.": 6672,
      "ation,": 6673,
      "▁sur": 6674,
      "atab": 6675,
      "ரும்": 6676,
      "▁Schwartzberg": 6677,
      "ில்லிய": 6678,
      "▁Civil": 6679,
      "▁இற": 6680,
      "▁இவ்": 6681,
      "▁அன்று": 6682,
      "▁அமெரிக்க": 6683,
      "tock": 6684,
      "▁28.": 6685,
      "▁mar": 6686,
      "▁western": 6687,
      "_of_S": 6688,
      "▁ஆனால்": 6689,
      "ments": 6690,
      "▁2000": 6691,
      "ச்_ச": 6692,
      "rote": 6693,
      "28.": 6694,
      "▁1962": 6695,
      "▁remain": 6696,
      "AAAAMAAJ": 6697,
      "▁these": 6698,
      "*](https://www.": 6699,
      "▁non-": 6700,
      "▁Languages": 6701,
      "_Agency": 6702,
      "▁முக": 6703,
      "2011religion": 6704,
      "353": 6705,
      "▁2011ஆம்": 6706,
      "-19-882905-8": 6707,
      "▁குடும்ப": 6708,
      "]](./India#cite_note-FOOTNOTEStein2010": 6709,
      "illen": 6710,
      "▁\"Category:": 6711,
      "▁[Craven": 6712,
      "](./Category:": 6713,
      "49-2": 6714,
      "ogn": 6715,
      "▁Vedic": 6716,
      "_மற்றும்": 6717,
      "▁(PDF),": 6718,
      "_Mah": 6719,
      "▁நிர்": 6720,
      "▁2010](./இந்தியா#CITEREF": 6721,
      "feb": 6722,
      "awahar": 6723,
      "ுள்ளது.[[": 6724,
      "▁காண": 6725,
      "ற்றும": 6726,
      "▁தொக": 6727,
      "_East_Asia_Summit": 6728,
      "▁2009](./இந்தியா#CITEREF": 6729,
      "▁Thomas": 6730,
      "▁Indo-": 6731,
      "_1960": 6732,
      "▁2019,": 6733,
      "ரோப்பிய": 6734,
      "▁employ": 6735,
      "▁இரண்டு": 6736,
      "த்_தேர்தல்": 6737,
      "article/": 6738,
      "▁ago": 6739,
      "/articleshow/5": 6740,
      "▁ரூபாய்": 6741,
      "▁ரீதிய": 6742,
      "▁(eds.),": 6743,
      "ilgir": 6744,
      "லுவல்": 6745,
      ".htm)": 6746,
      "merican": 6747,
      ".php?": 6748,
      "ணையர்": 6749,
      "rahmap": 6750,
      "42-5": 6751,
      "▁groups": 6752,
      "ological": 6753,
      "▁estimate": 6754,
      ".nih": 6755,
      "▁பயன்படுத்த": 6756,
      "Census2011religion": 6757,
      "திவாளர்": 6758,
      "ல்தான": 6759,
      "awaharl": 6760,
      "%)": 6761,
      ",4": 6762,
      "-and": 6763,
      "1-2": 6764,
      "Home": 6765,
      "_v": 6766,
      "_36": 6767,
      "oa": 6768,
      "oes": 6769,
      "▁z": 6770,
      "▁[c": 6771,
      "2022": 6772,
      "reme": 6773,
      "ern_": 6774,
      "ortheast": 6775,
      "en,": 6776,
      "omb": 6777,
      "▁India](./G": 6778,
      "▁13.": 6779,
      "▁sq": 6780,
      "ets": 6781,
      "url": 6782,
      "imach": 6783,
      "▁Ram": 6784,
      "eld": 6785,
      "app": 6786,
      "a_d": 6787,
      "60.": 6788,
      "efault": 6789,
      "ummary": 6790,
      "▁[British": 6791,
      "▁10.": 6792,
      "▁km2": 6793,
      "▁[Ludden": 6794,
      "▁2022.\n": 6795,
      "sites/d": 6796,
      "/hindi": 6797,
      "data.worldbank.org/": 6798,
      "Home_Affairs": 6799,
      "efault/files/": 6800,
      "sites/default/files/": 6801,
      "data.worldbank.org/indicator": 6802,
      "&#": 6803,
      "-G": 6804,
      "-R": 6805,
      "/w": 6806,
      "0/0": 6807,
      "0&s": 6808,
      "34)": 6809,
      "5]](./இந்தியா#cite_note-": 6810,
      "623": 6811,
      "7]](./இந்தியா#cite_note-FOOTNOTE": 6812,
      "=\"": 6813,
      "Alig": 6814,
      "John": 6815,
      "Language": 6816,
      "Michell": 6817,
      "M50th": 6818,
      "NCL": 6819,
      "PO": 6820,
      "_घ": 6821,
      "_द": 6822,
      "_26": 6823,
      "_உலக": 6824,
      "_Economic": 6825,
      "af": 6826,
      "aury": 6827,
      "di": 6828,
      "ead": 6829,
      "i.": 6830,
      "iw": 6831,
      "jha": 6832,
      "lé": 6833,
      "law": 6834,
      "mand": 6835,
      "more": 6836,
      "nc": 6837,
      "rban": 6838,
      "uff": 6839,
      "vil": 6840,
      "ंत": 6841,
      "अभि": 6842,
      "क्": 6843,
      "खन": 6844,
      "खा": 6845,
      "गान": 6846,
      "ग्व": 6847,
      "च्": 6848,
      "जं": 6849,
      "टान": 6850,
      "थिल": 6851,
      "दार": 6852,
      "फोर्ड": 6853,
      "ब्ल": 6854,
      "बेट": 6855,
      "भु": 6856,
      "यत": 6857,
      "रत": 6858,
      "वास": 6859,
      "ेड": 6860,
      "ैंक": 6861,
      "ैथिल": 6862,
      "ॉल": 6863,
      "ॉंग्रेस": 6864,
      "ोस": 6865,
      "ौसेना": 6866,
      "१८": 6867,
      "२००": 6868,
      "கவல்": 6869,
      "பதி": 6870,
      "லின்": 6871,
      "ளம்": 6872,
      "வண்": 6873,
      "ஸ்ட": 6874,
      "ீர்": 6875,
      "▁ईसा": 6876,
      "▁urban": 6877,
      "](./न": 6878,
      "](./உலக": 6879,
      "](./पाकिस्तान": 6880,
      "▁[f": 6881,
      "▁[ड": 6882,
      "▁[ल": 6883,
      "▁[Harle": 6884,
      "▁[दक्षिण": 6885,
      "▁[पाकिस्तान": 6886,
      "▁\"दक्षिण": 6887,
      "▁\"पाकिस्तान": 6888,
      "tev": 6889,
      "ina": 6890,
      "in-O": 6891,
      "rew": 6892,
      "erve": 6893,
      "arth": 6894,
      "arrow": 6895,
      "orship": 6896,
      "anion": 6897,
      "ந்தியா": 6898,
      "enj": 6899,
      "enna": 6900,
      "▁*India": 6901,
      "ising": 6902,
      "இந்தோ": 6903,
      "▁பத": 6904,
      "190": 6905,
      "ப்பில்": 6906,
      "chol": 6907,
      "astr": 6908,
      "▁साल": 6909,
      "▁सम्": 6910,
      "ica": 6911,
      "▁மர": 6912,
      "▁மெ": 6913,
      "▁மனித": 6914,
      "த்தொடர்": 6915,
      "த்தால்": 6916,
      "▁கலை": 6917,
      "▁கிழ": 6918,
      "▁inv": 6919,
      "▁मो": 6920,
      "▁मौ": 6921,
      "](https://d": 6922,
      "ருநாட": 6923,
      "ette": 6924,
      "adh": 6925,
      "राम": 6926,
      "▁Social": 6927,
      "▁வரை": 6928,
      "▁far": 6929,
      "▁அறிய": 6930,
      "umeration": 6931,
      "iger": 6932,
      "00–": 6933,
      "](./भारत_के": 6934,
      "த்_": 6935,
      "▁would": 6936,
      "▁Routledge": 6937,
      "ற்றல்": 6938,
      "▁Territory": 6939,
      "ிரே": 6940,
      "raz": 6941,
      "evanag": 6942,
      "▁Dictionary": 6943,
      "mentin-O": 6944,
      "_की_": 6945,
      "சுவ": 6946,
      "▁भारत\")": 6947,
      "287,": 6948,
      "▁Games": 6949,
      "▁1970": 6950,
      "ंगाना": 6951,
      "-520-2": 6952,
      "▁नव": 6953,
      "aph": 6954,
      "409": 6955,
      "40px-": 6956,
      "hief": 6957,
      "15/": 6958,
      "abha": 6959,
      "web.archive.org/web/2009": 6960,
      "17.": 6961,
      "▁இந்தியாவை": 6962,
      "▁through": 6963,
      "▁आर्थिक": 6964,
      "▁Law": 6965,
      "▁London": 6966,
      "_Act": 6967,
      "▁W.": 6968,
      "-691": 6969,
      "▁Kingdom": 6970,
      "undament": 6971,
      "▁2011,": 6972,
      "33-7": 6973,
      "▁विस्त": 6974,
      "▁विदेश": 6975,
      "ன்றா": 6976,
      "▁[↑](./இந்தியா#cite_ref-FOOTNOTEMetcalfMetcalf2006": 6977,
      "▁range": 6978,
      "काता": 6979,
      "▁इंडिया": 6980,
      "ी](./द": 6981,
      "▁Press](./C": 6982,
      "efore": 6983,
      "▁[பா": 6984,
      "ंडोन": 6985,
      "ல்கள்": 6986,
      "▁राज्यक्षेत्र": 6987,
      "_மலை": 6988,
      "▁79.": 6989,
      "Harvard": 6990,
      "ங்கள்\")": 6991,
      "ोलकाता": 6992,
      "_GDP": 6993,
      "%20A": 6994,
      "ंध्र": 6995,
      "▁अन्त": 6996,
      "▁क्षेत्रों": 6997,
      "ंग्रेजी": 6998,
      "_128": 6999,
      "▁नेतृत": 7000,
      "▁\"अंग्रेज़ी": 7001,
      "▁देश\")": 7002,
      "▁commun": 7003,
      "▁जनवरी": 7004,
      "हरिया": 7005,
      "ूर्वी": 7006,
      "पुरम": 7007,
      "▁technology": 7008,
      "▁मेला\"),": 7009,
      "▁know": 7010,
      "िशा": 7011,
      "ंग्रेज़ी_भाषा": 7012,
      "समिया": 7013,
      "on-Alig": 7014,
      "முறை": 7015,
      "ज्ञाप": 7016,
      "2000),": 7017,
      "न्नई": 7018,
      "बंधन": 7019,
      "▁पुरालेखित।,": 7020,
      ".com/news/national": 7021,
      "▁2020.": 7022,
      "▁இயக்க": 7023,
      "▁मानसून": 7024,
      "▁2024.": 7025,
      "Harle1994),": 7026,
      "_और_संघ": 7027,
      "▁Programme": 7028,
      "▁ஒன்றிய": 7029,
      "economictimes.indiatimes.com/": 7030,
      "▁2004](./இந்தியா#CITEREF": 7031,
      "▁युग": 7032,
      "रक्षा": 7033,
      "वादी": 7034,
      "o.uk": 7035,
      "▁स्वतंत्रता": 7036,
      "_के_आधार_पर_भारत_के_राज्यों_की_सूची": 7037,
      "▁(identifier)\"):[10.": 7038,
      "तेलंगाना": 7039,
      "_Islands": 7040,
      "ும்பை": 7041,
      "](https://doi.org/10.": 7042,
      "चेन्नई": 7043,
      "▁बहुत": 7044,
      ".co.uk": 7045,
      "ampion": 7046,
      "पीठ": 7047,
      "▁3,287,": 7048,
      "▁கட்டுரை": 7049,
      "▁முதன்மைக்": 7050,
      "](./List_of_countries_by_GDP": 7051,
      "▁texts": 7052,
      "क्सफोर्ड": 7053,
      "▁निर्माण": 7054,
      "thehindu.com/news/national": 7055,
      "67733-7": 7056,
      "त्रिपुरा": 7057,
      "icobar": 7058,
      "ச்சு:": 7059,
      "तेलुगू": 7060,
      "भीमबेट": 7061,
      "arliest": 7062,
      "cropped": 7063,
      "झारखंड": 7064,
      "யோன்": 7065,
      "reedom": 7066,
      "-0-521-80904-7": 7067,
      "Indonesia": 7068,
      "nclm.nic.in/shared/linkimages/NCL": 7069,
      "छत्तीसगढ़": 7070,
      "िंधु": 7071,
      "ब्बत": 7072,
      "▁[अंग्रेज़ी](./अंग्रेज़ी_भाषा": 7073,
      "Tarlo1996-2": 7074,
      "pecially": 7075,
      "▁ओर": 7076,
      "▁कुछ": 7077,
      "▁(India)\")": 7078,
      "▁ஆயுத": 7079,
      "ப்_பொதுத்_தேர்தல்": 7080,
      "▁ரூபாய்\")": 7081,
      "M50thReport.pdf)": 7082,
      "lémentin-O": 7083,
      "अभिज्ञाप": 7084,
      "च्छ": 7085,
      "evanagari": 7086,
      "on-Aligned": 7087,
      "](./List_of_countries_by_GDP_(": 7088,
      "भीमबेटका": 7089,
      "nclm.nic.in/shared/linkimages/NCLM50thReport.pdf)": 7090,
      "lémentin-Ojha": 7091,
      "अभिज्ञापक": 7092,
      "\"](http://": 7093,
      ")\"),": 7094,
      "2)[[": 7095,
      "2-7": 7096,
      "3-1": 7097,
      "DR": 7098,
      "St": 7099,
      "_జాబితా": 7100,
      "cia": 7101,
      "hl": 7102,
      "que": 7103,
      "vert": 7104,
      "ఆంధ": 7105,
      "కాలు": 7106,
      "క్రమ": 7107,
      "గర్": 7108,
      "గాంధీ": 7109,
      "డో": 7110,
      "తీ": 7111,
      "థి": 7112,
      "నె": 7113,
      "నాలు": 7114,
      "పించ": 7115,
      "బడ్డ": 7116,
      "భర": 7117,
      "మహ": 7118,
      "మై": 7119,
      "యన": 7120,
      "యి": 7121,
      "రంగ": 7122,
      "లయా": 7123,
      "వార": 7124,
      "శీ": 7125,
      "షా": 7126,
      "షనల్": 7127,
      "స్య": 7128,
      "ృద్ధి": 7129,
      "ెంగ": 7130,
      "ేర": 7131,
      "–120": 7132,
      "▁X": 7133,
      "▁భారతీయ": 7134,
      "▁దా": 7135,
      "▁నాగరికత": 7136,
      "▁టెక్నాలజీ": 7137,
      "](./ఢిల్లీ": 7138,
      "▁[World": 7139,
      "arayan": 7140,
      "▁(S": 7141,
      "్రై": 7142,
      "్రప్రదేశ్": 7143,
      "-05": 7144,
      "ing,": 7145,
      "▁15.": 7146,
      "attle": 7147,
      "adwe": 7148,
      "▁Central": 7149,
      "\"),[[": 7150,
      "స్\")": 7151,
      "దేశం": 7152,
      "దేశాల": 7153,
      "ర్‌": 7154,
      "లు?action=edit&redlink=1": 7155,
      "రాఠ": 7156,
      "raw": 7157,
      "▁కి": 7158,
      "▁కో": 7159,
      "క్టో": 7160,
      "▁వర్": 7161,
      "▁వారస": 7162,
      "నియా": 7163,
      "ల్వే": 7164,
      "▁సరిహద్దు": 7165,
      "▁మన": 7166,
      "▁మూ": 7167,
      "▁ప్రము": 7168,
      "▁ప్రతి": 7169,
      "▁ప్రస్తు": 7170,
      "▁ప్రకారం": 7171,
      "\"](https://web.archive.org/web/20": 7172,
      "ండమా": 7173,
      "159": 7174,
      "166": 7175,
      "▁చిన్న": 7176,
      "తాన": 7177,
      "▁near": 7178,
      "త్వం": 7179,
      "▁(సా.శ.14": 7180,
      "ులు,": 7181,
      "–సా.శ.17": 7182,
      "ంచిన": 7183,
      "కుడు": 7184,
      "నుమ": 7185,
      "ింది.\n": 7186,
      "▁రో": 7187,
      "▁రంగ": 7188,
      "▁రవాణా": 7189,
      "▁సాధించ": 7190,
      "ష్టు": 7191,
      "_Times": 7192,
      ",_కేంద్రపాలిత": 7193,
      "-symbols": 7194,
      "overnment_of_India": 7195,
      "పాలన": 7196,
      "hmed": 7197,
      "\"](https://web.archive.org/web/20150": 7198,
      "ం](./భారతీయ": 7199,
      "_Nadu": 7200,
      "నేషనల్": 7201,
      "_population": 7202,
      "వందే": 7203,
      "▁విభ": 7204,
      "2005),": 7205,
      "▁రాజ్యం](./": 7206,
      "▁బహు": 7207,
      "▁బెంగ": 7208,
      "amil_Nadu": 7209,
      "▁2007\n": 7210,
      "ాల్లో": 7211,
      "national-symbols": 7212,
      "ంతో": 7213,
      "▁ప్రాంతం": 7214,
      "శ్వా": 7215,
      "ారిటీ": 7216,
      "embers": 7217,
      "గోళ": 7218,
      "బడిన": 7219,
      "▁ప్రాంతాలు\")": 7220,
      "తున్న": 7221,
      "▁స్వాతంత్ర్య": 7222,
      "న్నిక": 7223,
      "▁కాలంలో": 7224,
      "ధీన": 7225,
      "మెరి": 7226,
      "eligious": 7227,
      "▁\"Official": 7228,
      "akshadwe": 7229,
      "ంపి": 7230,
      "బెంగాల్": 7231,
      "ెలవు": 7232,
      "](./భారతదేశంలో_": 7233,
      "4/4": 7234,
      "▁ప్రాచ": 7235,
      "▁అధికారిక": 7236,
      "▁Plateau": 7237,
      "ఆర్ధిక": 7238,
      "▁పట్టణ": 7239,
      "▁అయిన": 7240,
      "▁కాశ్మీరు": 7241,
      "▁రెండు": 7242,
      "ాల్దీవులు": 7243,
      "▁addition": 7244,
      "ట్రో": 7245,
      "ుల్తాన": 7246,
      "ంగ్లీషు": 7247,
      "రాష్ట్రాలు,_కేంద్రపాలిత": 7248,
      "దినోత్సవం": 7249,
      "▁వ్యాసం:": 7250,
      "ార్లమెంట": 7251,
      "▁ఏర్ప": 7252,
      "ఆంధ్రప్రదేశ్": 7253,
      "లయాళ": 7254,
      "▁ప్రముఖ": 7255,
      "akshadweep": 7256,
      "రాష్ట్రాలు,_కేంద్రపాలిత_ప్రాంత": 7257,
      "$](./அமெரிக்க": 7258,
      "-க": 7259,
      "313": 7260,
      "41": 7261,
      "410": 7262,
      "7C": 7263,
      "97": 7264,
      ":**": 7265,
      "Business": 7266,
      "Central_": 7267,
      "March": 7268,
      "Pal": 7269,
      "SN": 7270,
      "Times": 7271,
      "UK": 7272,
      "US": 7273,
      "_val": 7274,
      "business/": 7275,
      "dish": 7276,
      "ght": 7277,
      "hang": 7278,
      "hind": 7279,
      "ji": 7280,
      "lm": 7281,
      "wana": 7282,
      "work": 7283,
      "ஃப": 7284,
      "அ$](./அமெரிக்க": 7285,
      "ஒன்ற": 7286,
      "ஜன": 7287,
      "டம்": 7288,
      "ணய": 7289,
      "ந்": 7290,
      "ன்க": 7291,
      "ராக": 7292,
      "லே": 7293,
      "லைய": 7294,
      "வோ": 7295,
      "ேரு": 7296,
      "ோதி": 7297,
      "](./உ": 7298,
      "▁[Indo-": 7299,
      "iated": 7300,
      "erm": 7301,
      "org": 7302,
      "alys": 7303,
      "an-": 7304,
      "eneration": 7305,
      "ed,": 7306,
      "ederal": 7307,
      "cip": 7308,
      "itor": 7309,
      "▁(2006),": 7310,
      "▁(2nd": 7311,
      "20011": 7312,
      "lect": 7313,
      "த்தது.": 7314,
      "த்தைக்": 7315,
      "▁கே": 7316,
      "▁காடு": 7317,
      "▁painting": 7318,
      "▁திற": 7319,
      "atyam": 7320,
      "etwork": 7321,
      "▁fe": 7322,
      "▁four": 7323,
      "▁forest": 7324,
      "▁இசை": 7325,
      "urs": 7326,
      "ump": 7327,
      "uled": 7328,
      "imate": 7329,
      "சிசி": 7330,
      "ign_": 7331,
      "▁Muslim": 7332,
      "▁நகர்": 7333,
      "▁where": 7334,
      "▁Report": 7335,
      "▁Religion": 7336,
      "ira": 7337,
      "emograph": 7338,
      "architecture": 7339,
      "▁ஆட்சி": 7340,
      "▁By": 7341,
      "-300": 7342,
      "23.": 7343,
      "சுலா": 7344,
      "ள்ளன.": 7345,
      "▁house": 7346,
      "களு": 7347,
      "களால்": 7348,
      "களைக்": 7349,
      "▁reg": 7350,
      "eph": 7351,
      "epic": 7352,
      "aryana": 7353,
      "18)": 7354,
      "253": 7355,
      "_in_the": 7356,
      "ability": 7357,
      "▁[*H": 7358,
      "றுப": 7359,
      "ாரி": 7360,
      "ார்க்க": 7361,
      "a_M": 7362,
      "a_Empire": 7363,
      "plac": 7364,
      "▁முசுலி": 7365,
      "uduch": 7366,
      "ாலர்": 7367,
      "ாலர்\")": 7368,
      "Inf": 7369,
      "▁([₹": 7370,
      "ociation": 7371,
      "▁தொடர்ந்து": 7372,
      "ணிடப்பட்டது.": 7373,
      "arden": 7374,
      "▁\"இந்தியப்": 7375,
      "▁\"இந்தியத்": 7376,
      "▁within": 7377,
      "▁[↑](./India#cite_ref-FOOTNOTEMetcalfMetcalf2006": 7378,
      "▁புற": 7379,
      "pend": 7380,
      "▁பிரப": 7381,
      "▁பிரதம": 7382,
      "gions": 7383,
      "▁[Government": 7384,
      "ravid": 7385,
      "-in-": 7386,
      "ports/": 7387,
      ".jpg/250px-S": 7388,
      "▁US": 7389,
      "▁துறை": 7390,
      "▁2007](./இந்தியா#CITEREF": 7391,
      "nium": 7392,
      "anta": 7393,
      "_Force": 7394,
      "▁வேறுப": 7395,
      "general_": 7396,
      "ளாண்மை": 7397,
      "need": 7398,
      "▁[இம்": 7399,
      "▁வாழ்": 7400,
      "_Indian_general_": 7401,
      "▁பரணிடப்பட்டது.": 7402,
      "▁dispute": 7403,
      "▁emerg": 7404,
      "▁2008](./இந்தியா#CITEREF": 7405,
      "த்_திரைப்படத்துறை": 7406,
      "மீர்": 7407,
      "fication": 7408,
      "_இய": 7409,
      "rence": 7410,
      "Craven1997),": 7411,
      "▁ஆறு\")": 7412,
      "ேற்குத்": 7413,
      "▁பிரதேசத்தின்": 7414,
      "▁especially": 7415,
      "▁டாலர்\")": 7416,
      "▁வடக்கு": 7417,
      "-a-b": 7418,
      "](./இந்திய_ரூபாய்": 7419,
      ".nlm": 7420,
      "bi.nlm": 7421,
      "▁People": 7422,
      "▁மூலத்தில்": 7423,
      "stitution": 7424,
      "▁கணக்கெடுப்பு": 7425,
      "Uttarakhand": 7426,
      "▁[ஐஅ$](./அமெரிக்க": 7427,
      "▁குறிப்பிட": 7428,
      "uthority": 7429,
      "▁(2014).": 7430,
      "▁Wikidata": 7431,
      "▁Studies": 7432,
      "iolence": 7433,
      "olonial": 7434,
      "_டாலர்": 7435,
      "▁![](//upload.wikimedia.org/wikipedia/commons/thumb/": 7436,
      "▁(இந்தியா)\")": 7437,
      "▁கீழ்": 7438,
      "▁அரசாங்க": 7439,
      "▁தேர்தல்\")": 7440,
      "](./History_of_": 7441,
      "▁1998](./இந்தியா#CITEREFStein1998),": 7442,
      "▁அன்று.": 7443,
      "illennium": 7444,
      "ncbi.nlm": 7445,
      "uducherry": 7446,
      "_Indian_general_election": 7447,
      "▁பரணிடப்பட்டது..": 7448,
      "▁[ஐஅ$](./அமெரிக்க_டாலர்": 7449,
      "ncbi.nlm.nih": 7450,
      "+5": 7451,
      "-res": 7452,
      "/H": 7453,
      "1-3": 7454,
      "226": 7455,
      "4_": 7456,
      "6%": 7457,
      "7-8": 7458,
      "8,": 7459,
      "8+5": 7460,
      "9-6": 7461,
      "C)": 7462,
      "Col": 7463,
      "NG": 7464,
      "Pe": 7465,
      "Press": 7466,
      "\\*": 7467,
      "_इ": 7468,
      "_श": 7469,
      "_con": 7470,
      "_45": 7471,
      "_धर्म": 7472,
      "ँची": 7473,
      "उप": 7474,
      "एन": 7475,
      "टना": 7476,
      "तन": 7477,
      "द्वार": 7478,
      "पार": 7479,
      "भग": 7480,
      "मु": 7481,
      "मरी": 7482,
      "रि": 7483,
      "ेद": 7484,
      "ोला": 7485,
      "१९": 7486,
      "▁औ": 7487,
      "▁web": 7488,
      "▁भा": 7489,
      "▁भाग": 7490,
      "](./दक्षिण": 7491,
      "](./तमिल": 7492,
      "▁[य": 7493,
      "▁[व": 7494,
      "▁[ह": 7495,
      "▁[तमिल": 7496,
      "▁\"य": 7497,
      "nder": 7498,
      "alam": 7499,
      "▁*A": 7500,
      "▁काल": 7501,
      "▁कॉंग्रेस": 7502,
      "▁(2004": 7503,
      "्रय": 7504,
      "▁सभा": 7505,
      "▁सित": 7506,
      "▁समाज": 7507,
      "-18": 7508,
      "▁मई": 7509,
      "▁मन": 7510,
      "▁मह": 7511,
      "▁मिल": 7512,
      "▁मशीन": 7513,
      "▁sim": 7514,
      "uss": 7515,
      "ects": 7516,
      "▁2015.": 7517,
      "ेंगल": 7518,
      "र्ध": 7519,
      "](./भारत_के_राज्य": 7520,
      "्तु": 7521,
      "rest": 7522,
      "213": 7523,
      "▁wid": 7524,
      "▁में,": 7525,
      "1996": 7526,
      "▁अभ": 7527,
      "▁Bh": 7528,
      "▁जब": 7529,
      "ayana": 7530,
      "▁द्वीप": 7531,
      "_(भारत)": 7532,
      "261": 7533,
      "263": 7534,
      "▁20.": 7535,
      "▁प्रार": 7536,
      "aving": 7537,
      "_से": 7538,
      "_साम": 7539,
      "22.": 7540,
      "▁व्या": 7541,
      "70)": 7542,
      "▁On": 7543,
      "47.": 7544,
      "▁गई": 7545,
      "ड़िया": 7546,
      "▁शहर": 7547,
      "▁[मध्य": 7548,
      "▁ले": 7549,
      "▁लिये": 7550,
      "_के_अन": 7551,
      "म्भ": 7552,
      "%2C_S": 7553,
      "संधान": 7554,
      "त्तरी": 7555,
      "neworld": 7556,
      "▁यूनिवर्सिट": 7557,
      "▁77.": 7558,
      "]](./भारत#cite_note-pib": 7559,
      "▁जनजाति": 7560,
      "▁राजधान": 7561,
      "ureau": 7562,
      "_Lanka": 7563,
      "रुणा": 7564,
      "32-1": 7565,
      "cms)": 7566,
      "aint:": 7567,
      "▁Short": 7568,
      "▁[*An": 7569,
      "-4020": 7570,
      "▁use": 7571,
      "irector": 7572,
      "ोर्ट": 7573,
      "%E0%A4%B": 7574,
      "▁साम्राज्य\")": 7575,
      "धुनिक": 7576,
      "b/b": 7577,
      "Ministry_of_Home_Affairs": 7578,
      "▁mi)": 7579,
      "▁different": 7580,
      "_देशों_की_सूची": 7581,
      "ताजमह": 7582,
      "क्षरता": 7583,
      "▁स्थाप": 7584,
      "▁[पाकिस्तान](./पाकिस्तान": 7585,
      "ेंगलुरु": 7586,
      "_साम्राज्य": 7587,
      "_के_अनुसार": 7588,
      "▁यूनिवर्सिटी": 7589,
      "-j": 7590,
      "-ar": 7591,
      "-logo": 7592,
      ".200": 7593,
      "/).": 7594,
      "/C-0": 7595,
      "1%20": 7596,
      "3,": 7597,
      "310": 7598,
      "4).": 7599,
      "4]](./India#cite_note-": 7600,
      "6]](./இந்தியா#cite_note-": 7601,
      "6]](./India#cite_note-FOOTNOTE": 7602,
      "8%": 7603,
      "Ali": 7604,
      "Aitchison": 7605,
      "Dg": 7606,
      "E﻿": 7607,
      "Garg": 7608,
      "Karanth": 7609,
      "L.": 7610,
      "LS": 7611,
      "MDD": 7612,
      "SAARC": 7613,
      "XLS": 7614,
      "_21": 7615,
      "_கா": 7616,
      "_2010": 7617,
      "_43": 7618,
      "k:": 7619,
      "lid": 7620,
      "rig": 7621,
      "subcontinent": 7622,
      "u,": 7623,
      "ver,": 7624,
      "தில்": 7625,
      "நிலை": 7626,
      "னே": 7627,
      "னிய": 7628,
      "பூ": 7629,
      "பார்": 7630,
      "ாத": 7631,
      "ுறை": 7632,
      "ேல": 7633,
      "ைத்": 7634,
      "▁,": 7635,
      "▁qu": 7636,
      "▁economy": 7637,
      "▁Books": 7638,
      "](./வி": 7639,
      "▁[archived": 7640,
      "▁\"சி": 7641,
      "▁\"வி": 7642,
      "int": 7643,
      "inema": 7644,
      "erform": 7645,
      "aro": 7646,
      "orne": 7647,
      "ந்தே": 7648,
      "enn": 7649,
      "en.wik": 7650,
      "ம்\")\n": 7651,
      "▁(J": 7652,
      "▁(2010": 7653,
      "▁பங்கு": 7654,
      "ப்பாடு": 7655,
      "ப்பிரி": 7656,
      "leg": 7657,
      "ர்ச்சி": 7658,
      "▁மண்டல": 7659,
      "▁காட்டு": 7660,
      "▁கால்": 7661,
      "789": 7662,
      "▁summits": 7663,
      "▁As": 7664,
      "ருவ": 7665,
      "▁Court": 7666,
      "loth": 7667,
      "▁வகு": 7668,
      "▁வழி": 7669,
      "well": 7670,
      "geoh": 7671,
      "ecret": 7672,
      "▁2012.": 7673,
      "▁இக்கால": 7674,
      "anda": 7675,
      "andy": 7676,
      ").jpg": 7677,
      "▁அண்.": 7678,
      "ume": 7679,
      "006": 7680,
      "▁Mah": 7681,
      "▁நாட்டு": 7682,
      "▁Trade": 7683,
      "▁சது": 7684,
      "▁dependencies": 7685,
      "oples": 7686,
      "▁Buddhist": 7687,
      "-45": 7688,
      "-333": 7689,
      "-345": 7690,
      "▁last": 7691,
      "ficient": 7692,
      "▁38": 7693,
      "▁her": 7694,
      "▁Educ": 7695,
      "269,": 7696,
      "stan": 7697,
      "▁Health": 7698,
      "▁Ge": 7699,
      "agen": 7700,
      "▁Nuclear": 7701,
      "▁என்ற": 7702,
      "ly,": 7703,
      "mons": 7704,
      "aves": 7705,
      "1857": 7706,
      "2542-5": 7707,
      "_School": 7708,
      "_in_B": 7709,
      "168": 7710,
      "▁Food": 7711,
      "▁[*M": 7712,
      "வுக்கு": 7713,
      "▁Organization": 7714,
      "▁L.": 7715,
      "▁முற": 7716,
      "udi": 7717,
      "oss": 7718,
      "&pg=PT": 7719,
      "ப்பட்டது.": 7720,
      "▁[![A": 7721,
      "alled": 7722,
      "338": 7723,
      "▁எண்ண": 7724,
      "கம்\")": 7725,
      "rchitecture": 7726,
      "▁உள்ளட": 7727,
      "▁கொள்கை": 7728,
      "news": 7729,
      "▁இந்தியத்": 7730,
      "▁புதிய": 7731,
      "i_M": 7732,
      "_Broadcasting": 7733,
      "_நி": 7734,
      "_summits": 7735,
      "uddha": 7736,
      "athur": 7737,
      "▁[Dikshit": 7738,
      "றிவு": 7739,
      "](./List_of_SAARC": 7740,
      "ட்டி\")": 7741,
      "AsherTalbot2006),": 7742,
      "▁change": 7743,
      "▁மாற்ற": 7744,
      "poration": 7745,
      "▁சிற்ப": 7746,
      "](https://books.google.com/books?id=ZvaGuaJIJgoC&pg=PA": 7747,
      "](https://books.google.com/books?id=kZVuDwAAQBAJ&pg=PA": 7748,
      "1/DD": 7749,
      "▁These": 7750,
      "▁பெரும்": 7751,
      "▁நடன": 7752,
      "தேசம்": 7753,
      "▁when": 7754,
      "aceu": 7755,
      "▁தெற்கு": 7756,
      "official": 7757,
      "uisine": 7758,
      "asia/": 7759,
      "▁இயற்க": 7760,
      "rishna": 7761,
      "gypt": 7762,
      "-of-india": 7763,
      "](./List_of_countries_and_d": 7764,
      "DikshitSchwartzberg2023),": 7765,
      "ksai": 7766,
      "bara": 7767,
      "censusindia.gov.in/2011census/C-0": 7768,
      "▁<https://web.archive.org/web/201": 7769,
      "ataraj": 7770,
      "S.XLS": 7771,
      "ropped": 7772,
      "▁முதன்மையான": 7773,
      "▁including": 7774,
      "_Commission": 7775,
      "C-01%20": 7776,
      "known": 7777,
      "osphere": 7778,
      "ependencies_by": 7779,
      "Provisional_Population_Totals_Paper_1_of_2011_India16": 7780,
      "cript": 7781,
      "owever,": 7782,
      "▁(1,269,": 7783,
      "tances": 7784,
      "ீபக": 7785,
      "](./South_Asian_": 7786,
      "PK:14": 7787,
      "▁(ed.).": 7788,
      "_BRICS_summit": 7789,
      "ynasty": 7790,
      "rajbhasha": 7791,
      "harmaceu": 7792,
      "Intelligence_Agency": 7793,
      "rakash": 7794,
      "▁influen": 7795,
      "mritsar": 7796,
      "ல்வகை": 7797,
      "▁நிர்வாக": 7798,
      "▁([₹](./இந்திய_ரூபாய்": 7799,
      "AliAitchison": 7800,
      "MDDS.XLS": 7801,
      "▁summits\")": 7802,
      "geohack": 7803,
      "](./List_of_SAARC_summits": 7804,
      "1/DDW": 7805,
      "](./List_of_countries_and_dependencies_by": 7806,
      "censusindia.gov.in/2011census/C-01/DDW": 7807,
      "C-01%20MDDS.XLS": 7808,
      "AliAitchison2005": 7809,
      "-se": 7810,
      "2.\n": 7811,
      "319": 7812,
      "Mon": 7813,
      "_16": 7814,
      "paper": 7815,
      "tool": 7816,
      "worth": 7817,
      "arath": 7818,
      "isten": 7819,
      "19.": 7820,
      "ices": 7821,
      "idy": 7822,
      "▁18.": 7823,
      "▁prom": 7824,
      "ily": 7825,
      "▁2017.": 7826,
      "igved": 7827,
      "▁can": 7828,
      ".[[23": 7829,
      "emon": 7830,
      "108": 7831,
      "opal": 7832,
      "▁Day": 7833,
      "una": 7834,
      "▁Id": 7835,
      "▁Home": 7836,
      "ody": 7837,
      ")[[3": 7838,
      "_and_T": 7839,
      "_Day": 7840,
      "earning": 7841,
      "Roy": 7842,
      "▁[![](//upload.wikimedia.org/wikipedia/commons/thumb/7/": 7843,
      "ublications/": 7844,
      "▁\"Government": 7845,
      "▁Urdu": 7846,
      "▁State": 7847,
      "arendra": 7848,
      "-to-": 7849,
      "▁Art": 7850,
      "▁across": 7851,
      "olkata": 7852,
      "ecurity": 7853,
      "data.worldbank.org/indicator/S": 7854,
      "Ministry_of_Home_Affairs_1960": 7855,
      "%ஆக": 7856,
      "-e": 7857,
      ".edu": 7858,
      "2-0": 7859,
      "221": 7860,
      "58)": 7861,
      "96": 7862,
      ":IN": 7863,
      "EB": 7864,
      "Front": 7865,
      "IL": 7866,
      "MC": 7867,
      "MID": 7868,
      "Organisation": 7869,
      "Pos": 7870,
      "_0": 7871,
      "_r": 7872,
      "_கு": 7873,
      "_राज्य": 7874,
      "_a_": 7875,
      "_2009": 7876,
      "_వి": 7877,
      "_per": 7878,
      "_2004": 7879,
      "_एशिया": 7880,
      "_కాశ్మీ": 7881,
      "aci": 7882,
      "ather": 7883,
      "des": 7884,
      "e,": 7885,
      "equality": 7886,
      "ful": 7887,
      "forest": 7888,
      "history": 7889,
      "oa_": 7890,
      "ps": 7891,
      "str": 7892,
      "tom": 7893,
      "tate": 7894,
      "via": 7895,
      "wAAQBAJ&pg=PA": 7896,
      "ंतर": 7897,
      "ईल": 7898,
      "को": 7899,
      "ख्य": 7900,
      "घर": 7901,
      "चें": 7902,
      "तम": 7903,
      "तुल": 7904,
      "थियार": 7905,
      "फा": 7906,
      "बा": 7907,
      "मर": 7908,
      "मार": 7909,
      "शन": 7910,
      "स्व": 7911,
      "िबंध": 7912,
      "ृष": 7913,
      "ृष्ण": 7914,
      "ोट": 7915,
      "கிய": 7916,
      "செ": 7917,
      "சர்": 7918,
      "டும்": 7919,
      "டக்": 7920,
      "டனம்": 7921,
      "தார்": 7922,
      "னஸ்": 7923,
      "மர்": 7924,
      "ரில்": 7925,
      "ல்டு": 7926,
      "வதற்கு": 7927,
      "ீதி": 7928,
      "ோள": 7929,
      "ంస్కృ": 7930,
      "ఉత్తరా": 7931,
      "కీ": 7932,
      "ఖో": 7933,
      "ఘాలయ": 7934,
      "చ్": 7935,
      "టై": 7936,
      "టర్": 7937,
      "డమ్": 7938,
      "డఖ్": 7939,
      "ణే": 7940,
      "ణంగా": 7941,
      "తే": 7942,
      "తెల": 7943,
      "దరంగ": 7944,
      "ధు": 7945,
      "ధార": 7946,
      "నో": 7947,
      "నంద": 7948,
      "బర్": 7949,
      "బార్": 7950,
      "యె": 7951,
      "లడఖ్": 7952,
      "ళా": 7953,
      "ళి": 7954,
      "శు": 7955,
      "హించ": 7956,
      "ాంగ": 7957,
      "ుకు": 7958,
      "ెన్న": 7959,
      "ెట్రో": 7960,
      "ేతి": 7961,
      "ేఘాలయ": 7962,
      "ైనిక": 7963,
      "ొగలు": 7964,
      "ోళ": 7965,
      "‌కా": 7966,
      "‌మహ": 7967,
      "–5": 7968,
      "▁`": 7969,
      "▁५": 7970,
      "▁ఐ": 7971,
      "▁ఖ": 7972,
      "▁78": 7973,
      "▁रा": 7974,
      "▁ला": 7975,
      "▁rit": 7976,
      "▁ரா": 7977,
      "▁–సా.శ.": 7978,
      "▁జా": 7979,
      "▁low": 7980,
      "](./ग": 7981,
      "](./द": 7982,
      "](./భారతదేశ": 7983,
      "▁[Y": 7984,
      "▁[வி": 7985,
      "▁[प्र": 7986,
      "▁[రాష్ట్ర": 7987,
      "▁[జన": 7988,
      "▁[గో": 7989,
      "▁[Robb": 7990,
      "▁[गुजरात": 7991,
      "▁\"ड": 7992,
      "▁\"ह": 7993,
      "▁\"పా": 7994,
      "▁\"జన": 7995,
      "▁\"గో": 7996,
      "▁\"మూస:": 7997,
      "inated": 7998,
      "tival": 7999,
      "th_BRICS_summit": 8000,
      "ியான்": 8001,
      "arc": 8002,
      "ora": 8003,
      "enous": 8004,
      "ed/": 8005,
      "ारो": 8006,
      "istribution": 8007,
      "▁कम": 8008,
      "▁किन": 8009,
      "omo": 8010,
      "ommonwealth": 8011,
      "▁பரி": 8012,
      "्रह": 8013,
      "htra": 8014,
      "outheast": 8015,
      "1967": 8016,
      "ப்பந்த": 8017,
      "-0-19-882905-8": 8018,
      "nold": 8019,
      "ashtra": 8020,
      "▁सह": 8021,
      "▁स्तर": 8022,
      "▁सभ्यता": 8023,
      "க்கண்ட": 8024,
      "க்கிற": 8025,
      "ారస్వ": 8026,
      "து.\n": 8027,
      "idence": 8028,
      "▁India](./C": 8029,
      "▁மின்": 8030,
      "ingap": 8031,
      "▁17.": 8032,
      "▁தடு": 8033,
      "▁திட்ட": 8034,
      "▁Asher": 8035,
      "atna": 8036,
      "ాలె": 8037,
      "▁Singh": 8038,
      "▁Cooperation": 8039,
      "▁இணை": 8040,
      "▁Park": 8041,
      "స్ట": 8042,
      "స్వాతంత్ర్య": 8043,
      "ेंस": 8044,
      "▁పర": 8045,
      "▁పండు": 8046,
      "urd": 8047,
      "சினஸ்": 8048,
      "र्ट": 8049,
      "igration": 8050,
      "igenous": 8051,
      "▁हाला": 8052,
      "▁cre": 8053,
      "▁caus": 8054,
      "▁colle": 8055,
      "्त्र": 8056,
      "க்சு": 8057,
      "▁நான": 8058,
      "▁milk": 8059,
      "▁Rec": 8060,
      "**\n": 8061,
      "▁சூ": 8062,
      "▁direct": 8063,
      "10-2": 8064,
      "▁अमेर": 8065,
      "▁अर्थव्यवस्था": 8066,
      "▁अलग": 8067,
      "రాన్": 8068,
      "రాస్య": 8069,
      "▁ஆசியா": 8070,
      "திர்": 8071,
      "▁Dyson": 8072,
      "▁Department": 8073,
      "▁Before": 8074,
      "वियत": 8075,
      "▁కే": 8076,
      "▁కోర్": 8077,
      "▁led": 8078,
      "▁जिन": 8079,
      "ays": 8080,
      "త్రిక": 8081,
      "ालैंड": 8082,
      "▁देव": 8083,
      "▁दोन": 8084,
      "ipp": 8085,
      "క్స్": 8086,
      "క్కి": 8087,
      "▁వె": 8088,
      "▁31": 8089,
      "beral": 8090,
      "▁Island": 8091,
      "▁Emer": 8092,
      "2649": 8093,
      "24.": 8094,
      "113": 8095,
      "களி": 8096,
      "▁G.": 8097,
      "▁बंगाल": 8098,
      "▁बड़े": 8099,
      "▁प्रधानमंत्री": 8100,
      "ంగో": 8101,
      "▁సముద్ర": 8102,
      "▁సూచ": 8103,
      "▁సౌక": 8104,
      "भाजन": 8105,
      "▁सेवा": 8106,
      "▁ప్రజా": 8107,
      "▁काम": 8108,
      "ండా": 8109,
      "ండీ": 8110,
      "ండ్య": 8111,
      "ிலுள்ள": 8112,
      "_in_T": 8113,
      "169": 8114,
      "umbers": 8115,
      "▁east": 8116,
      "▁though": 8117,
      "తాజ్": 8118,
      "నాథ": 8119,
      "▁व्यवस्था": 8120,
      "*](https://archive.org/details/": 8121,
      "త్వా": 8122,
      "▁growth": 8123,
      "ples": 8124,
      "▁आक": 8125,
      "▁आद": 8126,
      "_Ass": 8127,
      "ராட்சி": 8128,
      "▁[Sharma": 8129,
      "tempor": 8130,
      "▁(సా.శ.16": 8131,
      "ులు?action=edit&redlink=1": 8132,
      ".gov.": 8133,
      ")[[4": 8134,
      "్రామ": 8135,
      "osa": 8136,
      "-7mar": 8137,
      "▁అభి": 8138,
      "astal": 8139,
      "_Pro": 8140,
      "]](./India#cite_note-Combined": 8141,
      "తం?action=edit&redlink=1": 8142,
      "_Co-operation": 8143,
      "35.": 8144,
      "▁परि": 8145,
      "పూర్": 8146,
      "ங்களாக": 8147,
      "▁शा": 8148,
      "_DS": 8149,
      "_Data_": 8150,
      "▁ఉంట": 8151,
      "▁ఉత్తర": 8152,
      "▁संस्थान": 8153,
      "ప్రిల్": 8154,
      "▁రూప": 8155,
      "▁సామా": 8156,
      "వాద": 8157,
      "ணிப்பு": 8158,
      "ी](./म": 8159,
      "-107-0": 8160,
      "ార్ఖండ్": 8161,
      "ियन": 8162,
      "విధ": 8163,
      "క్షరాస్య": 8164,
      "efficient": 8165,
      "सां": 8166,
      "संबर": 8167,
      "त्ति": 8168,
      "▁रक्षा": 8169,
      "anking": 8170,
      "iance": 8171,
      "](./இந்தியப்_ப": 8172,
      "39-4": 8173,
      "ంటి": 8174,
      "▁Vol": 8175,
      "పుర": 8176,
      "▁నడి": 8177,
      "जापान": 8178,
      "▁\"मध्य": 8179,
      "▁ఇండియా": 8180,
      "566": 8181,
      "▁புவி": 8182,
      "▁புலி": 8183,
      "]](./भारत#cite_note-langoff-1": 8184,
      "▁பாணி": 8185,
      "हाँ": 8186,
      "ोली": 8187,
      "▁[![](//upload.wikimedia.org/wikipedia/commons/thumb/a/a": 8188,
      "▁గు": 8189,
      "▁language\"),": 8190,
      "-market": 8191,
      "_Goa_": 8192,
      "-be": 8193,
      "](./मध्य": 8194,
      "డుకు": 8195,
      "నేషియా": 8196,
      "▁జన": 8197,
      "ంగాణ": 8198,
      "లియా": 8199,
      "▁వివిధ": 8200,
      "engu": 8201,
      "Education": 8202,
      "▁\"தெ": 8203,
      "கிறி": 8204,
      "గుప్": 8205,
      "▁సంఘ": 8206,
      "120]](./भारत#cite_note-langoff-1": 8207,
      "ervice": 8208,
      "केन्द्र": 8209,
      "తరం": 8210,
      "](./தெ": 8211,
      "ండిచ్చేరి": 8212,
      "ட்டிடக்கலை": 8213,
      "-in-india": 8214,
      "द्यालय": 8215,
      "▁[మధ్య": 8216,
      "▁comp": 8217,
      "/countries/": 8218,
      "வெப்ப": 8219,
      "▁prac": 8220,
      "జీరియా": 8221,
      "](./Special:BookSources/978-0-19": 8222,
      "▁\"Special:BookSources/978-0-19": 8223,
      "गुप्त": 8224,
      "ரிக்கும்": 8225,
      "Chenna": 8226,
      "ంకేతి": 8227,
      "▁தொலை": 8228,
      "▁மூன்று": 8229,
      "ighth": 8230,
      "▁கொண்டுள்ளது.[[": 8231,
      "e/e": 8232,
      "వేలీ": 8233,
      "வேத": 8234,
      "▁2009](./भारत#CITEREF": 8235,
      "ics\")": 8236,
      "▁நீர்": 8237,
      "▁நீண்ட": 8238,
      "ैदिक": 8239,
      "▁regions": 8240,
      "ளர்ச்சி": 8241,
      "–సా.శ.పూ.3": 8242,
      "](./पंजाब": 8243,
      "](./पश्चिम": 8244,
      "▁languages\")": 8245,
      "దాద్రా": 8246,
      "బియా": 8247,
      "▁பரப்ப": 8248,
      "▁பரவல": 8249,
      "▁CITEREFStein1998": 8250,
      "▁CITEREFSingh2009": 8251,
      "ों_की_सूची?action=edit&redlink=1": 8252,
      "డామన్": 8253,
      "▁రాష్ట్రపతి": 8254,
      "ynth": 8255,
      "▁निभा": 8256,
      "త్రిపుర": 8257,
      "▁[978-0-19-9": 8258,
      "▁2016.\n": 8259,
      "_కాల": 8260,
      "](./भारत#CITEREFStein1998),": 8261,
      "▁రైల్వే": 8262,
      "▁१९९": 8263,
      "▁subcontinent\")": 8264,
      "య్యూ": 8265,
      "▁ప్రదేశ్](./": 8266,
      "త్తీస్": 8267,
      "▁Talbot,": 8268,
      "నాగాలా": 8269,
      "▁\"జమ్మూ": 8270,
      "▁थे": 8271,
      "▁पाकिस्तान": 8272,
      "▁పాకిస్తాన్": 8273,
      "▁उपमहाद्वीप": 8274,
      "▁about": 8275,
      "कालीन": 8276,
      "కోవ": 8277,
      "కోబార్": 8278,
      "ల్లవ": 8279,
      "ikhism": 8280,
      "▁1998](./भारत#CITEREFStein1998),": 8281,
      "▁मंदिर\")": 8282,
      "▁இராச்சிய": 8283,
      "▁நாடாளுமன்ற": 8284,
      "▁Companion": 8285,
      "](./జమ్మూ": 8286,
      "](./भारत#cite_ref-pib": 8287,
      "](./भारत#cite_ref-langoff": 8288,
      "नागालैंड": 8289,
      "धीरे": 8290,
      "ece)": 8291,
      "மயமலை": 8292,
      "▁భారతదేశానికి": 8293,
      "▁பாதுகாப்புப்": 8294,
      "▁பாதுகாப்புச்": 8295,
      "Ludden2014": 8296,
      "hattis": 8297,
      "▁Environmental": 8298,
      "_to_the": 8299,
      "▁Islands\")": 8300,
      "रोहर": 8301,
      "రేబియా": 8302,
      "▁वर्षों": 8303,
      "టాక్": 8304,
      "anchi": 8305,
      "▁கூட": 8306,
      "▁మాత్ర": 8307,
      "్రిటిష్": 8308,
      "ுகலாயப்": 8309,
      "119–120": 8310,
      "ங்கிலம்": 8311,
      "-415-3": 8312,
      "_for_Economic": 8313,
      ".svg/40px-": 8314,
      "వెను": 8315,
      "ూచి": 8316,
      "భారతదేశ_రాష్ట్రాలు,_కేంద్రపాలిత_ప్రాంత": 8317,
      "▁ప్రపంచంలో": 8318,
      "bbc.co.uk": 8319,
      "1947)": 8320,
      "▁காரணமாக": 8321,
      "▁पार्टी": 8322,
      "](./இந்திய_அரசு": 8323,
      "ప్పటిక": 8324,
      "▁விரிவ": 8325,
      "▁लगभग": 8326,
      "▁सिनेमा\"),": 8327,
      "లేషియా": 8328,
      "▁Review": 8329,
      "-230-345": 8330,
      "▁దేశంలోని": 8331,
      "▁మొదల": 8332,
      "ांति": 8333,
      "ांधी": 8334,
      "arnatic": 8335,
      "▁கல்வி": 8336,
      "▁Conservation": 8337,
      "▁दृश्य": 8338,
      "▁பொருட்கள": 8339,
      "Taj_Mah": 8340,
      "ద్యు": 8341,
      "▁చిత్ర": 8342,
      "ద్వీప్": 8343,
      "▁ఉపఖండ": 8344,
      "▁కాంగ్రెసు": 8345,
      "▁होती": 8346,
      "▁भूमिका": 8347,
      "al_in_March": 8348,
      "-the-": 8349,
      "ఆగష్టు": 8350,
      "లక్షద్వీప్": 8351,
      "హాయం:": 8352,
      "ీకరణ": 8353,
      "ోల్‌కా": 8354,
      "प्राचीन": 8355,
      "▁తరువాత": 8356,
      "మిజోరా": 8357,
      "బెంగాలీ": 8358,
      "Jha2018": 8359,
      "▁increased": 8360,
      "▁Minorities,": 8361,
      "्लेट": 8362,
      "▁दिसंबर": 8363,
      "ర్యానా": 8364,
      "▁[ఢిల్లీ](./ఢిల్లీ": 8365,
      "టిబెట్": 8366,
      "▁கடற்கரை": 8367,
      "हित्य": 8368,
      "ेघालय": 8369,
      "atabase": 8370,
      "rahmaputra": 8371,
      "▁\"पाकिस्तान\")": 8372,
      "இந்தோனே": 8373,
      "▁नेतृत्व": 8374,
      "▁known": 8375,
      "బడ్డీ": 8376,
      "ేరళ": 8377,
      "్రైస్త": 8378,
      "ండమాన్": 8379,
      "మెరికా": 8380,
      "ెలవుదిన": 8381,
      "emographics": 8382,
      "▁प्रारम्भ": 8383,
      "रुणाचल": 8384,
      "▁[archived](https://web.archive.org/web/201": 8385,
      "erformance": 8386,
      "ீபகற்ப": 8387,
      "चेंज": 8388,
      "िबंधीय": 8389,
      "తెలంగాణ": 8390,
      "ెన్నై": 8391,
      "‌మహల్": 8392,
      "ingapore": 8393,
      "▁Asher,": 8394,
      "▁Dyson,": 8395,
      "2649-0": 8396,
      "▁సౌకర్య": 8397,
      "తాజ్‌మహల్": 8398,
      "-7mar2011": 8399,
      "_Co-operation_and": 8400,
      "-107-02649-0": 8401,
      "క్షరాస్యత": 8402,
      "120]](./भारत#cite_note-langoff-128)": 8403,
      "▁2009](./भारत#CITEREFSingh2009),": 8404,
      "నాగాలాండ్": 8405,
      "](./జమ్మూ_కాశ్మీ": 8406,
      "](./भारत#cite_ref-langoff_128": 8407,
      "_for_Economic_Co-operation_and": 8408,
      "-230-34549-2": 8409,
      "Taj_Mahal_in_March": 8410,
      "ోల్‌కాతా": 8411,
      "Taj_Mahal_in_March_2004": 8412,
      "*](http://": 8413,
      ";[[": 8414,
      "AQAAQBAJ&pg=PA": 8415,
      "Bangalore": 8416,
      "RA": 8417,
      "Up": 8418,
      "_46": 8419,
      "_39": 8420,
      "_languages": 8421,
      "aith": 8422,
      "d/": 8423,
      "da": 8424,
      "fun": 8425,
      "files/": 8426,
      "tation": 8427,
      "var": 8428,
      "tes": 8429,
      "on,": 8430,
      "oriti": 8431,
      "▁air": 8432,
      "trial": 8433,
      "#cite_ref-10": 8434,
      "#cite_note-10": 8435,
      "▁100": 8436,
      "](https://en.wik": 8437,
      "acts": 8438,
      "atan": 8439,
      "▁Century": 8440,
      "lock": 8441,
      "▁fig": 8442,
      "atel": 8443,
      "▁24.": 8444,
      "▁25.": 8445,
      "1991": 8446,
      "wikidata": 8447,
      "upreme": 8448,
      "▁300": 8449,
      "▁19.": 8450,
      "▁1971": 8451,
      "▁[\"B": 8452,
      "▁[\"In": 8453,
      "18.": 8454,
      "15)": 8455,
      "135": 8456,
      "▁Wall": 8457,
      "27.": 8458,
      "▁[Ar": 8459,
      "489": 8460,
      "36.": 8461,
      "sehl": 8462,
      "▁\"Th": 8463,
      "world-asia": 8464,
      "▁1990": 8465,
      "ultur": 8466,
      "▁2010\n": 8467,
      "34238": 8468,
      "ize": 8469,
      "▁adop": 8470,
      "-report": 8471,
      "▁around": 8472,
      "▁Economy": 8473,
      "▁Prosp": 8474,
      "content/": 8475,
      "11934238": 8476,
      "etary_Fund": 8477,
      "International_Mon": 8478,
      "PetragliaAllchin": 8479,
      "ouncil": 8480,
      "hmedabad": 8481,
      "orities/": 8482,
      "world-asia-india": 8483,
      "▁Prospects": 8484,
      "11934238p": 8485,
      "International_Monetary_Fund": 8486,
      "%),": 8487,
      "-th": 8488,
      "/j": 8489,
      "1]](./இந்தியா#cite_note-": 8490,
      "2]](./India#cite_note-": 8491,
      "4]](./இந்தியா#cite_note-": 8492,
      "6,": 8493,
      "76.": 8494,
      "Clémentin-Ojha": 8495,
      "IF": 8496,
      "Kathak": 8497,
      "Kuip": 8498,
      "LO": 8499,
      "Ne": 8500,
      "Nehru": 8501,
      "Political_": 8502,
      "Pandit": 8503,
      "Tab": 8504,
      "Urdu": 8505,
      "Young": 8506,
      "_7": 8507,
      "_22": 8508,
      "_2019": 8509,
      "_Union": 8510,
      "hiv": 8511,
      "ium": 8512,
      "nus": 8513,
      "och": 8514,
      "ocal": 8515,
      "pture": 8516,
      "q9": 8517,
      "vers": 8518,
      "whi": 8519,
      "yth": 8520,
      "சரா": 8521,
      "தக்": 8522,
      "மல்": 8523,
      "யக": 8524,
      "ரத": 8525,
      "ழக்கு": 8526,
      "வட்ட": 8527,
      "ேற்ற": 8528,
      "–19": 8529,
      "▁ஈ": 8530,
      "▁ஐக்கிய": 8531,
      "▁trib": 8532,
      "](./World": 8533,
      "▁[எ": 8534,
      "▁[University": 8535,
      "▁\"ஐ": 8536,
      "▁\"University": 8537,
      "▁\"கா": 8538,
      "▁\"World": 8539,
      "\")\"": 8540,
      "ino-": 8541,
      "reater": 8542,
      "til": 8543,
      "tile": 8544,
      "though": 8545,
      "ியது.[[": 8546,
      "ori": 8547,
      "oro": 8548,
      "ale_": 8549,
      "alakrishnan": 8550,
      "▁*2011": 8551,
      "ம்மு": 8552,
      "ன்\")": 8553,
      "itar": 8554,
      "itation": 8555,
      "▁(2008": 8556,
      "▁பங்கள": 8557,
      "▁பூர்வ": 8558,
      "ouli": 8559,
      "19)": 8560,
      "ல்லா": 8561,
      "20085": 8562,
      "-07": 8563,
      "▁மரு": 8564,
      "▁கலைக்களஞ்சியம்": 8565,
      "▁121": 8566,
      "▁inter": 8567,
      "▁political": 8568,
      "](https://catalog": 8569,
      "](https://id.": 8570,
      "▁sha": 8571,
      "▁தேர்த": 8572,
      "▁தற்போ": 8573,
      "▁After": 8574,
      "ads": 8575,
      "adras": 8576,
      "▁Survey": 8577,
      "▁California": 8578,
      "▁வல": 8579,
      "▁fol": 8580,
      "▁இப்ப": 8581,
      "▁இவர்": 8582,
      "andoor": 8583,
      "▁அணி": 8584,
      "▁அளவு": 8585,
      "▁அலுவல்": 8586,
      "ultures": 8587,
      "igarh": 8588,
      "005": 8589,
      "00C-01%20MDDS.XLS": 8590,
      "▁cook": 8591,
      "▁cour": 8592,
      "▁called": 8593,
      "ையா": 8594,
      "▁Machine": 8595,
      "▁work": 8596,
      "▁Res": 8597,
      "irth": 8598,
      "emor": 8599,
      "▁உட": 8600,
      "▁உறவு": 8601,
      "ratic": 8602,
      "டுதலை": 8603,
      "ண்வெளி": 8604,
      "▁Desert": 8605,
      "▁Bi": 8606,
      "▁Britannica": 8607,
      "▁Bharat": 8608,
      "-438": 8609,
      "▁lim": 8610,
      "state": 8611,
      "ago": 8612,
      "ager": 8613,
      "▁Nicobar": 8614,
      "uborne": 8615,
      "odia": 8616,
      "abour": 8617,
      "▁இந்தியா\")": 8618,
      "a_G": 8619,
      "▁gen": 8620,
      "ற்கால": 8621,
      "▁Library": 8622,
      "ரால்": 8623,
      "uck": 8624,
      "_and_F": 8625,
      "▁Kum": 8626,
      "alli_": 8627,
      "வால்": 8628,
      "வாய்": 8629,
      "▁\"Sanskrit": 8630,
      ")](./File:": 8631,
      "utan": 8632,
      "▁\"Ch": 8633,
      "▁பெண்கள்": 8634,
      "▁become": 8635,
      "45)": 8636,
      "lief": 8637,
      "ிரிபு": 8638,
      "▁[978-0-8": 8639,
      "▁[978-0-7": 8640,
      "▁\"Mughal": 8641,
      "](./Mugh": 8642,
      "ativ": 8643,
      "▁now": 8644,
      "order": 8645,
      "▁பாலைவன": 8646,
      "தியில்": 8647,
      "▁\"Template:": 8648,
      "_Games": 8649,
      "▁ஆகும்.[[": 8650,
      "-population": 8651,
      "](./Template:": 8652,
      "angetic": 8653,
      "rynus": 8654,
      "த்தியப்": 8655,
      "\"](https://www.britannica.com/": 8656,
      "Singh200918": 8657,
      "ுள்ளன.": 8658,
      "-in-India": 8659,
      "AsherTalbot20085": 8660,
      "type": 8661,
      "IND": 8662,
      "▁2007](./India#CITEREF": 8663,
      "வியியல்": 8664,
      "](./சிறப்பு:BookSources/978-0-19": 8665,
      "▁\"சிறப்பு:BookSources/978-0-19": 8666,
      "▁அரச": 8667,
      "ramouli": 8668,
      "▁சுல்தான": 8669,
      "_the_": 8670,
      "Energy": 8671,
      "▁மேற்க": 8672,
      "▁kingdom": 8673,
      "▁மூடப்பட்ட": 8674,
      "▁இருந்தது.": 8675,
      "▁உருவாக": 8676,
      "கிழக்கு": 8677,
      "▁பெருங்க": 8678,
      "amanuj": 8679,
      "alaysia": 8680,
      "▁ஆகியவற்ற": 8681,
      "▁வாழ": 8682,
      "duct": 8683,
      "incely": 8684,
      "▁disc": 8685,
      "121–1": 8686,
      "handigarh": 8687,
      "ப்பின": 8688,
      "▁agriculture": 8689,
      "நாத்": 8690,
      "நாயக": 8691,
      "-India.pdf)": 8692,
      "South_Asian_": 8693,
      "-level": 8694,
      "IAEXT": 8695,
      "press.com/": 8696,
      "▁அரசியலமைப்பு": 8697,
      "inghamYoung": 8698,
      "ece).": 8699,
      "emocratic": 8700,
      "ministered": 8701,
      "_மொழிகள்": 8702,
      "▁2001](./இந்தியா#CITEREF": 8703,
      "▁மக்கள்தொகை": 8704,
      "_இந்தியப்_பொதுத்_தேர்தல்": 8705,
      "%7c%7c": 8706,
      "_with_": 8707,
      "▁[இந்தியாவின்": 8708,
      "▁Monetary": 8709,
      "Encyclopedia": 8710,
      "த்தரப்": 8711,
      "ப்படுகிறது.[[": 8712,
      "▁தொகைக்": 8713,
      "▁rock": 8714,
      "▁mathema": 8715,
      "ConinghamYoung": 8716,
      "culpture": 8717,
      "▁2018](./India#CITEREFDyson2018),": 8718,
      "▁[Routledge](./Routledge?action=edit&redlink=1": 8719,
      "▁(c)": 8720,
      "uardian": 8721,
      "▁majority": 8722,
      "uttaph": 8723,
      "MetcalfMetcalf2012-2": 8724,
      "▁இரண்டாவது": 8725,
      "_Development_2007": 8726,
      "_அடிப்படையில்_நாடுகளின்_பட்டியல்": 8727,
      "▁அடர்த்த": 8728,
      "forcement": 8729,
      "▁அமெரிக்கா": 8730,
      "Central_Intelligence_Agency": 8731,
      "alysis": 8732,
      "place/": 8733,
      "ப்பிரிக்கா": 8734,
      "censusindia.gov.in/2011census/C-01/DDW00C-01%20MDDS.XLS": 8735,
      "_for_Economic_Co-operation_and_Development_2007": 8736,
      "Clémentin-Ojha2014": 8737,
      "Kuiper2010": 8738,
      "▁பங்களி": 8739,
      "](./Mughal_": 8740,
      "ConinghamYoung2015": 8741,
      "uttaphrynus": 8742,
      "\"](http://www.": 8743,
      "0/": 8744,
      "1-1": 8745,
      "126": 8746,
      "2-10": 8747,
      "2-1)": 8748,
      "321": 8749,
      "3-3": 8750,
      "613": 8751,
      "7)[[": 8752,
      "CD": 8753,
      "C,NGDP": 8754,
      "Constituent": 8755,
      "KI": 8756,
      "Mumb": 8757,
      "_a": 8758,
      "c/": 8759,
      "hra": 8760,
      "pact": 8761,
      "puted": 8762,
      "uide": 8763,
      "ār": 8764,
      "अरब": 8765,
      "इन": 8766,
      "ईद": 8767,
      "ऍथ": 8768,
      "ऑक्सफोर्ड": 8769,
      "ख़": 8770,
      "गध": 8771,
      "जल": 8772,
      "जपा": 8773,
      "जपुरी": 8774,
      "जिस्ट": 8775,
      "ताल": 8776,
      "थम": 8777,
      "थल": 8778,
      "दल": 8779,
      "दान": 8780,
      "नोल": 8781,
      "न्तर": 8782,
      "फ्रां": 8783,
      "बी": 8784,
      "बू": 8785,
      "बार": 8786,
      "मत": 8787,
      "यपुर": 8788,
      "रस": 8789,
      "ल्ल": 8790,
      "वेश": 8791,
      "शत": 8792,
      "शोक": 8793,
      "हम": 8794,
      "हें": 8795,
      "ाक": 8796,
      "ुरा": 8797,
      "ुम्ब": 8798,
      "ूबर": 8799,
      "ेक": 8800,
      "ॉग": 8801,
      "५७": 8802,
      "▁Z": 8803,
      "▁ना": 8804,
      "▁60": 8805,
      "](./हिन्द": 8806,
      "▁[श": 8807,
      "▁[राज्य": 8808,
      "▁[International": 8809,
      "▁\"व": 8810,
      "▁\"साँच": 8811,
      "▁\"साँचा:": 8812,
      "▁\"International": 8813,
      "ndhra": 8814,
      "2020": 8815,
      "2021": 8816,
      "2025": 8817,
      "▁(2018": 8818,
      "्रार": 8819,
      "197": 8820,
      "198": 8821,
      "▁सूच": 8822,
      "▁सीमा": 8823,
      "ided": 8824,
      "tradition": 8825,
      "-138": 8826,
      "▁मन्दिर": 8827,
      "▁poll": 8828,
      "्यूरो": 8829,
      "amayana": 8830,
      "रात": 8831,
      "▁पड़": 8832,
      "▁प्लेट": 8833,
      "▁Portal": 8834,
      "ानगर": 8835,
      "▁हथियार": 8836,
      "▁Tw": 8837,
      "िकी": 8838,
      "याधी": 8839,
      "ोंक": 8840,
      "▁Br": 8841,
      "▁Bar": 8842,
      "▁ज़": 8843,
      "ालर": 8844,
      "न्ध": 8845,
      "न्स": 8846,
      "▁Hindus": 8847,
      "▁बार": 8848,
      "▁बने": 8849,
      "▁बड़ा": 8850,
      "▁प्रस": 8851,
      "▁नौसेना": 8852,
      "180": 8853,
      "25.": 8854,
      "_सा": 8855,
      "_सूचना": 8856,
      "्टॉक": 8857,
      "abin": 8858,
      "2221": 8859,
      "▁[*F": 8860,
      "13)": 8861,
      "▁वाल": 8862,
      "▁वृद्ध": 8863,
      "▁nation": 8864,
      "a_1": 8865,
      "क्षण": 8866,
      "क्षद्वीप": 8867,
      "▁आन्द": 8868,
      "तिब्बत": 8869,
      "▁West": 8870,
      "onstr": 8871,
      "_Par": 8872,
      "uccess": 8873,
      "]](./भारत#cite_note-10": 8874,
      "थाईल": 8875,
      "री](./": 8876,
      "▁गठ": 8877,
      "▁परंप": 8878,
      "48.": 8879,
      "▁[महाराष्ट्र": 8880,
      "▁विज्ञान": 8881,
      "कांक": 8882,
      "38.": 8883,
      "384": 8884,
      "▁लिया": 8885,
      "ियान": 8886,
      "▁[↑](./भारत#cite_ref-10": 8887,
      "▁\"BBC": 8888,
      "ंडमान": 8889,
      "▁[2](./भारत#cite_ref-FOOTNOTE": 8890,
      "perCol": 8891,
      "▁सागर": 8892,
      "](./BBC": 8893,
      "▁[1](./भारत#cite_ref-FOOTNOTE": 8894,
      "▁\"महाराष्ट्र": 8895,
      "हाब": 8896,
      "▁करना": 8897,
      "▁करता": 8898,
      "परेशन": 8899,
      "मीरात": 8900,
      "](./महाराष्ट्र": 8901,
      "ंग्रेज": 8902,
      "▁1991": 8903,
      "▁contin": 8904,
      "▁चार": 8905,
      "हारजिस्ट": 8906,
      "▁वर्षा": 8907,
      "ा_वार": 8908,
      "िवस": 8909,
      "onstitution_of_India": 8910,
      "_भारतीय_": 8911,
      "▁हिमालय": 8912,
      "▁घरेलू": 8913,
      "साँचा_वार": 8914,
      "alayalam": 8915,
      "समूह": 8916,
      "](./पूर्व": 8917,
      "ष्ठ": 8918,
      "न्नड़": 8919,
      "▁भाषा\")[[": 8920,
      "▁2017.\n": 8921,
      "आईएस": 8922,
      "▁था,": 8923,
      "श्मीरी": 8924,
      "दाख": 8925,
      "ेर-": 8926,
      "▁शासित": 8927,
      "ंपन": 8928,
      "त्पत्ति": 8929,
      "pib.nic.in/": 8930,
      "▁अपने": 8931,
      "ार्कट": 8932,
      "▁तटीय": 8933,
      "%E0%A4%A": 8934,
      "epartment_of_": 8935,
      "लिंग": 8936,
      "भूटान": 8937,
      "जयपुर": 8938,
      "जयनगर": 8939,
      "िज़ोर": 8940,
      "णिपुर": 8941,
      "णिपुरी": 8942,
      "लोकसभा": 8943,
      "▁सुरक्षा": 8944,
      "्रांति": 8945,
      "शासित_प्रदेश": 8946,
      "पातकाल": 8947,
      "_न्या": 8948,
      "धिराज्य": 8949,
      "▁जलवायु": 8950,
      "▁घाटी": 8951,
      "ूरोप": 8952,
      "भोजपुरी": 8953,
      "▁वार्ता:": 8954,
      "स्लाम": 8955,
      "लयालम": 8956,
      "▁सदस": 8957,
      "▁राजनीतिक": 8958,
      "▁[पंजाब](./पंजाब": 8959,
      "%3D": 8960,
      "_राजवंश": 8961,
      "पूर्ण": 8962,
      "▁शुरू": 8963,
      "▁India](./Government_of_India": 8964,
      "खनऊ": 8965,
      "हरियाणा": 8966,
      "▁widely": 8967,
      "तुल्य": 8968,
      "फाएं": 8969,
      "ृषि": 8970,
      "▁दोनों": 8971,
      "▁निभाई": 8972,
      "Mumbai_": 8973,
      "ऍथनोल": 8974,
      "ुम्बई": 8975,
      "▁\"साँचा": 8976,
      "▁(2018).": 8977,
      "याधीश": 8978,
      "▁वृद्धि": 8979,
      "▁परंपरा": 8980,
      "▁[महाराष्ट्र](./महाराष्ट्र": 8981,
      "perCollin": 8982,
      "▁\"महाराष्ट्र\")": 8983,
      "हारजिस्ट्रार": 8984,
      "साँचा_वार्ता:": 8985,
      "ार्कटिका": 8986,
      "ऍथनोलॉग": 8987,
      "-W": 8988,
      "-i": 8989,
      "-v": 8990,
      "-sh": 8991,
      "-news/": 8992,
      "-year": 8993,
      ".bnf.fr/ark:/12148/cb": 8994,
      "09": 8995,
      "122": 8996,
      "3).": 8997,
      "324": 8998,
      "417": 8999,
      "6-4": 9000,
      "9-5": 9001,
      "Category:": 9002,
      "Republic": 9003,
      "_25": 9004,
      "_li": 9005,
      "_ins": 9006,
      "aur": 9007,
      "atic": 9008,
      "bak": 9009,
      "cs": 9010,
      "cted": 9011,
      "ees": 9012,
      "hdr": 9013,
      "jana": 9014,
      "khand": 9015,
      "m=1": 9016,
      "mir": 9017,
      "other": 9018,
      "pen": 9019,
      "sci": 9020,
      "x.": 9021,
      "தர": 9022,
      "தமி": 9023,
      "மல": 9024,
      "மிருந்து": 9025,
      "மேற்கு": 9026,
      "ய்க": 9027,
      "லமை": 9028,
      "ழர்": 9029,
      "ாந்திய": 9030,
      "ேய": 9031,
      "▁op": 9032,
      "▁ve": 9033,
      "▁times": 9034,
      "](./ஜ": 9035,
      "](./Economic": 9036,
      "](./Indus": 9037,
      "▁[d": 9038,
      "▁[சி": 9039,
      "▁[வங்காள": 9040,
      "▁[தேசிய": 9041,
      "▁\"எ": 9042,
      "▁\"ஜ": 9043,
      "▁\"வ": 9044,
      "▁\"Economic": 9045,
      "▁\"ஐக்கிய": 9046,
      "▁\"Indus": 9047,
      "▁\"வங்காள": 9048,
      "▁\"தேசிய": 9049,
      "ian_": 9050,
      "inces": 9051,
      "rem": 9052,
      "rees": 9053,
      "reet": 9054,
      "arv": 9055,
      "ala": 9056,
      "India_": 9057,
      "estiv": 9058,
      "ம்ம": 9059,
      "▁பட்ட": 9060,
      "▁பிரித்தானிய": 9061,
      "▁பௌத்த": 9062,
      "ல்ப": 9063,
      "ல்வே": 9064,
      "ப்பான்": 9065,
      "asi": 9066,
      "க்கை": 9067,
      "க்கப்படும்": 9068,
      "துரு": 9069,
      "துடுப்பாட்ட": 9070,
      "▁India.[[": 9071,
      "▁மதிப்ப": 9072,
      "த்தக": 9073,
      "த்தீ": 9074,
      "▁க.": 9075,
      "▁கிட்ட": 9076,
      "▁1200": 9077,
      "▁popular": 9078,
      "78)": 9079,
      "▁sc": 9080,
      "▁so": 9081,
      "▁தீவு": 9082,
      "▁தீபகற்ப": 9083,
      "▁Amb": 9084,
      "etah": 9085,
      "iland": 9086,
      "ecu": 9087,
      "▁2016.": 9088,
      "▁Publishers": 9089,
      "uries": 9090,
      "ourbak": 9091,
      "▁22.": 9092,
      "▁27.": 9093,
      "▁bu": 9094,
      "▁cur": 9095,
      "▁capita": 9096,
      "ovt": 9097,
      "ையான": 9098,
      "oln": 9099,
      "க்சி": 9100,
      "links": 9101,
      "▁Mana": 9102,
      "▁Movement": 9103,
      "▁நபர்": 9104,
      "ango": 9105,
      "angam": 9106,
      "▁mon": 9107,
      "▁may": 9108,
      "▁military": 9109,
      "▁Tim": 9110,
      "ிரதேசம்": 9111,
      "ir_Force": 9112,
      "ாட்டில்": 9113,
      "-25": 9114,
      "-231": 9115,
      "▁உல": 9116,
      "ever": 9117,
      "▁Dance": 9118,
      "ண்டும்": 9119,
      "▁Black": 9120,
      "-44": 9121,
      "-37": 9122,
      "-316": 9123,
      "▁2007.": 9124,
      "upt": 9125,
      "_தே": 9126,
      "▁Gana": 9127,
      "▁Ganges": 9128,
      "-500": 9129,
      "▁[\"World": 9130,
      "▁[\"National": 9131,
      "](./பி": 9132,
      "406]](./India#cite_note-": 9133,
      "ubm": 9134,
      "ubram": 9135,
      "18.com/news/": 9136,
      "odern_": 9137,
      "15.": 9138,
      "ables": 9139,
      "web.archive.org/web/200": 9140,
      "▁[*P": 9141,
      "▁early": 9142,
      "▁third": 9143,
      "7080": 9144,
      "▁\"பி": 9145,
      "14.": 9146,
      "147": 9147,
      "▁grow": 9148,
      "harkhand": 9149,
      "ained": 9150,
      ")[[13": 9151,
      "-65": 9152,
      "ாலும்": 9153,
      "த்துக்கு": 9154,
      "▁*[ப": 9155,
      "ajya": 9156,
      "▁original](http://": 9157,
      "▁2011](./இந்தியா#CITEREF": 9158,
      "▁குகை": 9159,
      "](./Sanskrit": 9160,
      "illed": 9161,
      "▁\"Cambridge": 9162,
      "▁[Cambridge": 9163,
      "▁[Central": 9164,
      "வினை": 9165,
      "profile": 9166,
      "▁உள்ளிட்ட": 9167,
      "▁[↑](./India#cite_ref-4": 9168,
      "hai": 9169,
      "oger": 9170,
      "ogam": 9171,
      "ana-m": 9172,
      "ana-49": 9173,
      "ians": 9174,
      "](./இந்தியக்_": 9175,
      "](./Special:BookSources/978-81": 9176,
      "issn": 9177,
      "ற்பத்தி": 9178,
      "▁\"Special:BookSources/978-81": 9179,
      "▁[↑](./India#cite_ref-FOOTNOTEStein2010": 9180,
      "8576.": 9181,
      "▁\"Ar": 9182,
      "▁புது": 9183,
      "ue.bnf.fr/ark:/12148/cb": 9184,
      "ங்கள்,": 9185,
      "▁vill": 9186,
      "arkar": 9187,
      "ites": 9188,
      "_Res": 9189,
      "_Raj": 9190,
      "Economist": 9191,
      "](./முகலாய": 9192,
      "angered": 9193,
      "▁பிராந்திய": 9194,
      "_அமைப்பு": 9195,
      "-gana-m": 9196,
      "html).": 9197,
      "க்கித்தான்": 9198,
      "க்கிப்பீ": 9199,
      "கிறது.[[": 9200,
      "erves": 9201,
      "svg": 9202,
      "▁\"கேம்பிறிட்ஜ்": 9203,
      "51–": 9204,
      "▁[கேம்பிறிட்ஜ்": 9205,
      "▁contrib": 9206,
      "india/national": 9207,
      "](./கேம்பிறிட்ஜ்": 9208,
      "▁(2017).": 9209,
      "ambridge_University_Press": 9210,
      "-win": 9211,
      "Chand": 9212,
      "▁மேற்பட்ட": 9213,
      "anskrit](./Sanskrit": 9214,
      "▁மூன்றா": 9215,
      "▁இருந்தது.[[": 9216,
      "▁பதிப்பகம்](./கேம்பிறிட்ஜ்": 9217,
      "கித": 9218,
      "▁நடனம்": 9219,
      "▁[இல": 9220,
      "▁2023.": 9221,
      "▁plain": 9222,
      "...]": 9223,
      "▁[3](./இந்தியா#cite_ref-FOOTNOTE": 9224,
      "otechnology": 9225,
      "ிழக்கா": 9226,
      "▁centuries": 9227,
      "_recent": 9228,
      "▁தலைமை": 9229,
      "▁2020.\n": 9230,
      "laci": 9231,
      "▁வரைய": 9232,
      "_உற்பத்தி": 9233,
      "▁even": 9234,
      "▁event": 9235,
      "athematics": 9236,
      "▁இலட்ச": 9237,
      "_2024": 9238,
      "▁இதற்கு": 9239,
      "▁நாடாக": 9240,
      "_நாடுகள்": 9241,
      "vention": 9242,
      "▁Press](./University": 9243,
      "▁independence": 9244,
      "▁பகுதியாக": 9245,
      ".net": 9246,
      "▁[Archived](https://web.archive.org/web/20210": 9247,
      "▁உருவாக்கப்பட்ட": 9248,
      "க்_கா": 9249,
      "க்கோபார்": 9250,
      "▁upper": 9251,
      "▁விளையாட்டுப்": 9252,
      "▁செய்த": 9253,
      "னைத்துலக": 9254,
      "most_recent": 9255,
      "hola": 9256,
      "ominion": 9257,
      "▁species": 9258,
      "_number": 9259,
      "data.bnf.fr/ark:/12148/cb": 9260,
      "cheduled": 9261,
      "Raju": 9262,
      "rief-on-": 9263,
      "▁[India](./India": 9264,
      "Environment_and_F": 9265,
      "them-of-india": 9266,
      "▁நுட்ப": 9267,
      "▁ஆண்டின்": 9268,
      "▁longer": 9269,
      "▁1994](./இந்தியா#CITEREF": 9270,
      "▁1994](./India#CITEREF": 9271,
      "▁York:": 9272,
      "IMFWEO.IN-2": 9273,
      "ue_des": 9274,
      "-anthem-of-india": 9275,
      "ministrative": 9276,
      "vatsyayan-lord-4": 9277,
      "vatsyayan-lord_43": 9278,
      "▁occup": 9279,
      "▁\"Routledge\"),": 9280,
      "india.gov.in/india-glance/national-symbols": 9281,
      "▁குடியரசுத்": 9282,
      "ரசியல்": 9283,
      "▁இதுவாகும்.": 9284,
      "▁முக்கியமான": 9285,
      "inancial": 9286,
      "worldcat.org/issn": 9287,
      "nimal": 9288,
      "elangana": 9289,
      "▁திரைப்படத்துறை\"),": 9290,
      "▁oldest": 9291,
      "web.archive.org/web/20090": 9292,
      "▁Press](./Cambridge_University_Press": 9293,
      "_value_des": 9294,
      "-a-brief-on-": 9295,
      "▁குறிப்பிடத்தக்க": 9296,
      "lothing": 9297,
      "news18.com/news/": 9298,
      "harmaceutical": 9299,
      "▁நான்க": 9300,
      "beralisation": 9301,
      "temporary": 9302,
      "Ludden2014),": 9303,
      "jana-gana-m": 9304,
      "406]](./India#cite_note-vatsyayan-lord-4": 9305,
      "ana-498576.": 9306,
      "க்கிப்பீடியா": 9307,
      "india/national-anthem-of-india": 9308,
      "▁பதிப்பகம்](./கேம்பிறிட்ஜ்_பல்கலைக்கழகப்_பதிப்பகம்": 9309,
      "most_recent_value_des": 9310,
      "Environment_and_Forests": 9311,
      "-a-brief-on-jana-gana-m": 9312,
      "news18.com/news/india/national-anthem-of-india": 9313,
      "-a-brief-on-jana-gana-mana-498576.": 9314,
      "news18.com/news/india/national-anthem-of-india-a-brief-on-jana-gana-mana-498576.": 9315,
      "*),": 9316,
      "-II": 9317,
      "1)[[": 9318,
      "A0": 9319,
      "AL": 9320,
      "Curry": 9321,
      "Copland": 9322,
      "_అ": 9323,
      "_ఎ": 9324,
      "_ర": 9325,
      "_12": 9326,
      "_యు": 9327,
      "_రాజ": 9328,
      "_శాస్త్ర": 9329,
      "good": 9330,
      "iC": 9331,
      "music": 9332,
      "nu": 9333,
      "t/": 9334,
[...]
